0001
0000
0c07
0b07
0101
1700
0507
0000
0c04
0205
0002
000e
0000
0403
0600
0005
0000
0000
1700
0b00
0000
0005
0e00
0910
0b13
0001
0504
0200
000a
070a
000a
0000
000e
0013
0b02
0000
0b00
0007
0900
0000
0600
0900
0013
020d
0c00
0500
0700
0600
0000
0000
1001
1009
0001
0910
0600
0000
1306
0000
000e
1104
0000
0000
1106
0003
0000
0005
000d
0005
0000
0006
0000
0007
0016
050b
000a
0005
0015
1100
0e00
000e
0010
0700
0004
0001
000e
0012
0904
0306
0001
1900
0000
0407
0013
0714
0000
1700
0003
0000
0b00
0000
0006
0000
050b
0100
000a
0607
0500
0000
0000
0010
0000
000b
0300
0500
050a
0000
0c01
030c
1800
0001
1100
0605
0d00
0300
040c
060c
1200
0000
0001
0000
1104
0b05
0001
1a00
0006
0000
0900
0305
000a
000f
0001
0000
0a00
0002
0000
0000
1d00
0a00
0004
0008
1100
0d15
0c1a
0001
0904
0100
000e
070c
0008
0000
0014
0017
0503
0400
1300
0003
0c00
0000
0100
0703
0011
000f
0800
0803
0600
0000
0000
0000
0d00
0f0a
0000
0c10
0600
0100
0f04
0000
0004
1105
0100
0000
1307
0003
0100
000a
000b
0011
0000
0008
0000
000b
001a
050a
0016
0008
0018
1102
1502
000b
000f
0000
000a
000b
000a
0012
0906
0506
0006
2200
0000
0a07
0016
0411
0000
1500
0004
0101
1000
0307
0005
0000
0406
0200
0004
040b
0300
0000
0000
0008
0000
0005
0502
0500
070d
0000
0c00
0105
1600
0000
0800
060a
0c00
0000
040e
060f
1500
0000
0001
0000
1107
0e0c
0008
1100
0005
0000
0800
040b
001d
000b
0000
0000
0900
0200
0000
0002
1a00
0900
0000
000c
1200
0e17
0f1e
0002
0606
0200
000e
0a0e
000d
0000
0018
0013
0407
0b00
1200
0000
0d01
0000
0000
0808
0011
0011
0b03
0800
0d00
0000
0000
0000
0600
0505
0000
0e0d
0402
0600
0b02
0000
0006
0e05
0100
0000
1309
0008
0100
0007
000d
0018
0104
000b
0000
000a
001a
070d
0022
000b
0515
1101
0e07
0007
010d
0004
0012
0011
000e
0013
0009
0412
020c
1d00
0000
0e01
0116
030d
0100
1909
000b
0405
1200
000c
0008
0003
0102
0200
0001
0709
0000
0000
0008
0005
0300
0001
0906
0300
060e
0000
0f00
0100
1600
0000
0700
0713
0c00
0000
020d
0514
1300
0000
0000
0000
1309
0d11
0002
0f00
0000
0002
0800
040f
001a
0009
0000
0300
0a00
0000
0000
0000
1500
0b00
0000
000c
1000
0e15
0f1e
0007
010a
0800
0005
0b07
0010
0000
0016
000c
0008
0300
1000
0000
0f01
0000
0000
0304
0011
0312
0b05
0300
0d00
0000
0000
0100
0300
0600
0000
080b
0301
0a00
0504
0000
0006
0b02
0000
0000
1106
0007
0000
0006
0006
0011
0006
0009
0000
0006
001a
050b
001a
000f
0616
1000
0807
0206
030c
0204
000c
0011
000d
0017
000c
040b
0406
1700
0000
1100
0011
020d
0000
1a0d
000c
0001
0e00
000b
0008
0003
0005
0200
0004
080b
0000
0000
0006
0001
0000
0000
0907
0200
010c
0000
1000
0100
1500
0000
0600
0811
1000
0000
040e
0515
1100
0000
0001
0000
130b
0914
0005
1200
0000
0000
0600
0511
001b
0007
0100
0a00
1004
0200
0000
0000
1000
0b00
0000
0012
1800
1114
0e19
0005
020b
0000
0001
0c06
000d
0000
0012
0007
000c
0400
0d00
0000
0e03
0000
0000
0000
0010
0116
0c05
0000
0c00
0600
0000
0200
0c00
0c01
0000
130f
0502
0500
0000
0000
0002
1101
0000
0000
0c0a
000d
0000
0007
0007
0610
0006
0004
0000
0003
0014
0609
0015
000d
0319
1000
0307
0005
010f
0000
0007
0309
000e
001b
0013
0806
0205
1c00
0000
1a00
0209
0006
0000
1b0c
000d
0000
0f00
0107
0202
0004
0202
0100
0009
0a05
0000
0000
0000
0000
0900
0000
0906
0500
0504
0000
0d00
0000
0d00
0000
0900
030c
1000
0000
0312
0112
0b00
0000
0005
0000
140b
0918
0004
1400
0000
0000
0400
081a
0016
000d
0702
0700
1406
0000
0000
0000
0a00
0800
0000
0017
1900
0917
0c19
0010
0909
0000
0000
090a
0003
0000
000c
0007
000b
0f00
0500
0000
0c04
0000
0000
0304
000d
0017
0a07
0400
0800
0300
0000
0000
0a04
1200
0000
1a14
0302
0800
0000
0000
0002
0f00
0500
0000
060a
0011
0000
000c
0005
0b0e
0006
0005
0000
0002
0013
0609
0018
0306
0014
1600
0009
0000
030a
0000
0002
0000
000e
001e
0112
040e
0308
2100
0000
1a00
0b03
0004
0000
1005
000d
0000
1000
0403
0000
0008
0803
0100
0000
0300
0000
0000
0002
0000
1200
0000
0007
0000
0700
0000
0900
0006
0800
0000
0a00
0010
0a00
0000
000f
0011
0600
0100
0009
0000
0900
0916
000a
0600
0000
0000
0600
0a10
0003
0011
0704
0500
1700
0000
0000
0000
1100
0300
0000
0010
1100
051c
101a
001a
0412
0000
0003
070e
0000
0000
0006
0006
0007
0f00
0100
0001
0b00
0000
0000
0501
000b
0017
1301
0500
0300
0000
0000
0000
0b05
1200
0000
190e
0805
0600
0600
0000
0007
0902
0500
0000
0502
000c
0000
0008
0006
0109
0304
0d14
0000
0002
0210
0607
0011
0102
000f
1702
0108
0400
0001
0700
0000
0001
010b
0817
0908
040e
000d
1500
0000
1000
0c00
0003
0200
020a
0001
0000
0b00
0405
0000
000b
0c08
0000
0001
0000
0000
0000
0009
0005
0600
0000
0000
0000
0b00
0000
0500
000d
1000
0000
1200
0009
0a00
0000
0308
000c
0800
0000
0004
0001
060a
0d10
0011
0000
0503
0000
0b06
0308
000e
0516
0800
0800
1500
0000
0000
0003
1900
0800
0000
0010
0c00
0519
1019
001a
0014
0000
0004
090e
0006
0000
000b
0004
0701
0800
0700
0000
0c00
0000
0100
0c00
000e
0515
0e00
0b00
0500
0000
0000
0000
0708
1000
0000
0f06
0c0b
0700
0200
0000
000e
0909
0000
0000
1201
0000
0200
0000
0006
0001
0801
091b
0000
0002
0f15
050e
0014
0006
0008
1207
0104
0b00
0006
1100
0000
0008
000c
0011
050d
020c
0507
0d00
0000
0e09
0a01
010b
0700
050a
0000
0300
0c00
0102
0008
000d
080c
0301
0004
0008
0200
0900
030e
010b
0200
0000
0800
0001
0700
0000
0800
0011
1700
0000
1900
0008
1100
0000
0606
0112
1000
0000
0009
0002
0b09
0d07
0503
1600
0513
0000
0c05
070d
0005
0003
0301
1306
0b00
0107
0000
0000
0b00
0a00
0200
0004
0700
0b01
0d0e
0002
0403
0000
000b
0002
000f
0005
000d
000b
0603
0000
0000
0005
0501
0000
0000
0100
0008
000d
0900
0500
0500
0500
0100
0000
1903
0e0a
0000
0e14
0600
0000
1500
0000
000d
1100
0c03
0000
0602
040f
0004
0000
000e
0000
0005
0309
0009
0008
050e
0709
0006
0000
0010
1500
1100
000f
000d
0d02
0300
000a
000e
0417
0004
040d
0100
1c00
0000
0200
0007
0c0a
0002
100c
0000
0000
0f00
0000
0004
0000
0009
0200
0008
0404
0100
0000
0000
070b
0000
000b
0300
0105
090f
0000
1007
0a0b
1500
0100
0d00
0900
0900
0500
0a0c
0308
0f00
0000
0013
000c
0505
0013
0000
1100
0014
0400
0300
1312
0000
0000
0002
1800
1200
0100
0000
0000
0000
0500
0200
000d
0a00
0604
070b
0000
0d06
0000
0006
0000
000f
0006
0011
0000
0002
0800
0000
0005
0500
0000
0000
0000
0000
0014
0000
0000
0d00
0a00
0000
0000
1902
100b
0000
1312
0d05
0000
0e00
0000
0001
1300
0d02
0900
0804
0517
0005
000d
010b
1401
0005
0f08
0000
000a
0008
0501
0007
0100
0013
0e00
0b01
0100
060a
0e00
0000
000d
020f
011c
070f
0309
0000
1d00
0000
0800
080a
0a07
0005
0d03
0001
0000
0300
0000
0000
0000
0207
0006
0000
0301
0400
000c
0000
0604
0400
000c
0002
0201
0006
0000
0e00
0106
0e00
0000
0700
0c02
0700
0600
0e05
0800
0d00
0000
000e
0000
090a
001f
0000
0800
0007
0000
0000
090e
0014
0000
0200
0800
100f
0900
0000
0000
0000
0605
0000
000e
0500
040e
110c
0000
000b
0000
0000
0400
011d
0008
0015
0000
0004
0b00
0000
0000
0a00
0000
0000
0000
0000
0014
050b
0000
1100
0800
0000
0003
0700
0200
0000
0f0e
060e
0800
0d00
0000
0000
0c00
0900
0c00
0603
0019
0000
0009
0104
120f
0607
0b08
0000
0001
000c
0608
000d
0100
0008
0f00
0503
0200
0c05
0d0a
0403
000e
091d
0021
0112
000f
0100
1700
0000
1400
110c
0906
0004
1707
000c
0000
0900
0007
0000
0000
000b
0000
0000
0500
0300
0000
0000
0000
0400
0002
0006
0000
0003
0000
0d00
0004
0f00
0000
0000
0a08
0500
0000
0606
0904
0d00
0000
0009
0000
0c13
022b
0009
0000
0004
0000
0000
0f10
0020
0000
0300
1400
100b
0000
0000
0000
0000
0609
0100
0006
0b00
080e
0818
0000
010a
0000
0000
1100
031e
0006
090e
0000
0005
0000
0001
0000
0600
0000
0000
0000
0003
0013
0b0c
0000
0e00
0700
0000
0009
0000
0000
0000
0806
0802
0b00
0405
0000
0004
0600
0000
0905
0100
001b
0000
0007
0000
0b07
0008
0d0c
0000
0200
020d
0305
0008
0103
000d
0c00
0000
0000
1108
0a0c
0000
0006
0718
0423
0510
050a
0200
0c00
0000
1e00
0f00
0300
0000
0d0f
000e
0000
0300
000c
0006
0000
0508
0000
0000
0006
0100
0000
0000
0800
0004
0000
0007
0400
0000
0000
0d00
0003
1400
0000
0c00
0502
0b00
0000
090f
180a
0300
0000
000c
0000
0513
032c
0009
0000
0002
0000
0000
1315
000d
0000
0500
2200
1b0b
0000
0000
0000
0000
0103
0400
000e
0e00
030c
0010
0006
020e
0000
0000
1200
0015
0006
0109
0000
0007
0000
0000
0000
0202
0000
0000
0000
0000
001a
000a
0000
0000
0c00
0000
0000
000d
0700
0000
1007
1200
0000
0000
0000
0006
0900
0000
0c06
0000
0022
0000
000d
0000
0f00
0004
0504
0000
0000
0304
0000
0000
0902
000f
0500
0000
0000
0e00
0906
0000
0000
0316
0625
0a0f
0605
0200
0f00
0000
2600
1800
0000
0000
1210
000d
0000
0000
0009
0304
0000
100e
0002
0001
0105
0000
0000
0000
1900
0b09
0003
0003
0a00
0000
0000
0c00
0000
0800
0200
1200
0000
0d02
0000
1010
150c
0000
0000
000a
0000
0011
0024
0000
0c00
0000
0000
0000
1718
0000
0000
0700
1800
1603
0000
0000
0000
0000
0000
0100
0019
1400
0012
0f00
0017
1810
0000
0000
060a
0000
0000
0000
0000
0013
2700
0003
0000
0000
0000
0000
0300
0000
0020
0007
0000
0000
0800
0000
0000
000b
0000
0000
2119
0300
0500
0a00
0300
0001
0900
0000
0200
000a
0028
0000
001b
0000
0203
0006
0000
0000
0005
0003
0000
000b
1600
000c
0a00
0000
0000
0000
0700
0000
0000
0109
0b1b
1809
000a
040d
1b00
0000
1b00
2100
0000
0600
0112
0009
0000
0600
0502
0e00
0100
1a0e
0000
0000
0300
0900
0000
0000
1200
1300
0000
0000
0000
0000
0404
0d00
0002
0500
0000
0e00
0005
0300
0000
0a01
0d10
0000
0000
0010
0103
000c
0011
0700
0f00
0000
0000
0000
1c0a
0000
0000
040a
1300
1000
0000
0000
0000
0100
0000
0400
0011
1000
000f
1900
0024
180e
0000
0100
0115
0000
0000
0000
0001
0011
2900
0002
0000
0000
0000
0000
0d00
0000
0021
0000
0000
0000
0000
0000
0006
0208
0000
0000
1d17
0000
0d00
0c00
0a00
0303
0100
0000
0700
0105
0017
0000
0411
0000
0006
0906
000c
0000
000a
0a08
0300
0007
1000
0004
0907
0000
0000
0000
1300
0000
0000
0c03
0f10
1200
0305
0015
0f00
0000
0500
1e00
0000
1000
0005
0000
0000
0000
0b03
0d02
040d
110b
0000
0000
0100
0600
0002
060b
0703
0c00
0000
0000
0000
0e00
0509
0600
030d
0e00
0000
1800
000a
0000
0000
1000
0c0e
0000
0800
0005
080f
0214
000a
0b0b
0500
0102
0000
0100
0c0a
0600
0500
0a06
1a00
1500
0000
0000
0007
0600
0a00
0500
0109
0a02
0111
1302
0018
0205
0000
0800
010b
0011
0000
0602
0006
020c
1100
0000
010b
0001
0200
0000
0300
0000
0617
0201
0000
0502
0001
0003
0005
0407
0500
0000
1012
0908
0602
0400
0603
0e0d
000d
0000
0a04
1406
0000
0000
0a03
0000
0004
1800
0116
000e
0204
1315
0503
0007
0900
0900
070d
0300
0e00
0000
1b00
0000
0000
0808
000a
0010
0304
0003
0c00
0000
0000
1000
0609
0f00
0300
0000
0000
0b00
0300
0210
0005
0c05
0007
0000
000a
000b
0004
0504
030a
0802
0600
0000
000e
0f00
0203
0804
0014
0d00
0a00
1700
0002
0b00
0408
0800
050a
1200
0500
0001
fe01
fe01
0000
fe00
0200
feff
0002
0201
0200
00fe
02ff
00ff
01fb
0000
02fe
0000
02fb
0002
ffff
fcfd
00fe
ff00
fe03
0000
02ff
fdfe
00fd
fe03
0200
0005
0100
0000
03fe
0001
0303
ff02
0000
00fd
0001
0102
0101
00fc
ff00
02fb
fd00
0003
fe01
02fd
00fe
fffb
fc00
0004
fffc
0000
fe00
ff02
0200
fa01
fe00
02fe
00fe
00fd
04ff
fe00
0100
0301
ff01
ffff
00fe
ff05
00ff
0600
0700
ff00
0700
0300
0200
01fe
0401
fffd
0306
0000
0300
01fe
02fd
0001
0003
0100
fffb
fc00
0001
0101
fb00
0100
00fe
00fd
fe01
0000
fb00
01fe
00fe
fcff
0000
fa02
0005
fe01
0101
fd00
0300
fe09
0203
ff00
0100
00fe
fffe
ff04
00fe
02fe
0000
0000
03ff
01fd
0200
01fe
0600
fefe
fd00
0000
0000
01fe
0000
00fe
fffe
0000
feff
0003
ffff
0001
ff02
0101
fffd
0100
fffe
00f5
fffd
fcf6
0103
02fd
01ff
fbfa
0404
f3f8
080f
00fb
0205
fffc
0100
f8fb
0301
00ff
0000
fffe
00fd
ffff
fffb
fe00
03fe
fffd
0002
0000
fffd
fffe
00fe
fe00
0204
0102
0100
ffff
ff02
ff03
0700
0005
0a02
fefe
0200
ff07
0301
000b
0604
fe04
01ff
ff01
0400
ff05
0100
0000
03fe
fc02
fe01
0201
fc03
0000
0004
0000
0502
0202
0002
fe05
0103
0102
ff03
01fe
fe08
0001
0307
0002
0105
ff05
0006
0000
0102
ff00
0002
fd03
0005
0100
0100
0200
ff00
00ff
ff03
ff00
0000
ff01
fe02
0500
fd05
0000
0103
0001
02fd
fe01
0100
00ff
02ff
ff00
01ff
0001
01fb
02ff
0000
0000
0000
fc01
00fd
0003
00ff
0005
feff
fb06
00fd
fd02
fffd
ff01
0000
ff05
01fe
0000
0200
fd05
04fe
f8fe
0301
fd03
fe00
fd02
0601
fb00
0200
fc02
0001
0003
02fb
fc00
fffe
fd02
00ff
ffff
0700
ff00
0600
0002
0500
0001
0200
fefe
04ff
00fe
0000
0001
0001
fdfe
fffe
02ff
0101
01fe
fbff
fd00
fd00
0100
fe02
fefb
fc02
00fd
fe00
fe00
fe00
03ff
fdff
0003
fefe
ff02
ff00
00ff
ff00
01ff
0101
01ff
fd01
fffd
0101
0001
0000
0201
fd01
ffff
0101
02ff
0100
0002
0000
0200
0100
ffff
02ff
0001
ff00
ff00
02ff
ff02
07fe
0002
0000
0002
0001
0002
ff00
fc03
fd01
ffff
ff00
fd02
01fe
ff01
0005
fffd
0404
fd04
ff04
fffe
0005
fefb
0301
fdfd
0004
fffe
ff01
ff00
ff03
0200
0000
0200
0001
0002
fd02
0402
fe00
0202
ff03
00fe
ff00
fffe
fd01
0302
0000
0007
08fd
0102
ff03
ff01
0302
00fc
0202
00fd
f803
00fc
0000
01ff
02fd
fffe
fd00
01fe
0200
04fe
00fc
03fe
fefc
0200
0000
0402
0100
0404
01fc
0302
0100
fe00
fe02
fffb
00fb
01ff
0000
ff07
0004
ff00
0000
fe01
0001
0100
01ff
04ff
05fc
00fe
02ff
fe00
0303
02ff
0501
00fe
0603
0001
fe00
ff00
fd01
fdfe
fe00
fe00
0002
0000
0003
0200
fe00
00ff
0100
0104
0000
ff03
fe00
0100
fb04
fdff
0604
0000
ff01
0000
0400
0001
0802
ffff
ff00
ffff
0200
0000
00fe
0300
0200
0002
0200
0000
0104
0302
0002
fe02
0003
fe00
0104
fe02
0001
0002
0000
02ff
fefd
0200
fe01
00ff
0006
02ff
fb07
feff
0000
00ff
0102
02ff
fe02
01ff
00fd
0000
0000
ff02
fefd
fe00
0300
ff00
fefd
fe00
fefc
0100
00fe
00fe
0100
ffff
fef8
0000
00fb
0000
0100
fe01
fefc
01ff
01fe
0204
02ff
0400
0000
ff02
01ff
0301
0000
0300
00ff
fe00
0001
00ff
0000
fc00
0002
fd02
ffff
0003
fe00
0000
fc00
fd00
fffe
ff00
fffc
02f9
fdff
fefb
01fc
0002
02ff
fefe
0101
0002
0001
0000
fffd
0002
feff
0100
fbfe
0000
0004
0201
0404
0201
00ff
01fe
fc00
00ff
fefe
03fe
fa00
0200
0003
0002
00ff
0000
0000
01fd
fe00
fdfe
00ff
01fd
00fd
00fe
fd00
02ff
ff01
03fe
02fd
01fb
0000
00fb
0000
fefd
ff01
00fa
00fe
fff9
0301
fffd
fdfe
00fd
fb00
fff9
fefd
02fc
fcfc
fe01
0304
fdfe
02ff
0105
0000
fffc
0200
fffc
0200
0103
00ff
0100
0203
fefe
04ff
0002
ff03
0300
0100
0000
ff01
0200
0003
fe01
fe02
fb00
0002
fd00
01fe
00fd
00fd
fd00
0000
fefe
ff03
f802
feff
f801
01fd
fd00
ff02
fdff
feff
fd00
00fc
fdfc
0000
0000
ffff
0100
0201
01ff
0101
00fe
fe00
0001
fffb
0200
ff01
0001
fefd
0209
fdfe
0303
fefc
01fe
ffff
fe00
fdfe
00ff
fefe
0300
fe00
01fe
fe04
0201
0000
0000
00fe
0002
0105
0100
0100
ff00
01ff
00fb
ff01
02ff
ff00
fefc
fe01
00fe
0000
ff00
0001
04fe
00ff
01fe
fe03
fe00
fe00
fd00
0003
0000
0000
02ff
ff02
fc02
0604
ff00
fc01
00fc
0200
00fe
0000
0002
fb00
fffe
0201
0000
0300
fffd
ffff
fefd
0001
0100
03ff
fe00
00fd
fffe
0201
ff00
0002
ff00
0001
ffff
ff01
feff
0003
fd00
0001
fffd
0002
00fd
00ff
fd01
fffb
0002
00fc
00ff
0003
0000
0002
00ff
0000
0100
ff00
0002
fefe
0201
0001
0202
ffff
0004
fe01
0100
0100
00ff
0002
fc05
ff00
fd00
fc00
0002
0002
fd01
fe01
ff00
ff01
0000
fe01
ff0a
fcfe
0400
0003
fb02
f901
fc0c
f801
fd03
fdfd
fe01
fe00
0003
0301
0000
0003
0000
ffff
0205
fa05
0102
0600
0002
fc00
0205
fc00
fe03
01ff
fe00
0301
00ff
0000
0000
0102
00ff
fe01
0001
fb00
01ff
0000
0001
fe03
0200
00ff
0301
0100
0201
fc00
fefd
0000
ff02
0000
04fe
01fe
03fe
fd02
02ff
ff00
0300
ff00
0700
f800
0500
fdff
0200
00ff
0402
fd02
0100
ff00
0203
fe04
05fd
fe00
ff00
0005
0301
0101
09fe
feff
0201
fe01
0100
fd03
0402
ff02
0101
0000
0102
0101
0400
ff00
0300
00fd
03ff
ff00
0102
00ff
0100
03fe
ff00
0200
00fe
0100
ff00
01ff
0100
0202
fffe
05fe
0001
01fe
0100
0302
05fe
02ff
fd01
00ff
fe01
03fc
0201
02fc
fd00
0200
fb03
0000
f6ff
00ff
02fe
0000
fd00
fdff
f500
0202
fe00
ffff
0000
0100
fc02
0002
0000
00ff
fe02
fd02
0003
0004
0402
fe01
0002
0004
0002
0004
0100
0001
0201
ff03
0003
0003
ffff
0000
0403
0003
02f9
0606
0200
0404
02ff
0204
0000
0000
01fd
0304
0504
fffe
0004
01fd
0200
00ff
ff00
fe06
00fe
fdff
0100
ff04
0000
0000
0100
00fc
0004
fe02
0003
0003
fd00
0103
0400
0105
01ff
01fe
0000
0000
0401
00ff
0000
ff00
fefe
01fd
0300
00ff
00ff
0000
ff01
0001
0101
fe02
0301
fd02
fcfa
01ff
fa01
00ff
fe00
fcfe
00ff
fc01
ff00
ff02
0101
ff00
ff01
0100
0003
fffe
0000
0300
0003
0300
fe00
04ff
fe00
0201
fe07
01fe
ffff
fb00
0201
01ff
fd02
0303
0000
0100
0600
00fe
0002
0400
0000
0402
04ff
fe00
05fd
fe01
05fc
0000
0400
0404
0500
0101
0300
0003
fb00
00f9
0000
00ff
02fe
fffd
0000
00fd
00fd
0103
0300
ff00
fe02
fffe
ff00
0100
fe00
00fc
05fe
00fd
01fd
feff
ff00
0000
0001
fefe
00fd
0302
fb03
01fe
0000
fcff
fcff
0100
0100
ff00
0200
fe04
02fe
fd01
0104
ff02
02fe
fe01
0000
ff02
0001
ff02
03ff
fd00
03fe
0100
0203
01fe
03ff
0004
0000
0204
0000
ff04
00fe
00ff
0000
0800
03ff
0000
0000
0001
0101
0202
00ff
0000
0002
0200
0001
fefe
0001
ff00
0000
ff00
ff00
ff00
00ff
0001
0101
ff03
00ff
0100
00ff
0001
0001
0003
0001
0000
0001
0000
0102
0100
01ff
ff00
0100
ff00
ff02
00ff
0000
00ff
ff00
0000
fb02
0000
00ff
0200
03ff
0200
ff00
fe02
00fe
0002
fe00
0201
0100
fe04
00ff
ff03
0000
0004
0501
0000
0302
ff00
0000
0100
0000
0001
0101
ff00
00fe
0000
ffff
0100
01ff
0100
01ff
ff00
0d02
06fe
f100
0000
f700
fe00
0501
0001
f7fe
00fd
fc00
0000
0400
0300
f700
0100
fb00
00ff
0100
fe00
0000
fd01
0100
ff00
ff01
0000
ff00
00ff
0001
ff00
ff01
0000
feff
0100
0001
0101
00fe
00fc
0200
fd00
01ff
00ff
01fe
0001
ff00
00ff
00ff
00ff
ffff
0300
0101
01fe
00ff
0101
0000
0200
0200
ff00
0000
0000
00ff
0202
0000
fd01
0100
0000
0002
00ff
ffff
ff00
0100
0002
0001
0108
0001
ff00
ff00
01ff
01ff
0002
0100
fffe
0000
ff00
ff00
0200
fd00
0200
02ff
0000
0102
ff01
fe01
0000
0001
0002
ffff
0000
00ff
0000
0102
01ff
0001
ff02
0000
0201
0200
ff00
0100
ff06
00ff
00fd
00ff
0300
01fe
ffff
0001
ffff
0101
0101
01ff
ff03
0001
0000
ffff
0100
01ff
0001
fe01
0000
fe00
00ff
00fc
0200
0001
00ff
feff
0001
0000
00fc
ff00
0100
00ff
ffff
01ff
0001
0001
00ff
ff00
0000
00fe
fffe
ff00
0000
0001
ff00
0000
ff01
ff02
ff00
ff00
0200
fd00
0000
0002
02fd
0100
01ff
00fe
00fc
0202
0101
0000
0000
02ff
0000
0000
0100
0200
02fe
ff00
ff00
0000
0000
0000
0000
03ff
0100
0000
0000
ff00
ffff
03fe
0000
0100
ff02
00ff
0000
0101
fcfa
00ff
0200
01ff
00ff
0100
fffb
ff00
0101
fffe
ff01
0000
00f9
0101
00fe
0000
0300
0001
02fe
0100
0001
ff00
0000
ff00
0000
ff01
00ff
ffff
00fe
0000
fe01
0000
ff01
ff01
0100
0000
0101
ff00
0000
0002
01ff
0000
ff01
ff00
0000
0002
00ff
ffff
0000
0000
fe00
ff00
0200
0000
0103
00fc
0003
00ff
0202
fe02
0001
ffff
00ff
01fe
0000
ff00
0000
0000
0200
0101
ff02
0400
ffff
0000
0200
0101
0000
0100
00fe
00ff
0000
0002
0000
0200
0100
0000
0000
0001
ff00
0001
00fe
0100
fffe
00fe
ff00
0000
00fe
0002
01fe
0000
0200
0100
0000
0100
ff01
0100
00ff
0000
01ff
0000
01ff
00ff
0200
0000
00ff
ff00
01ff
01ff
0300
fe02
fffe
0100
00fe
0001
0000
0700
02ff
03fe
0000
0000
fe00
fefd
04fe
00fe
fefe
01ff
01fd
0200
0101
0000
fe00
ff00
0000
000d
0000
01fc
ff01
00fc
00fe
0001
ffff
00fd
0001
00ff
0000
0003
0001
00fe
fe02
0201
0000
ff00
0000
00fd
ff00
0100
0000
fd00
0001
0200
fe02
0103
0301
ff00
fe02
00fe
0100
0300
0000
0000
00fe
00ff
00fe
ff01
02fd
0000
0001
00ff
ff01
01ff
00ff
0000
0000
0000
0001
00fd
0000
0101
fd01
0000
fe01
00ff
fffc
00ff
ff00
ff00
01ff
0000
0001
01fe
fe00
0000
feff
0000
00ff
0200
fdfe
00ff
01fe
fe00
0000
0000
0000
ff01
0000
0001
fefe
0200
0202
00ff
0200
00ff
0001
fc00
0003
ff00
0100
ff00
00fd
03ff
fd01
feff
00ff
0000
0000
00ff
ff00
ff00
feff
0001
0100
0200
0203
fdff
0100
fd00
0100
0100
0000
fe01
02fe
00ff
00fe
fe00
0100
fdff
0202
fd01
0100
fe01
0101
01ff
0100
0000
0100
01ff
0001
0000
0001
00fe
0000
00fc
fe00
02fe
0202
01ff
0000
fd00
ff06
fd00
0002
fe00
0000
feff
0003
0001
00fd
0100
ff01
0000
0101
0000
ffff
0100
02fe
0201
0200
fe00
02ff
0002
0000
0100
fd01
fc00
00fb
ff00
ff00
01ff
ff00
fe01
03ff
ff01
0000
0100
0401
0100
fdff
01fe
fe01
00ff
0000
ff00
0001
00ff
00ff
00ff
ff01
fffe
0000
ff00
0100
0101
0001
0000
00ff
00ff
0100
ff00
0100
0000
ff00
0100
ff00
00ff
ff00
0001
00ff
0002
fdff
0000
0000
0000
0200
fe00
0100
00fe
0002
ff00
00fe
0001
ff00
00fc
0100
01fd
0003
0001
0003
0100
ff00
0300
01fa
0100
00fd
0100
00fe
0100
01fd
00ff
0001
0001
0100
0001
fffe
0002
00ff
fc03
fd04
0000
0000
0000
0100
0000
feff
0200
00fe
ff00
0001
0100
0002
0000
0000
ffff
0200
0200
0009
fe01
01fc
0000
ffff
fffe
0104
0001
fffc
0100
feff
ff02
0004
fe00
00fe
ff01
00fe
0106
03ff
00fd
ff01
fdff
ff01
0101
03ff
0100
0000
01fd
01ff
0002
0000
00ff
ff01
0000
0000
f8ff
0000
0001
0000
0000
0100
f6ff
01ff
0200
0000
0100
ff00
ff00
0000
0001
0001
ff00
0000
0003
0201
fe01
0100
01fe
ff01
02ff
01ff
0002
0001
ff01
0000
00ff
0000
0101
0000
0001
0001
0200
0000
fe00
00ff
0001
00fe
00ff
0001
0000
0000
0001
0002
0000
0200
fe00
0100
0100
00ff
ff01
01fe
0001
fffd
0001
0000
0001
00ff
fe01
0000
ffff
00ff
0000
00ff
ff00
0000
fffe
0001
fefe
ff02
00ff
fefe
fffe
0000
0000
ffff
0100
0000
0000
0000
0001
0000
0103
00fc
ff01
0000
fd08
07fe
0002
0200
0200
00fc
fe01
04ff
00fe
0000
0000
02fe
ff00
0200
0000
feff
0301
0000
ff00
01fe
ff01
fdff
0100
0000
0102
01ff
ff02
ff00
0000
fe00
0002
ffff
ff01
fe02
0000
0001
0000
ff00
ff00
0000
01ff
ff00
0001
0000
0000
0100
0000
0000
00ff
fd01
0000
0100
00ff
0000
0302
01ff
02fe
0001
ff00
ff00
0101
0000
00fe
0001
ff01
00ff
0001
05fe
0001
0301
ff00
03ff
ff00
ff02
0000
01fd
0101
02fc
0001
0001
fefe
0100
ff00
0100
0001
fe01
0201
01ff
ff00
ff00
fa00
0701
fd00
fd00
0001
0100
ff00
0300
0100
fbff
ff00
02ff
fd03
0100
0002
fb01
0000
ff00
fd01
02f8
fd00
00ff
0000
ff00
fc00
01ff
ff00
0001
0000
0002
fe01
ff00
00ff
0003
0200
0001
0000
ff01
00ff
00ff
0200
0000
00ff
0100
fe00
ffff
0001
ff00
0000
0100
0100
02ff
0001
fe01
ff01
00fd
ff01
0100
ff00
00ff
0100
00ff
fe00
0100
0002
0100
0000
0000
0001
0001
0000
0200
000a
00fe
ff00
fd00
0002
ff00
fe00
0000
00fd
0000
ff04
00fe
00ff
ff01
0201
0000
0100
0101
fe01
ff00
fe00
fffe
fcfe
0100
00fe
00ff
02fc
00fd
02fe
0000
0200
0000
0000
0000
0001
00ff
01ff
0001
0000
ff00
0200
ff00
feff
0001
ff00
0101
0000
ff01
ff01
0000
fe00
0001
0102
ff00
010d
0001
01ff
0101
ff00
0000
0002
0000
00fd
00fe
0000
ff01
0002
0000
02fe
0001
0000
0000
0101
0300
00fe
0101
0201
fe00
0000
0500
0200
00ff
0103
02fe
0100
04ff
0000
ffff
00ff
ff00
05ff
ff00
ff02
0001
fd00
01ff
00fe
fe00
fe00
0000
0002
0100
0000
0000
fdff
0101
00ff
0002
fd00
0000
fe01
0000
0001
0001
0000
0000
ff00
0102
0000
0000
00ff
00ff
fe00
0100
fd02
fe00
07fe
ffff
fefe
0202
0000
0000
00fd
0001
feff
ff00
fe02
0002
0000
ff00
0000
ff02
0000
0002
0002
ff04
0000
fffe
00ff
fffe
0002
0001
ff00
ffff
0001
0002
fe00
0001
01ff
0000
00ff
0101
0100
00fe
0100
00ff
ffff
0100
0100
00fe
ffff
0002
0000
feff
0100
0000
ff01
0001
0001
0100
0103
ffff
0201
0103
0002
ff00
00ff
fffe
02fb
0100
00fc
0002
ff03
fc00
fd02
0101
fc00
ff00
0000
0004
00fe
0001
0001
ff03
00ff
fff9
0001
01ff
fe00
00fd
0002
fefd
fd00
0003
0000
0100
0202
00fe
0001
0200
0001
00fc
fe01
00fd
fdfe
02ff
0003
0000
0101
fefe
fd01
0202
03fd
00fe
0000
ffff
ff01
0000
0003
0000
00ff
0004
fe05
0001
0400
0002
fe00
ff01
0000
0002
01ff
0002
ff01
fe00
fe00
0000
0302
fffe
ff01
0104
0000
ff04
0000
ff04
fe03
00ff
00ff
0000
ff00
fe00
0000
0001
0100
0102
ff00
0000
04ff
0001
03fe
00fd
02fb
00ff
0300
00ff
0704
fff8
0500
00fd
02fc
0100
04fe
00fd
01fa
00ff
0200
00fe
0500
00fe
ff00
0000
03fe
0101
0900
01fe
0200
01fe
01fd
fffd
04ff
00ff
0102
ff00
0100
fb01
0400
00ff
03ff
0300
0300
ffff
0103
0000
01fd
fe03
fffb
0102
00fe
0001
fffc
0001
0103
0502
ff02
0305
0000
0001
0102
0003
0502
0102
fd00
0000
fe02
ff03
0204
0102
fdff
0102
fb01
0d00
f6ff
f100
0200
f700
fdfe
05fd
f500
f702
fe01
fcff
0000
0401
fc00
f700
00ff
fb00
fefe
01fd
0001
0000
04ff
01fe
00fe
ff00
0000
ff00
0100
0000
02ff
ffff
0002
fe00
ff01
0000
04fe
0000
02ff
0206
02ff
0104
02fe
0102
00fd
ff00
01fe
0003
05ff
ffff
00fd
0101
02fe
0000
fffe
00fe
00fe
02fd
0100
00ff
0000
0000
0101
0000
0001
01fe
0001
0000
fdff
ff01
04ff
0101
01fe
0001
0000
0000
0400
ff00
0000
01ff
fefe
0101
03fe
0000
0000
ff00
ff00
fd00
01ff
02fe
0306
01fd
fcfc
fe01
fa02
0000
fe00
fffc
00fb
00fc
ff02
01ff
0103
00ff
ffff
0001
0000
02ff
0003
0103
0000
0003
fe02
0004
fe00
0102
fe00
0001
ffff
01fb
0200
0101
fd00
0003
0000
ff01
0600
0100
00ff
fe04
0000
fe04
0400
00fe
0500
00fe
0500
fe00
04ff
0004
05fe
ff01
0300
0000
fbff
0100
00fe
0000
0201
ffff
0000
0000
00ff
ff01
03fc
00ff
fe00
00ff
fffe
ff01
feff
ff00
05fe
fd00
01fc
00fe
ff00
0100
00f9
00fe
00f8
0203
fbfd
0001
00fe
02fc
fc03
0001
0100
02ff
02ff
fffe
02fa
00fd
0106
00ff
02fc
03fe
00fc
00ff
0001
ffff
0303
03fd
0300
0101
0201
0001
03fe
0100
00fb
0002
0000
01ff
00fe
0100
0000
ff08
0301
ff00
00fc
0000
0100
0102
0000
0000
fefe
0002
02fe
fe01
00ff
0001
0000
0000
0000
0000
ff00
01ff
ff00
0301
0202
00ff
0000
01ff
0403
0301
00fd
0001
0500
0001
0101
0002
fffe
00ff
0101
0000
0300
ff02
0202
ff00
0001
0000
0102
0002
0000
00ff
fd00
00ff
00ff
0200
ff02
02fe
fe00
0100
0000
0400
00fe
03ff
ff00
0400
0200
0001
fefe
0002
fe01
0000
0200
0100
fffe
0001
ff01
00fe
fc01
00ff
fc01
00ff
0000
00ff
0003
fe02
ffff
0000
00fe
0000
ff00
0101
0200
fdfe
ff00
0000
0000
0000
0202
0000
ff00
ff00
0202
0000
0403
0100
0102
0000
0402
0001
0402
ff00
0100
0001
0301
0001
0303
00ff
00ff
0101
0303
fcfe
06f9
0000
0400
ffff
04ff
01fe
0000
ff00
04fd
ffff
fe04
00ff
fd04
fe01
ff00
01ff
0600
0000
fffe
0000
0400
0000
0000
02ff
fc00
0100
0204
0000
0303
ff02
0300
00ff
0500
0200
feff
0801
0000
0001
ff01
ff00
0000
02ff
fdfe
fe00
ff00
0000
00ff
0000
0101
0000
0201
00ff
0201
0102
fffa
0001
ff01
0201
fe00
00ff
01ff
00ff
0200
ff02
0001
0201
0001
0100
fe03
0000
0000
0600
0003
fdff
ff00
00ff
0100
fffe
fe07
ff01
00ff
0101
fe03
0000
0000
00ff
0000
00ff
0001
01fe
ff00
01fe
00ff
0100
0000
0100
01ff
0100
0101
fffe
00fc
0002
ff00
0000
ffff
fe01
0001
fe03
00ff
ff00
0000
fefd
fffe
0001
ff00
00ff
0000
0000
ff01
0100
0000
03ff
0100
0100
0000
0803
fffd
0200
00ff
0000
00fc
0100
0101
fefe
ff00
00fe
0000
0000
ff00
0002
01fe
0100
0100
0001
ff00
0100
0000
0000
ff00
0201
0000
0201
feff
0000
fc00
0200
fe02
0102
ff00
0000
00fa
0006
0000
0002
00ff
ff00
fffb
0103
0101
00fd
0001
0001
00f9
ff01
00fe
00ff
0000
fffe
0002
0202
01fe
fe00
ffff
0000
ffff
0100
ffff
fc00
ff00
ff00
00ff
01fe
0001
feff
ff00
ff01
0000
0101
ff00
0100
0000
0101
0001
00ff
ffff
ff00
00ff
0000
ff00
0000
0000
fffe
ff00
ff02
0000
0101
0002
0000
0002
0002
fefe
ff00
ff00
0000
0102
0100
fffe
0000
00ff
0002
0100
00ff
0400
00ff
00ff
0002
0101
fe00
0100
0000
00ff
ff00
0000
0000
0201
0001
0001
0100
00ff
00ff
0006
0100
0100
03ff
00fe
01ff
0000
0100
0000
0101
0000
0002
0103
0000
0101
00ff
0100
0000
00fe
fc01
00fd
0001
00ff
0002
0000
0000
ff00
0201
01ff
ff03
fe00
01ff
0101
0000
0001
ff00
0700
0202
03fd
fe00
0000
00fe
fe00
ff04
0000
00fe
0100
0101
0203
ff01
0001
fefe
ff01
ff00
0002
0100
01ff
00ff
0000
fd00
0002
01ff
00fd
0100
0000
0100
0000
0000
00ff
00fe
0200
0000
ff01
f800
00ff
00ff
0101
0000
fd00
f600
02ff
02fe
01ff
0103
ff02
fffe
0002
0001
0300
ff00
00ff
0000
0000
fe00
ff00
0102
0000
0200
0000
00ff
0101
ff00
00ff
0000
0002
0100
00ff
0000
01ff
02fd
0000
fefe
0003
00ff
00ff
00ff
ffff
0001
0001
0000
01ff
00fe
0000
fefe
0001
0100
0200
fffd
0000
0001
fe00
0000
0002
0000
ff00
fe00
0000
fffe
0200
0002
0001
ff02
00ff
ff00
fc00
fe00
ff00
0001
ff00
ff00
03ff
00fd
fe00
0100
00ff
0000
00ff
00ff
ffff
01fe
0002
ff01
0200
fd02
fd02
0001
fd01
0201
0100
fe00
fe01
0002
0000
0000
fe00
ff01
fd01
0002
fd02
0301
feff
ff01
0100
ff01
0000
0101
0101
0100
0000
ff00
00ff
0000
0000
00fe
02ff
ff02
0100
0000
fdfc
00ff
fd02
ff00
fe00
0100
feff
0000
0001
0000
01ff
00ff
0000
0001
0000
00ff
0103
0002
fe01
0001
0100
ff00
0000
0002
0000
0100
ff01
fb00
feff
0000
0100
00ff
0100
ff01
0001
0001
0100
0100
0000
ff00
ff02
01fe
0100
00ff
0000
0100
ff02
ffff
00ff
01ff
0000
00fe
0000
0000
0300
0101
03fc
ff00
02ff
00ff
0102
0000
ffff
0000
00fe
0000
0000
00ff
0000
ff01
0201
ff02
ff00
0000
0000
0000
0001
0000
fe00
02fe
00ff
fe00
0002
0001
0000
00fc
0000
03fd
0001
0301
fe01
0000
fe00
fa00
00fe
fd00
fe00
fe00
fe02
fd00
0000
01ff
0000
0001
0100
fe01
ff00
ff02
ff00
0403
ff00
0000
00ff
0000
ff00
ff00
ff00
fe00
00ff
0100
fe02
0200
fe00
0000
0001
00ff
ff00
0900
00fe
fc01
0000
ff00
fefd
04fe
fefe
fc01
fdff
ff00
0100
0402
0000
fe00
0000
fe01
000d
ff06
01fc
01fd
fefc
01ff
ff01
ff01
01fd
0000
00ff
fffd
0103
0002
02fe
01ff
0001
0000
0000
00ff
00fd
0001
0000
0000
0100
ffff
0200
0000
0103
0000
0200
0000
00fe
0101
0000
0000
fe00
0103
feff
0001
fd01
01fe
0100
ffff
01ff
0102
ffff
0001
0000
00ff
0100
0001
00fd
0101
0101
0000
0100
ff00
fcff
fe01
00ff
01ff
ff00
0000
0100
0201
0000
00ff
0000
00ff
ffff
0000
fffe
0000
02fd
0101
0000
01ff
feff
0000
0000
0000
02ff
0100
00ff
0000
ff00
0001
ff01
0002
0002
0000
01fe
0000
0100
0001
00ff
0000
0000
0002
0000
ff00
ff00
00ff
00fc
0000
0200
0000
fefe
00ff
fe00
0002
00fc
0100
fdff
0101
ff00
0000
02fe
ff02
0000
0000
00ff
0002
0000
ff02
02fe
0204
00ff
01fe
ff00
02fe
02ff
0001
0000
ffff
0100
0102
00ff
0001
ff02
ff00
ff01
0001
0000
00fe
0000
01ff
ff00
0000
0000
fffe
ff00
0002
0000
01ff
0001
0000
0100
ff01
0100
0100
0302
0001
0202
0000
ff00
00ff
01fd
0000
0000
0000
ffff
0000
00ff
0005
0003
0003
ff00
0003
ff04
00ff
00fd
0001
01fe
0002
0000
0000
fe00
ff01
ff00
0001
00ff
00fe
0200
0001
ff01
00ff
fa00
fe07
fd00
00fd
0001
0001
ff01
0003
01ff
00fb
ffff
ff02
fdff
0001
0000
fffb
00fd
ffff
fd00
ff02
fd02
fe00
0001
ffff
fc00
0001
ff00
0000
00ff
0000
fe01
00ff
0000
0000
0200
0000
00ff
01ff
0001
0000
0200
0100
0000
ff01
fe01
00ff
0000
02ff
0001
0001
01ff
ff02
0000
01fe
fffd
0000
ff00
ff01
ff01
0000
01fe
0000
fe00
0001
0000
0001
0000
0000
0000
0000
0002
0002
0000
0000
ff01
00fd
00ff
00ff
fe01
0000
00ff
0000
fffe
0000
0000
ffff
0200
0000
0100
0001
fe03
00ff
feff
00ff
fcff
0001
0003
0000
0200
0000
0201
0000
0200
0000
00ff
ff00
0000
0000
0100
0100
0000
00ff
0201
02ff
fe01
0100
ff00
0001
00ff
00ff
ff00
0000
fe00
0000
0100
00ff
0102
0000
0101
0001
ffff
0000
0001
0000
0000
ff00
0000
01ff
0000
0000
0200
ff00
0000
0000
0100
0003
0000
0001
0200
01fe
0000
0005
0200
0000
0100
0002
0102
0004
0001
ffff
0000
ffff
0501
01ff
ffff
ff00
fd00
0001
0000
01fe
fe00
fd00
0000
0101
0000
0100
fd00
ff01
0000
0000
fdff
0100
fefe
0000
0000
0000
00ff
0000
ff00
ff01
0000
0000
0000
ff00
fe00
0001
fd00
00fe
0707
00ff
fe02
0002
0000
0000
0004
0000
fe00
00ff
fe02
0000
0002
00ff
00fe
01ff
0000
0100
0001
02ff
00fd
03ff
0000
ffff
0001
0000
ffff
00ff
00fe
0000
feff
0000
01fe
0000
0000
0001
01ff
0000
0100
0000
ffff
0001
0100
0000
ff01
0100
0000
01fe
01fd
ff00
ff01
ff00
0000
fe01
ff02
0200
01fe
0001
0000
0100
0001
0100
01fe
0100
ff01
0100
fe01
0000
0101
0000
ff00
0000
0200
0000
fd00
0000
fc01
0000
0101
0000
00fe
00ff
0000
0000
0101
0000
ff01
0000
0000
ff00
0100
0000
0000
0000
0001
0000
0000
0000
ff00
0001
ff00
0000
0003
0001
0102
0000
0000
ff00
f801
0000
ff00
00ff
0000
0000
ff00
0001
0100
0000
0200
0000
0001
0000
03ff
0000
0100
0000
0100
0100
ffff
0200
0000
0000
00ff
0000
ff00
0000
0001
0100
0000
0000
ff00
00ff
0101
01ff
fd01
01ff
0001
0000
ff00
0100
ff00
0000
0000
02ff
0002
0100
0000
0000
0101
0000
0000
ff00
fe0a
0001
0000
01ff
0002
0001
0000
ff00
00fd
01ff
fe04
0001
01ff
fe00
0001
0000
0100
0001
0001
00ff
fe00
0000
00fe
0000
fffe
0000
fdfc
0000
00fe
0000
0000
0001
0000
0000
ff01
0000
01ff
0100
0000
0200
0000
0000
01ff
ff00
0100
0000
0100
0101
0001
ff00
0100
ff00
0002
0000
010d
00ff
01ff
0000
0000
0101
0002
00fd
fefd
ffff
0100
0000
0002
00ff
01fe
ff00
0000
ff00
0001
0001
01fe
fe00
0001
0000
0000
ff00
ff00
ffff
fe03
0100
ff00
0000
00ff
0000
0000
01ff
0000
0000
0002
0000
0000
00ff
00ff
ff00
ff00
00ff
0001
0000
ff00
00ff
0000
0000
0000
0000
0000
0001
0000
0100
0000
0100
0000
ff00
0002
0000
0001
0100
00ff
0000
0001
0000
00ff
0101
00fe
ff00
ffff
0000
0000
0000
00ff
fffe
ff00
fffd
0000
0100
0000
0000
0000
ffff
0000
00ff
0101
0000
0100
01ff
0001
0000
0100
0002
0200
0001
0001
0000
0000
0001
0000
0000
0000
0000
fe01
00ff
0001
0000
0000
00ff
fe00
0000
0001
0000
0000
0000
01ff
ff00
0001
0000
0000
0001
0100
0101
0000
0001
00ff
0100
0000
0000
0100
0001
0000
0000
0000
0000
0100
ff00
00ff
0000
0000
0000
0000
ff00
0000
0001
ff00
00ff
ff00
ffff
0000
0100
0000
01ff
0000
00ff
0000
0000
0000
0000
0000
0000
00ff
0000
0000
0000
0000
0000
0000
ff00
0000
0000
0000
0000
00ff
00ff
0100
0000
0100
0000
0000
0001
0000
00ff
fe00
ff00
0000
0000
0001
0001
0001
0000
0001
0001
0000
0100
ffff
0000
0002
0000
ff00
01ff
0000
0200
0000
0000
ff00
0000
0000
0000
0000
0000
00fe
0000
00fe
00ff
0101
0000
ff00
0001
0000
0100
0000
ff00
0001
0000
00ff
0000
0000
00ff
0000
0102
0000
0000
0100
0000
0000
0000
0000
00ff
0001
ff00
00ff
ff00
ff00
0000
0000
0000
0000
0000
0000
0100
0000
0000
0000
01ff
00ff
0000
ff00
0000
0000
0000
01ff
0000
0000
0000
00ff
0001
0000
0002
ff01
0000
00fd
feff
0000
0000
0001
0101
0000
0000
00ff
00ff
01ff
0000
00ff
0000
0000
0000
0000
0000
0000
0000
0000
0001
0000
0100
ff01
ff00
0000
0001
ff00
0001
0000
0000
0000
0000
0001
0101
01fe
ffff
00ff
0000
0202
0201
01ff
0000
01ff
0000
0000
0201
03ff
ff01
0301
0000
0000
0000
0000
0001
01ff
0001
0100
00ff
0001
0000
feff
0001
0000
0000
ff00
0000
feff
00ff
0000
ff00
0000
0100
ff00
fffe
00ff
ff00
0100
0002
0000
0000
0000
0100
0000
0100
0000
0100
0000
0101
0000
ff00
0000
0200
01ff
0000
0000
0000
00ff
0000
0000
0001
0100
0000
0100
0001
0000
0000
0100
ff00
0000
0000
0000
0000
0000
00ff
0000
00ff
0000
0000
fc01
ff00
fc01
0000
0000
ff00
00ff
0000
ff01
0001
00fe
0000
0000
0000
0000
0000
00ff
0100
0000
0101
ffff
0101
0000
0100
0000
0000
00ff
0000
0000
0100
0000
0100
0100
0001
00ff
0100
0000
00ff
0000
0000
0000
0000
00ff
0000
ff01
0003
0000
0000
0000
0000
0000
0001
00ff
0000
0000
0000
00ff
0000
00ff
0000
0000
0101
0000
0000
0000
ff00
0000
0000
00ff
00ff
0000
ffff
0001
0003
ff00
ff02
ff00
0100
0000
0000
0000
fe00
ff00
0001
0000
0000
ff01
ff00
0000
0000
ff00
0000
ff00
0100
0100
0100
00ff
fe00
ff00
0000
0000
0100
0100
0001
00ff
0000
0000
0000
00ff
0200
01ff
0101
0000
0000
00ff
0000
0000
ffff
0000
0000
0000
0000
0000
0000
0000
ff00
01ff
0002
0001
0101
0100
0102
00ff
ffff
0000
00ff
0100
0101
0000
00ff
00ff
0000
0000
0000
0000
0100
ff02
01ff
0000
0000
ff00
0000
0000
0000
0002
0000
0000
0000
0000
00fe
0001
0000
00fe
0000
0000
0000
0000
0000
0000
0000
0000
0000
0000
0000
0100
00ff
ff00
0000
ff00
0000
0200
0000
0101
ffff
0001
ffff
0003
0000
0101
00ff
0101
fe01
0000
0000
0000
0000
0100
0000
0001
0000
0000
0000
0000
0000
00ff
0000
0100
ff00
0000
ff00
ff00
ff00
00ff
0000
0000
02ff
00fe
ff01
0000
0101
0100
0001
00ff
02fe
0000
0000
0101
0000
0000
00ff
00ff
fe00
0100
0000
0001
00ff
ff00
00ff
0000
0000
0000
0100
0100
ffff
0000
ff00
0001
0100
0000
ff01
0000
ff00
fe02
0000
0101
0100
0000
0000
fd02
0100
0000
0000
0201
0200
0000
0100
0100
ff00
0000
02ff
0300
0000
0400
ff01
0000
0000
00ff
ff00
fe00
0000
ff00
0000
0000
00ff
0000
0000
0000
0300
0000
ff00
0000
0101
0000
0000
0000
0000
0001
0000
0000
ff00
00ff
0000
0000
0001
0001
0001
0100
ff00
00ff
0200
0000
fe00
00ff
0000
00fe
ffff
0000
0000
0000
ffff
0000
01fe
0000
fd00
ff00
02ff
00ff
0100
01ff
0000
0000
0200
0000
0000
00ff
0000
0000
0000
0000
01ff
0001
ff00
0300
0000
0101
0200
0000
0100
0000
ffff
0100
0000
00ff
0000
0000
ff00
00ff
ffff
0000
0000
0001
0000
0100
0100
00ff
0100
fe00
0001
ff00
0100
00ff
0000
0000
0000
0000
00ff
0100
ff00
0001
0000
0100
fd00
00ff
0000
0000
ff00
ff01
fd00
0000
0501
0000
ff00
0000
fc00
0101
0000
00ff
0001
0100
0100
0000
0100
ff00
0000
0000
0000
0000
ff00
0000
ff00
0000
0000
00ff
0000
0101
0000
0001
0000
0000
0000
0001
ff00
0002
00ff
0000
fe00
0000
0200
0000
0100
0100
0100
0200
0200
0200
0000
0000
ff00
ffff
0000
0000
0200
0000
00ff
0000
0000
ffff
0000
0000
0201
0000
ff00
0000
ffff
0000
fe00
00ff
fe00
ffff
ff00
0000
0000
00ff
0100
0000
0000
0000
fe00
0000
0300
ff00
ff00
0000
0000
ffff
0200
fffe
0000
0000
0100
0000
0000
0000
0000
0000
0001
0100
fe01
01ff
0001
0000
ff00
0000
0100
ff00
ff01
0000
0000
0000
0000
0000
00fe
0000
00ff
0100
00ff
03ff
00ff
0100
0000
0000
0000
0000
0200
0100
0300
0000
0000
ff00
0100
0000
01ff
0000
00ff
0100
0000
01ff
0000
0000
0100
0100
0000
0000
0000
0100
0000
0000
0000
0000
0000
fffd
0000
0000
ffff
0000
feff
ff00
0000
ffff
0000
0100
00ff
0201
0000
0000
0000
02ff
01ff
0002
ff01
0002
00ff
00ff
fe00
0000
ff01
0000
0000
0000
0100
0100
feff
0000
ffff
0000
0000
0000
ff00
0000
ff01
0000
0000
0000
0000
0000
0000
ff00
0000
0000
0200
0000
0000
0000
0001
0000
00ff
ff00
0100
00ff
02ff
0000
00ff
0000
0201
0000
00ff
ff00
0000
ff00
0000
0000
0001
0200
01ff
0001
01fe
ff00
0000
0000
0000
0001
01fe
0000
0100
0000
0100
0000
fffe
0000
0000
0001
00ff
0001
0000
0000
0001
00ff
ff00
0000
0001
0000
ff01
0000
0000
00ff
0100
0000
fc01
0000
00fe
0000
0100
00ff
ff00
00ff
ff01
0200
0001
0000
ff01
00ff
ffff
0000
00ff
ff00
ff01
0000
0000
0000
ff00
0000
00ff
0000
fe01
0000
0102
0000
ff00
0000
fe00
0000
0001
ff00
0001
0000
01ff
0000
0002
0101
0001
0000
ff00
01ff
feff
0000
fd00
0000
0000
0000
fd00
0001
ff00
0000
fd02
0202
ff00
0000
0100
ffff
fe00
01ff
0000
0001
ff00
0000
0001
00ff
fd00
0000
ffff
0101
0100
0000
ff01
0100
0000
ff00
ff00
ff00
0001
01ff
0001
00ff
0000
0000
0000
0000
0001
00ff
0000
0000
0001
ff00
0100
0000
ffff
00ff
0001
ff00
0000
0000
0000
0000
ff00
0000
0200
0000
0000
00ff
fe00
0000
0001
0000
ff00
0000
fdfe
0001
0000
ff00
0100
0000
ffff
ff00
ff00
0001
fcff
0000
fc00
00ff
fdff
ff00
0000
0000
fcff
0000
0002
00fe
0000
fffd
0100
0100
0000
0000
0001
0201
0200
ff00
00ff
ff00
0000
ff00
0100
0100
0000
0000
0100
0000
01ff
0002
01ff
00ff
00ff
0000
01fe
0100
00fe
0001
0000
0000
ff00
ff00
feff
00ff
0000
0000
0001
0000
0100
00ff
ff00
0102
00fd
ffff
ffff
fffe
0000
ff00
00fe
0200
02ff
0000
0001
ff01
fdfe
ff01
0000
01ff
0000
0301
0101
00ff
fe01
00ff
0002
00ff
ff00
00ff
ff00
0001
ff00
0001
ff01
0001
0000
0000
0000
0103
00ff
0100
00ff
ff00
00fe
fe05
0100
0002
0000
0001
01ff
0005
fffe
fe03
01fe
0000
ff00
ff00
ff01
00ff
00ff
00ff
0100
00ff
0001
00ff
0000
0100
ff00
0100
0000
00ff
0200
0100
0000
ff01
01ff
0001
ffff
01ff
00fe
0101
ff00
0000
feff
ff00
0101
00ff
fd01
0100
fe01
0000
0200
0000
ff02
ff00
0000
00ff
0001
0100
0001
fffe
ff00
0000
0200
ff01
0101
ff00
0101
fe00
00fe
ff01
01ff
ff00
0201
ffff
00fe
0000
01ff
0000
0000
0200
0200
0000
01fc
0101
ffff
ffff
0000
0000
fe00
0000
0000
0100
0000
00fe
ffff
0000
ff01
00ff
0001
00fd
0000
0000
0000
0202
0001
0100
01ff
0200
02ff
0201
0000
0200
0000
0100
feff
0000
0100
0100
0000
0000
0002
ff00
00fe
feff
ff00
0001
0000
0000
00fe
ff00
0001
ff00
0003
0100
00fe
0000
0200
0201
0201
01fe
0002
0000
0001
0000
0000
01fe
00ff
0001
fe00
fe03
0002
00ff
0100
0000
ff01
ff00
fdff
0000
feff
0000
0100
00ff
fffd
ffff
ff02
00ff
0000
0200
01ff
0100
fe02
00ff
0301
0101
0001
0000
ff01
0002
01ff
0000
0000
ffff
0001
0000
0100
0000
0100
0102
fe00
ff01
0000
0100
ff00
fd00
fe00
0100
feff
0001
0000
0000
fe01
0000
feff
0000
0000
0000
0000
0000
ff00
fe02
0300
0000
0000
0000
00ff
00ff
0001
0100
0100
00fe
0100
0100
0000
0001
0100
ffff
01ff
00fe
0100
fefe
0000
ff01
0100
0000
0000
fd00
01fe
fdff
0100
fe00
0001
0001
00fe
0000
0000
00ff
0100
0000
fd01
ffff
0000
0100
ff01
00ff
ff00
0000
0201
02fe
ff00
0000
ff00
0000
0001
0100
0000
ff01
fe02
0100
0100
00ff
ff00
0000
0101
ff00
0000
ff01
0000
0100
ff02
ff01
0102
0201
0001
0200
0000
0100
0000
0000
ff00
0101
0200
fd01
0001
ff00
ff01
0000
0002
ffff
0002
00fe
fe00
0001
0000
0001
fefe
0000
01ff
0001
00ff
0002
00ff
ff00
0001
0001
01fe
00ff
0101
01ff
0000
ff01
ff00
fe00
ffff
0001
fe00
0100
00ff
0001
00fe
fffe
fe00
0000
0100
0100
fffe
0001
ffff
0000
0001
00ff
0001
0101
ff00
ff00
0100
fe00
01ff
0000
0000
0200
ff01
01fe
0000
0002
ff00
0102
ff00
0000
ff00
0100
0000
ff00
ffff
ff02
fc00
0001
0001
0100
0000
0001
0000
0100
ff02
00ff
fd00
0000
ff02
0200
fd00
fe00
0000
0000
0200
ff00
0000
0000
ff01
ff02
0100
0001
0400
0000
fe01
0100
ffff
ff00
0200
00ff
0000
00ff
fe02
0100
0000
0001
0001
0100
0100
02fe
ff01
00ff
feff
00fe
fe00
00ff
0100
fffe
0000
fffd
fefe
ff00
0100
0200
ff00
00ff
fe00
00fe
0100
00ff
0000
01fe
01fe
0000
0000
00ff
fe00
0300
0001
0001
0001
ff01
ffff
0100
0001
0200
0002
feff
0001
ff01
0101
ff00
0000
0000
0000
0002
ff00
0001
ff00
02ff
ffff
0000
0101
ffff
00ff
ff01
0100
feff
0000
0001
fefd
0000
0100
0100
0001
01ff
fd00
ff00
0101
fe01
ff00
0000
fefd
0000
0200
ff00
0000
fdfe
0001
0101
0001
00fe
0000
0000
00fe
0000
0401
fe00
0001
fe00
fe00
0000
01ff
ff00
0400
ff00
0200
ff00
0000
fe00
ff00
ff01
0100
0100
01ff
00fe
0200
0001
04fe
0000
0200
00ff
00ff
0001
0000
00fe
0000
ff01
0102
0001
fe02
0000
ff01
0200
0000
0000
ff00
ff01
0200
ff00
0001
0000
ffff
0000
0100
0200
ffff
0101
0101
ffff
ff00
0000
fe00
0002
feff
fd02
0bfe
0101
0400
02ff
0401
ff01
0600
00fe
0001
0000
0201
ff01
0400
0000
0100
ff00
0000
0000
ffff
00ff
fb01
0100
fdff
0000
fcff
0101
f700
0000
ff00
fe00
fe01
0001
ff02
0000
0000
0002
ff00
0100
fd00
ffff
0002
0100
0001
0001
ff00
0000
fe01
ff01
0101
ffff
01fd
0003
0201
ff00
ff02
ff00
0002
ffff
01ff
0101
ff03
ff00
0002
0001
0000
0001
0001
00ff
00ff
0101
ff00
fe00
fffe
0101
fe00
0001
01ff
0001
fd00
0100
fd00
0001
ff02
0002
00fd
03fe
0000
0000
0000
0001
0000
0000
0300
0100
00ff
ffff
00ff
0000
00ff
0201
0000
fe00
0100
ff02
02ff
0001
0000
0100
0300
0001
00fe
0001
ff00
fe00
03ff
ff00
ffff
00ff
0200
ff01
0000
ff01
0201
0300
0201
ff00
0101
0001
0001
00ff
01fe
0200
fa02
00fd
fcff
fefd
fa00
0000
0100
ff00
fd00
0000
0000
ffff
0100
0000
02ff
0000
0001
0000
feff
fefe
0201
0001
ff00
0000
0000
ffff
0002
0000
0000
0000
02ff
0000
0100
0000
ff00
0100
fe00
ff01
00ff
00ff
ff00
fd00
ff00
feff
feff
0000
ff01
0000
00ff
0001
fa00
0000
0102
0002
faff
0000
f901
00ff
fc00
0100
fcff
00ff
fb00
00ff
0001
ff00
0301
0100
ff02
fe00
fc01
fe00
0200
fe00
ff00
ff00
00ff
0002
0001
0000
fe02
ff00
0002
fe00
fe01
0001
03fd
0100
0000
ffff
0000
0101
fefd
ff01
feff
0100
00ff
0001
fdff
ff01
0000
ff00
00ff
0002
ff00
0001
01ff
fe01
01ff
ff01
02fd
0101
fe00
0000
0000
0000
01ff
0000
fe00
0000
fe01
0102
ff00
0000
ff00
0000
0000
0301
0101
0101
fe00
0000
ff00
0300
ff02
0100
feff
00fe
fd01
fffc
fa00
ff00
ff01
0000
0100
00ff
ff00
0000
ffff
00ff
0000
0000
03ff
0000
0100
0200
0100
00ff
0000
ffff
01ff
00ff
0001
0100
0000
01fe
ffff
01fe
ffff
01fe
ff01
ffff
0100
0001
05ff
0000
0302
feff
0203
01ff
0200
ff01
0601
00ff
0300
0100
05ff
ffff
04ff
ff01
00ff
0000
ff00
0000
fe01
01ff
02fe
0000
01fe
0000
0101
00ff
0101
ff00
0102
0200
03ff
0101
0300
00ff
04fd
0000
0200
0000
0400
0001
01fe
ff00
fb02
ffff
00ff
0102
fffd
0001
ff00
02fe
0003
0100
fdfd
0000
fefa
0000
ffff
ff00
01ff
ff00
fdfc
0000
ffff
ff00
fe00
0100
fdfb
0004
01fd
0100
0000
0000
fffe
00fe
fffd
0000
01fb
ff00
fffd
ffff
00fd
0000
0000
02ff
0002
00fe
0003
0000
0100
0000
00fe
0001
0001
0000
00ff
0000
06ff
0201
00ff
fe00
ff02
0000
01ff
0200
0000
ffff
ff01
00ff
00fe
fe00
fe01
0100
0000
ff01
01fe
0000
fd01
0000
fefe
0000
fcff
0100
fd01
ffff
0102
0000
0603
02ff
0105
0000
02ff
00ff
0000
0001
fdff
ffff
0002
00fc
fcfd
0004
fc00
ffff
00fd
ffff
01fe
ff00
00ff
0000
fe01
00fc
fffe
fd00
0000
0000
0001
0000
0000
00ff
00ff
0201
fc00
00ff
fcfb
0000
fc01
0100
fdfb
0000
f7f4
0100
fdfc
0101
ff00
0001
fcf5
0100
fffe
00fd
fdff
00fd
0300
ff00
00ff
00ff
01ff
0000
0804
0001
0301
0100
ff05
01fe
0004
ff00
0000
ff01
fd01
0100
fb05
ff00
ff01
0000
ff06
ff02
0003
0001
0201
03fe
fefe
0300
0003
02ff
0400
0004
06fb
0203
0ef9
0004
07fd
fd00
03fb
00fe
0dfc
0000
05fb
0000
0300
01fe
05fd
0101
03ff
0206
0100
0002
0104
0001
ffff
0304
ff02
00ff
ff03
0000
0002
0002
0002
0001
0000
0000
0102
0205
fbfc
0001
fcfb
0003
ffff
ff02
fdff
0002
fcfc
0002
01fb
00ff
fffe
0000
fd00
0200
fd00
0100
0300
ff00
0300
ff00
0100
0000
0300
03fe
0400
0000
0000
0003
0200
0001
01fd
0203
0200
00fc
ff00
01fd
ff01
fe01
fe01
00fa
0102
0200
0002
ff00
01ff
fdff
0000
00fc
0200
fe00
0200
0003
0004
0204
fe07
0000
fd07
0201
0005
0304
fd0b
fe02
0004
0001
fe01
0000
0106
0202
ffff
0002
fa03
0003
fe00
0102
fa02
0000
ff03
feff
fe05
02ff
fb05
0002
fe02
0000
0001
0001
fc01
0000
ff00
02fe
0002
0001
0000
ff00
0000
0201
00fd
0001
0000
0001
0000
00ff
0100
fe01
ff00
0102
ff00
ff03
0000
0002
ffff
fdff
fe00
fa02
0001
0000
fdfe
fd00
0000
fbff
00fc
ffff
0000
ff03
0000
fe05
0101
0100
0000
0202
0001
0206
0001
ff00
01ff
0100
0000
0000
02ff
0000
01fe
00ff
fdff
ff00
0201
fffe
03ff
0100
fe00
00fd
0001
01fe
02fd
00fd
00f9
00fd
01fc
0000
0400
fd00
0004
fdfc
0006
01fc
ff01
fdff
0104
0000
0208
00fe
ff02
fffd
fd03
0200
0203
00fd
0100
06ff
fc01
0704
0100
03fb
feff
0200
0103
0003
0200
00fc
01ff
00fe
ff00
01fb
fefe
00fd
0001
fefe
0000
fffe
fe02
0000
fe01
fd00
0307
fcfb
0006
ff00
fc02
fe02
ffff
0003
0000
0102
fffe
fc06
fffd
ff09
fc03
fd05
fcfb
0004
0400
0500
0005
ffff
fefc
ff03
00fe
0001
0100
0000
fffd
0104
0202
0007
0000
ff04
fd00
fe02
fb00
fbff
fbfe
0000
f900
0304
fd00
0200
fe00
02fe
0002
0004
fd03
0002
0000
0004
ff00
fd00
fd01
00fe
fe00
ff03
fefe
02fe
0000
0500
0200
0202
0000
0100
0107
0100
0001
0601
fe04
fe00
00fe
fd01
00fd
0203
ff00
00ff
0104
fdff
0100
07ff
ff03
0001
04fe
0000
0500
0201
03ff
fe00
03ff
fefe
06fd
fd01
0200
00ff
fffd
ff00
0000
00ff
fe00
0200
ff00
0000
fe01
00fe
ff03
0702
fe00
0901
fefe
0601
fdff
00ff
ff00
0401
ff00
ff00
fe01
0200
0100
00ff
00fe
01ff
0001
0102
0001
0200
fe00
0003
0002
0000
0002
0002
ff01
fdff
0001
0000
fc00
03fe
fb01
fffe
fafe
ff00
ffff
0201
f702
0000
fa00
0000
0000
00fe
02fe
0000
00fc
ff00
0200
fe03
00fe
00ff
00ff
0000
0100
00fe
ff03
0201
ff00
0003
ffff
0204
fffe
0103
fb00
fd00
0101
fe00
0002
fe01
02ff
fdfe
fe00
0200
ff00
0000
ff00
0000
0000
0000
ff03
0002
ffff
ff00
01ff
fe00
0000
fd00
fdfc
00fe
0101
01ff
02ff
fe00
fe00
00ff
00ff
00ff
0000
01ff
0000
00fa
ffff
fefc
0100
04fe
ffff
00ff
0000
0001
01ff
0000
0200
0001
0001
0100
0201
0000
0000
0301
feff
0200
fb00
0001
00fe
0200
fe01
03fe
fa00
0001
fe01
ffff
0000
01ff
0001
0000
ff00
0303
fc02
0800
fe03
0001
fc00
0600
0200
05fe
0701
01ff
0002
0300
fcff
ff02
ff00
04ff
fb01
0000
fe01
0403
0300
0000
0000
0001
0000
0000
0004
00ff
0004
0100
0100
00fe
0101
fd01
0102
fb01
01fc
fd05
0000
0000
0000
0000
02ff
fd04
0201
fc04
0000
fffd
ff01
0200
0101
01fe
0001
0201
0000
0103
02fd
0500
0000
fefe
0100
0000
05ff
0200
0301
0000
feff
0101
0201
0000
0002
0003
0100
0000
01ff
00ff
0202
0101
0100
04ff
fffe
fc01
0000
0200
0004
0502
0002
00ff
0100
03fb
ff05
fffc
ff00
fe00
fe05
0000
00fe
00fd
00fe
fdff
0000
01fd
0203
0000
0003
ff00
0002
ff00
0100
00ff
0101
0000
01ff
fcfd
01ff
fe01
0105
0000
0200
fc01
00ff
0002
00fb
0001
0000
0304
00ff
0201
00ff
0303
0002
0302
0000
0000
01ff
0000
00ff
04ff
0001
0001
00ff
0000
0100
0102
0000
0001
0001
0101
0000
0001
ff00
ff03
0002
0400
0000
0200
0000
0200
0004
0100
0100
0000
0001
0101
ff00
0100
0004
02ff
00fd
00ff
fffc
0300
0000
ff01
0002
00ff
0102
02ff
0003
0100
fffa
0701
00f8
0000
00fb
03fc
fffc
06fa
00fc
03fb
00fd
ff00
01fd
05fc
fffb
0000
00fe
0000
0000
0000
00fd
fe01
0102
0200
0000
07ff
0000
0103
0000
fe01
0002
ff02
0103
0400
0002
fe01
03fa
ff00
01fe
0000
0000
00ff
02fa
fffe
0200
00ff
01fe
02ff
00fc
fefc
fffe
0100
0000
00fc
0001
01fd
0001
ff00
0003
00ff
0103
fc00
0301
00fe
00ff
fbff
0002
ff00
0102
faff
0100
00fd
00fe
fcfb
00fd
05fd
0000
fdfc
00ff
fef9
0000
00fc
ff02
04fb
00ff
00fe
0004
0200
0002
fb01
0000
fafe
00fd
fdfe
00fe
01fe
ff00
00ff
0000
0200
00fd
0001
0000
0400
ff01
0000
0001
fe00
fffc
fe03
0003
01ff
00fe
fc00
0001
fb00
0000
ffff
00ff
00ff
ffff
fcfc
0000
0100
00fd
00fd
0001
ff03
0102
0002
0002
0000
0000
0002
0002
0001
0004
fa00
0100
00ff
0000
ff00
0002
ff00
fefd
03fd
fffd
0001
ff00
00ff
00ff
0201
ff00
0300
0000
0000
0001
0200
00ff
0000
0000
0003
01fd
0200
0003
fd02
0000
0100
0000
0000
0002
0002
ff00
01ff
00fc
0204
0000
0001
00ff
ff00
ffff
ff00
0109
00fe
0001
02fd
01ff
00ff
0005
01fd
0001
00ff
00fe
0200
0004
0003
0101
01ff
00ff
0000
0004
0201
0002
ff01
0003
f902
0002
fe01
0002
0002
0002
fcff
0002
0101
01ff
05fe
0000
0201
0002
0301
0001
0601
00ff
03ff
0001
0000
00ff
01fd
01ff
02fd
0000
ffff
01ff
fbff
0200
fbfe
0101
fafe
01fe
0006
00fe
0100
0001
0200
00ff
0400
0100
0404
01fe
0401
0000
00ff
ff01
0000
00fd
0000
ffff
fffe
fe01
00ff
fefe
0000
00ff
0007
0000
0003
ff01
0003
ffff
0200
00ff
0400
0000
0100
00ff
0300
00fe
00fd
00f9
01fd
0001
03ff
0000
02fd
00fe
0301
0101
ffff
0000
00ff
0100
01fe
ff00
0001
0002
0100
0101
0000
0000
0001
0000
0000
0001
0000
0000
0300
0000
06fe
00ff
0204
00ff
0602
01ff
07fd
00ff
0102
00ff
0200
0000
0600
01fe
0202
0100
02fb
0100
00fe
ff02
00fc
0100
ff01
ff00
fe01
0101
ff00
0000
00fd
00ff
0200
ff02
00ff
0000
f802
ffff
0200
0000
fc02
ffff
0003
0000
0503
00ff
0000
ff01
0002
0101
01ff
0000
fe00
ff00
0000
0002
0002
0000
ff00
0001
0300
0000
0400
0000
0101
ff00
0000
0100
fe00
0001
fe00
0001
0300
ff00
0404
0000
0003
0000
0404
0000
0500
fd00
0100
ffff
0203
0000
0003
ff00
ff01
0000
0403
0001
0aff
ff00
0401
00ff
0103
0000
0405
0000
0102
ff00
0100
0000
0005
0100
00fd
0000
fcfc
00ff
fdfd
0000
01fe
0000
00f8
0000
00fd
0000
00fb
ff01
01fb
0000
05fd
0000
01fe
0000
fc00
0000
00fd
ff00
fefd
ffff
fe01
fe00
fffe
fe00
fffd
0000
0000
0001
feff
ff01
00fe
0002
0007
0000
fe01
0000
0003
0000
ff02
00ff
fe08
01fd
0003
0100
02ff
01ff
0005
0000
0000
0000
fefe
0000
020b
01ff
01fc
0101
0007
fe00
0311
0000
0104
0000
ff00
0000
0000
0000
0000
01ff
0000
0000
0000
ffff
0000
0000
0100
00fe
0000
0000
0000
01ff
0000
0100
0100
0100
00ff
00ff
00ff
ff00
0100
feff
0000
0000
00ff
0000
0000
0000
0000
0000
0001
0100
0000
0000
01ff
0000
0000
ff00
ffff
00ff
0000
ff00
0000
0000
0000
0000
0000
0100
ff01
0001
0100
0102
0001
0100
0100
0000
ffff
ff01
ff00
0101
0100
0000
0100
ff00
0000
ff00
00ff
00ff
00ff
0000
0000
ffff
00ff
0000
0000
0000
ff00
0000
0000
0000
0000
0001
0000
0000
0102
00ff
01fe
0000
0100
00ff
0001
00ff
ff00
00ff
ff01
0000
ffff
0000
0001
ffff
ff00
0001
0000
0000
0100
ff00
00ff
0000
0000
0000
0000
ffff
0000
00ff
0100
ff00
00ff
ff00
0000
00ff
01ff
0001
0000
0100
0100
0000
0000
0001
0001
0000
0000
00ff
01ff
0000
00ff
0000
0000
0000
0001
0000
0000
ff00
0000
0000
ff00
00ff
ff00
0000
0000
0100
fd01
0100
ff00
0000
ff00
0000
0000
00ff
0100
0000
0100
0001
0000
00ff
0001
0000
0000
0000
0000
0000
0000
ff00
0000
fe01
0100
0000
0001
00ff
ff01
0001
fe00
0000
ff00
ff01
00ff
0000
ff03
01ff
ff02
0000
ff00
0000
0101
0000
0001
0000
0000
0000
0001
0100
0100
ff00
0000
0000
0200
ffff
0300
0000
0100
0001
0000
0000
0001
00ff
0000
0000
0100
0000
00ff
0000
ffff
0000
00ff
ff00
0000
0100
00ff
01ff
ffff
00ff
0100
0000
ff00
0000
0100
0000
0100
0100
0000
0000
01fe
0000
01ff
00fe
01fe
00ff
0002
0300
ff02
00ff
0001
0001
0201
0000
0100
0000
0100
0100
0000
0000
0000
0000
0001
0100
00fe
0100
ff00
0100
0000
0001
ffff
00ff
00ff
0000
0000
00ff
fffe
ff00
fffe
00ff
00ff
fe00
00ff
ffff
00ff
0000
0000
0000
0000
ff00
00ff
ff00
0000
0100
00ff
0000
ff00
0001
ffff
0100
fe00
0000
ffff
0000
fe00
0000
0102
0000
ff01
0000
ff00
0000
ff00
0100
fe00
ffff
00ff
0100
ff00
0000
0000
01fe
0000
0000
0000
0000
0001
0000
00ff
0000
ff00
ff01
00ff
ff00
0000
0001
ffff
00ff
0000
0000
0100
01ff
fe00
ff00
0000
0000
0000
ff01
ff00
0102
ff00
0001
ff00
ff01
0000
0100
ff00
0000
0000
0100
0100
0000
00fe
ff00
ff00
0000
0300
0100
02fe
ff01
0000
0000
0200
ff00
0100
0000
00fe
0000
0100
0101
0000
0000
0101
0000
0100
00ff
0100
0000
0001
00ff
0100
00ff
0000
0000
0001
0000
0001
ffff
0000
0000
ff01
0000
ff00
00ff
0000
0000
0100
00ff
ff01
00ff
0001
00fe
00ff
01ff
0000
0100
ff00
0000
0100
0000
ff00
00ff
ff01
0000
0000
0000
0000
0000
0000
0000
0001
0000
0000
0000
ff00
0000
0100
00ff
ff00
01ff
0000
01ff
0102
00ff
0000
01ff
0000
ff00
0000
0000
fe00
0000
ff01
0101
ff00
0100
0000
0000
0000
0001
0000
ff01
0002
0000
0001
00ff
0000
0100
0100
00fe
0000
ffff
0100
0000
0000
00ff
0000
ffff
ff01
00fe
0000
0100
0000
0100
0001
0000
0000
ff00
01fe
0200
00ff
00ff
00ff
00ff
0000
02ff
0000
ff00
0000
0000
0002
0000
0000
0100
0100
0000
00ff
0001
0000
0100
0000
0000
0000
0000
0000
0100
0000
00ff
0100
ffff
0100
0000
00ff
0001
ffff
0101
0000
0000
00ff
ff00
00fe
ff01
0000
0000
0000
0000
0100
0100
0000
0100
ff00
0000
0000
ffff
0000
0000
fd00
00ff
feff
0000
fe00
0001
0000
01ff
feff
0000
00ff
0100
0000
0001
00ff
0001
ff00
0000
0000
0000
fe00
0001
ff00
0000
0100
0001
0000
fc00
00ff
0000
ff00
fdff
0000
0300
0000
fd00
0001
0400
0001
08ff
0001
0000
0103
fc01
0003
0000
0100
fc00
0001
0000
0000
ffff
0001
fe01
0000
ffff
0000
0000
0000
0000
0001
ff01
fe01
ff00
0000
ff00
00ff
0000
ff00
0000
0000
0001
ffff
0101
00fe
0000
0000
0000
0001
0000
0202
0000
ff00
ff01
ffff
0200
0001
0700
0000
0300
fe00
0300
fe02
0900
0001
02ff
0000
03ff
0100
0500
0101
0400
01ff
0500
0000
fe00
0100
00ff
0000
fe00
0001
02ff
0001
ff00
0000
0000
ff00
fd00
ff00
0100
0100
0200
0100
fffe
0001
ffff
0000
fe00
0000
0000
00ff
ff00
fe00
ff00
ff01
fe00
ff00
0000
0001
0100
0100
ff00
0000
0100
0000
0001
0000
0000
0001
0001
0000
0000
0100
0101
0000
0001
0000
0400
0000
02ff
0001
0100
ff00
0000
00fe
fc01
00ff
ff00
00ff
fd00
00ff
fd00
0000
fe00
ffff
0000
0001
fe01
0001
fe01
0000
fd00
0000
fc00
0000
0000
0000
ff01
0100
0000
0001
0000
fe00
0000
00ff
01fe
0000
ff00
ffff
ff00
00ff
0000
0000
fe00
ff01
0100
0000
0200
0101
0201
0000
fc00
fe00
0100
ff00
ff00
0000
0300
00ff
0400
0000
0001
0200
fe01
0100
0001
0000
0000
0000
0000
0001
0000
ff00
0101
fe00
01ff
fe01
0000
00ff
0000
fffe
0000
0000
01ff
ff00
0300
0000
fe00
0000
0100
0000
fe00
ffff
ff00
fe00
00ff
0000
0100
0000
ff00
00ff
0000
0100
fe00
00ff
0301
0001
0801
0000
0201
0000
0001
ffff
0000
ff00
0300
ff00
0000
0000
0100
0000
00ff
0000
fe00
ff00
ff00
0000
0000
0000
0101
ff01
fe00
0002
0401
0101
0000
0000
ff01
0101
0101
0101
0100
0200
0101
0000
0000
ff00
02ff
01ff
0000
0001
02fe
0000
fe00
00ff
01ff
0000
01ff
ff00
fe00
ff00
ff00
ff00
0200
0001
0100
0000
01ff
0001
00ff
0001
0301
0000
0000
ff00
0100
0001
0000
0000
ff00
0001
ffff
0000
0100
0001
0000
0001
0000
fe00
0001
fe01
fe00
0000
0200
00ff
fc00
0100
fe00
0000
0100
ffff
0001
0000
fe00
0000
feff
0000
0001
0001
0001
0001
0001
0100
0300
0000
0200
ff00
0300
00ff
0201
ffff
0101
ff00
02ff
00ff
0100
01fe
0001
01fe
ff00
0000
0000
0000
ff00
ff00
0002
0000
fc00
0000
fb00
0000
ff01
0000
fe00
00ff
fb00
0000
fc00
01ff
fe00
0000
ffff
ffff
ff02
0000
ffff
0100
0001
0100
ff01
0100
02ff
00ff
fe00
0000
0000
00ff
fd00
0000
fb00
00ff
ff05
0000
fefd
0000
f9fd
ff00
0000
0000
0401
fffe
0100
0001
0402
0100
0000
ff00
fdfe
0000
0000
0000
fd00
ffff
00fd
0000
fffe
0000
0100
0101
0200
0000
01fe
0000
ff02
0000
ff00
0000
ff00
ff00
0002
00ff
00fd
00fe
0100
0001
01fe
0100
00ff
0001
fefe
0000
ff00
0100
fe01
ffff
0000
0000
fc02
0000
f9ff
0001
ff00
0100
0102
0000
f9ff
ff00
ff01
0100
0001
0000
0000
0000
0001
fe00
0001
00ff
fcfe
ffff
0000
0100
ff01
0001
0000
0000
0000
00fe
ff00
ff00
0000
00ff
03ff
01ff
fc01
00fd
fc00
0100
0100
0100
ff02
0200
fa00
0000
fc00
0000
0001
ff01
00fe
0000
0101
ff00
02ff
ff00
0000
00ff
0000
ff01
ff02
0000
0000
0001
ff00
0100
fcff
01ff
ff00
0101
fc00
0100
fefe
0000
0a02
0100
feff
0100
faff
0100
f800
0001
fc00
00fe
fdfe
00ff
fb00
01ff
0000
00ff
fdfe
00ff
f7fe
00fe
fcfe
ff00
ff02
ff00
00ff
0000
ff00
01fe
01fd
0000
03f9
0000
02ff
00ff
fffb
00ff
fdfb
0000
02fe
0005
ff01
0000
0000
0004
fd05
01f9
fb03
00fc
fd01
0000
fd00
02fb
00ff
fdf9
00fb
fe01
fefe
0000
fdfc
fefe
fffe
ff00
fffc
0000
fffe
00fb
fffe
0102
0000
feff
00fe
00fe
fefc
fffe
0001
0002
0200
ff00
0101
fe02
ff00
00fc
0100
0005
0103
0000
fc00
0000
0003
0000
0404
0000
0401
0100
0000
0202
0002
ff00
ff01
0000
0000
0301
00ff
0002
00ff
0000
0001
0101
0000
0001
0002
0004
0100
0103
04ff
0202
02ff
0000
00ff
0300
ffff
01fe
00fe
0101
ffff
03fc
0001
0200
ff03
01ff
0100
01ff
ff00
00ff
0001
fe00
04fe
0200
03fe
00ff
0400
fe00
0201
fffd
00ff
02ff
ffff
0200
ff02
0200
0004
0000
0001
0000
fd02
0001
fc03
0000
fe02
0001
feff
01ff
fb00
fffe
fefe
0000
ff02
0000
fd00
0100
fd00
ff00
0001
00fd
fe00
fe02
0000
fe02
ff02
01fd
0000
04ff
0000
ffff
fe01
0200
0203
0000
ff00
0000
fffe
0300
0001
0000
0000
00fe
0000
03fd
0000
0100
fe02
0001
00ff
0101
00fe
0301
00fc
00ff
ffff
0001
feff
feff
0000
fe00
0302
feff
02ff
0003
ff02
0004
0202
0101
0500
0001
0200
00fe
0201
0402
02fc
00fe
03ff
0601
fefe
0204
fcfb
0301
00ff
0304
02ff
0103
ff00
0304
0002
00fe
ff04
00fe
00ff
00ff
0104
ff00
0002
0105
00ff
00ff
00ff
fffd
0101
00fc
0002
01fe
0200
feff
0200
fb01
faff
0000
fe00
0400
fdff
0100
feff
00fe
00ff
ff00
00ff
0200
ffff
00fe
00ff
02ff
01fb
02ff
07fb
00ff
00fe
0001
fefb
0000
00f9
0002
fefe
00fe
0000
fe01
00fb
ff00
0101
0000
00fe
fe01
0200
0001
0101
0005
feff
fe03
00ff
0001
0301
ff00
fefe
0000
fe00
0000
01fd
00fe
0302
0206
fe03
00fd
0000
0304
0303
0105
0100
0101
0001
04ff
01fd
0501
01fc
0300
fefd
00fe
0100
fa00
0100
fdfc
0000
0000
0003
0605
0003
02fc
0101
0000
0000
ff03
0000
fefe
0000
0101
fd02
0000
fa00
0300
ff02
0000
fd00
fc00
f9fe
0200
00ff
0304
0000
0200
ff00
0004
00ff
01ff
ff01
04ff
ff00
0000
0200
01fd
fd00
0300
fbfe
04fe
0001
00fd
0100
ffff
0400
0000
01ff
0101
ff02
fc01
00fd
00ff
0001
feff
ff03
f500
0001
fb00
0000
0000
0001
fcfe
feff
fe00
fe00
0100
00fe
0405
0000
00fe
0000
fe03
ff01
ff06
fe00
0000
ff00
0003
ffff
fe03
0001
0000
00ff
01fe
0500
feff
fefe
fe00
0100
0000
0000
0000
f6fb
ff01
fd00
0100
0100
fe01
fdfc
0001
0002
00ff
fd02
0100
0200
01fe
0000
0101
0100
fe01
ffff
0000
0000
00ff
00ff
fefd
0101
0000
03fe
fe01
ff04
fd00
fe04
ff00
feff
0000
0002
0202
fe08
00ff
0000
0000
fe02
0101
fd08
0000
0001
0001
0002
ffff
fd00
0000
01ff
feff
0100
feff
fe02
0102
0100
ff00
0600
0100
0100
0100
0500
fe00
fdfe
09fa
03fd
0001
fc00
03fd
fffc
04f6
04fd
0400
fd00
0304
02ff
02ff
04fe
0101
00ff
fe02
ff00
0000
fffe
fe00
0000
0000
0100
01ff
0a02
0001
0500
ffff
00fd
fe02
ff00
0100
0100
0102
0004
0000
ff00
0202
ff00
0004
fb01
ff04
f8fe
fe03
feff
0000
0400
0001
00fe
ff02
0400
0000
0202
ff06
03fb
00ff
02ff
0100
0102
0208
fdfc
0002
0200
00fe
0303
0000
fe01
ffff
0203
0004
0100
ffff
0000
00fe
fe01
feff
fffe
fb01
ff00
fdff
01ff
fe00
0002
fe01
ff00
0100
0000
fdfe
0100
0000
0300
ff00
00ff
0000
04ff
0301
02fd
fc00
ff02
0100
ff01
0002
0300
00fe
0001
0100
0003
fd00
0000
00fe
0100
fbfc
0000
fd00
ff00
ff03
fefe
00fe
0300
00ff
01ff
ffff
0001
ff04
0000
fe01
00fc
ff03
fe02
01fe
fefd
00ff
fefe
0000
0002
fefe
0000
0100
0001
0000
0004
0001
00ff
01fd
02fe
feff
0000
fe00
01fd
fffd
01f6
00ff
01fe
0002
0100
feff
0005
0000
0004
0201
0000
0400
0200
feff
0200
06ff
01fe
0503
0100
0000
00ff
0102
0000
0102
0000
0102
01ff
00ff
ff00
fe00
00ff
fffe
ffff
01ff
fe00
02fd
ffff
0100
00ff
03ff
ff02
0400
0000
0200
01ff
fd02
00ff
0103
0005
0001
ff02
0100
0004
0000
0206
fe00
0000
0302
01fc
0300
02fd
0000
0000
00ff
00fe
fb00
ff02
fffd
0100
fe00
01ff
fa03
0002
fd00
0001
0101
0001
0002
ff00
ff02
fffe
0000
01fc
fd00
00fe
00ff
fffe
0000
0100
fc00
01fe
00fe
00fe
00ff
00ff
0001
0000
0001
0000
0000
0104
00fd
ff04
0302
fe02
fe00
01ff
fe02
fffd
0004
ff00
0101
ff00
0001
00ff
0002
ff00
0003
ff00
0003
00ff
0002
00fe
0301
01ff
0103
ffff
0003
0000
0001
01fe
fefe
ff00
fe02
00ff
03fe
0001
0600
0001
02ff
0100
0300
00fe
0500
0001
0000
0001
fffe
0000
00fe
0001
03fd
00fd
0000
0001
0200
0000
00ff
0000
ffff
ff01
01fc
ff00
01ff
ff00
0200
fe02
0000
fefe
0000
0000
0000
01fd
fe00
ffff
0200
00fe
fe00
0101
f200
0000
fe01
0000
00ff
0002
f800
ff05
ff00
0001
0100
00fd
0002
0100
02ff
0000
0000
01fe
00fd
00fe
00fc
00fd
0100
0103
fcfe
0001
ff01
0001
0100
0000
ff00
0000
0200
fe00
0101
fe00
0002
feff
0100
ff01
0100
00ff
02fd
00fd
00ff
00fe
ffff
0002
0001
00fe
01ff
0100
ff01
ff00
0003
00fe
0201
01ff
0003
0001
0005
0002
0202
ff00
0402
0105
0300
01ff
0104
01ff
0401
0202
0200
02ff
0502
0100
02fd
01fe
00ff
01fd
0000
01ff
feff
0000
fefd
0000
ffff
0000
faff
01fe
f900
00fb
fc00
0101
fd01
0001
fb01
0000
0100
ff00
f9fe
0000
fcff
0100
0201
00ff
fb00
0000
fb00
ff00
0000
ff00
0001
fffe
01fe
ff00
00ff
0001
0003
0000
fe09
01ff
ff04
0101
ff02
0100
fb03
0101
fdfe
0100
0004
02fe
ff00
0200
00ff
02fe
0001
0000
fffd
0000
0001
fe00
00fe
ff01
fe00
00fe
fdff
00fe
ffff
fffe
0000
feff
00ff
fd00
00fe
fffb
fd00
0000
0201
0000
0001
fff8
fe01
00fb
ff00
01fd
ff00
00fe
00ff
01fc
fdfd
fefe
01fe
0100
00fd
0001
00fe
0001
00fd
0100
fefe
0002
fffe
0101
fe01
0101
ff00
0100
0000
0101
fd02
ff00
fdff
00fd
00ff
00fe
00ff
0100
fdff
00fe
00ff
fffe
fffd
0201
00fe
0102
02fd
00ff
0000
0000
0103
0100
fffd
ff00
0100
0001
0100
0001
0000
0000
0002
0001
00fd
fe02
0000
fe00
fc00
0000
ff00
0000
0200
ff00
fe01
00ff
0200
00fe
0100
00ff
0402
ff00
0100
ffff
0001
0001
0000
0002
0000
0002
02fe
ff00
01ff
ff02
0000
fd00
ff00
0002
00ff
fe00
00fe
ff02
0000
0002
fd00
0000
fefe
0000
fd00
0001
fdfe
ff00
fc00
ff00
fc00
0000
0000
fe00
feff
fe00
0201
0000
00ff
ff00
0000
0000
03fe
00ff
03fe
ff00
0405
fd00
01fe
ff00
0000
00ff
02fe
0000
02ff
fe00
01ff
ff00
0402
ff00
0000
ff00
0004
0000
0200
ff00
00ff
ff00
0002
0100
ff02
00ff
fc01
0000
0000
0000
ffff
00fe
0200
00ff
ffff
0000
0002
0000
0001
0100
ff02
0000
0200
ff00
fe01
0000
ffff
0001
01fd
0101
00fd
ff01
fefb
00ff
fefb
0100
00fe
ff00
00fd
fe00
0101
0000
0000
0000
03fd
0000
0000
01ff
00fa
01fe
0100
0000
0105
01fe
fcfe
01fe
0002
0000
ffff
0000
0000
0000
ffff
0000
00ff
ffff
ffff
ff00
ff00
01ff
0102
00ff
0101
00ff
0001
01ff
0101
0000
0000
0001
00fe
0200
00ff
ff00
fe00
0001
ff01
0000
0100
00ff
ff02
0000
0100
0000
ff01
0000
0000
0102
0000
00ff
0001
00ff
ffff
0000
ff01
00ff
fe00
0001
0000
0001
00ff
0000
ff01
0100
00ff
00ff
00ff
0200
ff01
0000
0000
00ff
fe01
0000
00ff
0001
0000
00ff
ff00
0000
0000
00ff
00ff
0000
00ff
0000
0000
00ff
ff00
01ff
fefe
ffff
00ff
0000
0000
0102
fefe
00ff
ffff
0001
00ff
0001
0000
0000
0101
ff00
0102
00ff
0000
ff00
00ff
0000
0000
0000
00ff
00ff
00fe
0000
0000
ff00
fe00
fe00
ff00
00ff
0001
00ff
0000
ffff
fe00
0000
0000
fe01
ff01
0100
ff00
0002
ff01
0001
0000
ff00
ff01
0000
0100
01ff
ff00
0001
feff
ff00
0002
0100
0000
00ff
0000
ff01
0001
01ff
fe00
0000
0000
00fd
ff00
0000
0000
ff00
fe01
fffe
feff
00fe
0000
01ff
ff00
0000
fe00
0100
01ff
0000
0000
0000
01fe
0000
0001
0000
00fe
ff00
ffff
0001
0100
0000
fffd
0000
ffff
ff00
0000
0001
0002
0102
ff00
0003
0000
ffff
0100
0000
ff00
0001
0000
ff00
0100
00ff
0000
0000
0000
ff01
0000
ff00
00ff
0000
00fe
0102
00fe
0000
0200
0000
0000
0001
0000
0002
0000
0001
0001
0000
00ff
0001
0000
0000
00ff
0001
00ff
ffff
0100
feff
0000
0000
00ff
0100
0000
ff01
0100
01ff
0100
ff01
0001
0000
ffff
fe00
00ff
00ff
0000
ffff
0000
00ff
0000
fd00
0001
0100
0000
0101
0000
ffff
ff00
0001
0000
00ff
00fe
00ff
ff00
00ff
ff00
0100
ffff
00ff
0000
00ff
ff00
fe01
01ff
00ff
00ff
00ff
fefd
0000
fffd
fdff
ff00
0000
00fe
0002
00fe
ffff
01fe
0000
fffe
00fe
fffe
0000
0000
ff00
0000
fe00
00ff
0000
0100
0000
ff00
0000
feff
0000
fe00
00ff
0000
0000
0000
00ff
0200
ff00
fe00
ff01
0000
ff02
00ff
0001
ffff
0002
0000
0100
00ff
0000
0000
0000
00fe
0104
0000
0101
00ff
0001
00ff
0103
0000
0001
ff00
fe02
0000
0004
0000
0001
00ff
ff00
00ff
ff01
feff
ff01
00ff
0000
01ff
0001
ffff
0000
ff00
ffff
00ff
0001
fc00
0000
0000
0000
00fd
0000
fffe
0000
ff00
ff01
0000
0100
00fe
0000
0201
0000
0100
0000
0000
0000
0000
ff00
0100
ffff
0000
00ff
ffff
0002
0001
ff00
ff00
00ff
0100
0102
ff01
0003
0001
0001
0000
0000
00ff
ff00
0000
0000
0101
00ff
ff00
ff00
0000
ff00
0001
0100
00ff
fe00
0000
ff00
0000
00ff
0000
ff01
0200
0000
ff01
0001
00fe
0000
0000
0001
0000
ff02
0001
0000
0000
ff00
ff00
0000
0002
0000
0002
0100
0000
0000
0002
00ff
0000
02fe
0000
0100
0002
00ff
0100
00fe
0003
ff00
0002
ffff
01ff
0000
0001
fc00
fd02
ff00
ff00
ff00
ff01
0000
0001
ff01
ff01
0000
0000
00ff
0100
fe00
0100
00fe
0000
0101
0100
01fe
0100
0200
0000
0000
ff00
0000
0100
ffff
ff00
0000
0000
0001
00ff
0000
feff
0000
fe01
00ff
00ff
0000
ff01
0200
00fe
ff00
fe00
0000
03fe
00ff
05ff
ffff
0200
0000
0100
0100
00fe
0000
01ff
0000
0300
0100
0200
0000
02fe
fffe
ffff
00fe
0000
0000
01fe
0000
0001
ff00
01ff
0000
0001
ff00
0000
0001
0000
fe00
0200
ff00
0000
0100
0000
00ff
fe00
0100
fffd
0000
00ff
02fe
0000
0101
00ff
ffff
00ff
0100
0100
0002
0100
ff00
0000
0000
0000
0000
00ff
0001
0000
0000
00ff
0001
0000
ff01
ffff
fe00
0000
ff01
0000
0002
0000
0002
00ff
0001
0000
0000
0000
ff00
0001
0001
0001
fffe
0001
ffff
00ff
00ff
00ff
fffe
0100
00fd
ff00
0000
0000
0100
00ff
00ff
0001
ff00
0000
0100
00ff
00ff
0000
0000
ff00
ff01
0000
0201
0000
0001
fc00
0100
fe00
0200
0000
0000
0101
ffff
ffff
0201
0000
ff00
00ff
0000
fe00
ff00
fe00
fe01
ffff
01ff
fe02
fe00
0000
feff
0000
0000
0000
0000
ffff
0000
0103
ff01
0000
0100
ff01
00ff
0001
0001
0100
feff
0101
fe01
0001
ff01
ff00
fe01
0001
0000
0000
0000
ff03
0100
ff01
ffff
fdff
00ff
0000
fe00
00fe
ff00
0000
02ff
01ff
01ff
ff00
ff00
0001
0001
0100
0200
0000
ff00
ff00
0002
0000
0100
00ff
0000
00fe
0001
0100
0000
0000
0000
fe00
0000
ff00
0000
00ff
fe00
ff00
0201
ff01
0000
0100
02ff
00ff
0000
0000
0000
0101
ff00
00ff
0000
0000
0000
0000
ff00
0001
0000
0000
feff
ffff
ffff
0000
0000
ffff
0000
fefe
ff00
fe01
0000
ffff
0100
0000
ff00
fd00
02ff
ff03
ff01
ff01
ff01
0002
0200
0002
0000
0000
0100
00fe
ff00
ff00
0100
fffe
00fe
00fd
00fe
0001
00ff
fffd
0100
00ff
0000
0000
ff01
0000
0000
ff00
0100
fe00
02ff
fe00
feff
ff00
0200
0000
0100
00ff
0100
0000
ff01
0000
ffff
0000
01ff
0001
0001
fe00
0100
ff00
0000
0000
0001
00ff
0001
fe00
ffff
00ff
0100
ff00
0001
0000
0000
ffff
0100
0000
0000
01ff
0000
0100
0000
0000
0000
ff00
0000
0000
ff01
0000
0000
0000
ff00
ff00
ff02
ff00
0000
0000
0001
0000
0000
ff00
0000
0100
0000
0000
0000
0102
ff00
0100
ffff
0200
0000
0100
0000
02ff
0000
0101
ff00
0400
0100
0000
ff00
0200
0000
04ff
00ff
0200
01fe
0000
fe00
0000
ff00
0100
ff00
0002
0000
ff00
ff00
0101
0100
ffff
ffff
fe01
0100
ff00
0001
0000
ff00
ff00
fffe
0000
ff00
0101
ffff
0000
0000
00ff
0100
0000
0000
0000
01ff
0000
fe00
0000
ff00
ff00
0001
0001
ff00
0000
0000
0001
0100
0000
0000
0100
0100
ff02
fe01
fe01
0000
0100
fe00
0000
0100
0101
0100
0000
0100
0001
02ff
0100
ff00
0000
ff00
0200
ffff
ff01
ff00
ffff
01ff
ff00
0000
ff01
fe01
0000
0000
0000
0000
0000
ff00
0001
01ff
0001
0001
0000
0000
0000
0000
00ff
00ff
0001
0000
0100
00ff
ff00
0000
0000
0100
ffff
0000
0000
fe00
0000
0000
00ff
ff00
ff00
0102
00ff
0000
00fe
0000
ff00
0100
ff00
00ff
0000
00fe
0000
01ff
0000
0000
fe00
0000
ff00
fffe
0000
0200
ff00
0101
0000
02ff
0002
0000
ff00
0200
0100
00ff
0000
ff00
0001
fe00
ff01
0000
0001
02ff
0000
00ff
0001
01ff
ff00
0000
0000
0001
0003
0000
ff00
ff01
fe00
00ff
00ff
fffe
00ff
ff00
00ff
fe01
0000
0000
ff00
fe00
0100
0000
0100
fefe
ff01
feff
fe00
0001
fe00
00ff
0000
0100
fe00
feff
fd00
0000
0000
0201
fe00
0200
ff00
fe00
00ff
02ff
0200
0000
0101
feff
00ff
0000
0000
0001
0001
fe00
0101
0101
ff00
00fe
fffe
0000
00ff
0001
0000
ff00
ffff
0000
fe00
fe00
fffe
ff00
ff00
0100
0000
0000
0000
0002
ff01
0100
ff00
0101
ffff
ff00
01ff
0001
ff01
fe00
00ff
0000
ffff
ff00
ff01
0001
ffff
00ff
0000
ff00
0000
fe00
ff00
00ff
0100
0001
00ff
fffe
0000
ffff
0001
00ff
fffe
ffff
00fe
00ff
ff00
00fe
0000
ff00
0000
fffe
0000
fefe
0100
01ff
0100
0101
00fe
fe00
0000
ff00
ff01
0100
00ff
ff01
0001
ff00
00ff
ff01
0200
0100
ff00
0202
fffe
0100
00fe
fe00
0100
ffff
01fe
00ff
0000
00ff
0000
fffe
0101
00ff
0001
ff01
0001
01fe
0001
ff02
00fe
0001
01fe
0000
00fe
0002
01ff
0100
0000
fe02
01ff
00ff
fe01
00ff
00ff
ff01
0000
00ff
ffff
0101
00ff
0000
0000
ff01
01ff
fefe
0200
0000
fe00
ff00
01ff
0100
0000
feff
00ff
ff00
0000
ff00
00ff
0101
0001
ff00
0000
feff
01ff
01ff
0100
0000
0000
0000
ff01
0000
0201
0000
0000
0000
0000
0000
0001
0000
ff00
0100
ff01
00ff
ff01
ffff
0100
0100
02ff
0001
0000
00ff
0001
0001
01ff
ffff
ff01
00ff
ff00
0101
ff00
fffe
00ff
ff00
0101
ff00
ff00
ffff
0000
0100
fe00
ffff
ff01
fe01
ffff
01ff
0100
0000
0000
ff00
0000
02fe
0000
01ff
0001
0001
0000
01ff
0001
0000
0200
0200
0100
0001
ff01
0201
00ff
0001
00fe
ffff
0000
0000
0001
ff00
0101
0000
0000
0000
0000
0201
0001
01ff
ffff
ff00
ffff
0000
0001
fe00
ff01
0002
0000
ff00
0100
ff00
02fe
0100
0000
00ff
fe01
ff00
0000
0100
0000
0000
ff00
0000
01ff
0100
ffff
ffff
00ff
00ff
0000
0000
0000
01ff
feff
fe00
fe00
0001
0100
ff00
fe00
ffff
0100
0201
fefe
ff00
00fe
00fe
0000
ff02
0000
00ff
0200
0000
ff00
00ff
ffff
ff00
00ff
0000
0100
0000
00ff
0000
0000
01ff
0000
0001
00fe
ff00
01ff
ff00
0000
00ff
00ff
feff
ff00
0000
0000
0100
0000
0100
0000
fe00
0100
00fe
ffff
0000
0000
ff00
0001
ffff
0001
00ff
00ff
ff01
0001
0001
0000
ffff
0000
0000
0001
00fe
00ff
fe01
0001
00ff
0201
01fe
0102
ff00
fe00
0100
0100
fe00
0100
0001
0000
fffe
ff01
00fe
01fe
0000
0000
ff00
00ff
ffff
0000
ffff
ff01
00ff
0000
0001
01ff
01ff
01fe
0000
00fe
0101
0001
0001
fe00
00ff
ffff
01ff
0100
ff02
ff01
fe00
ff01
fe00
0000
fffe
0000
0000
00ff
fe00
0100
0001
ffff
0000
0201
00ff
00ff
fefe
00ff
0000
0001
0000
ff02
00fe
00ff
00ff
0000
0001
ff00
0100
0001
ffff
01ff
0101
0000
0000
ff01
ff00
0001
0000
ff00
0101
00ff
0001
0101
0101
01fe
0001
ff00
ffff
0001
00ff
00ff
0000
0000
01fe
fe00
01ff
0200
ff00
0001
0101
ff00
0100
fe00
ff00
0100
ff01
01ff
ffff
0000
00fe
0100
0101
ff00
0101
0000
01ff
fe01
0101
0000
0000
ff00
0001
ff01
00fe
ff01
fe00
0001
0000
00ff
0000
0000
00fe
0000
0000
0100
0100
0100
0001
ff00
01ff
02ff
01ff
0000
0100
0200
00ff
0100
fffe
01ff
0101
0000
0200
ff00
0000
0000
0101
00ff
0000
ff01
0000
fe00
0000
fe00
00ff
ffff
0101
0200
0001
0100
0000
0101
ff01
0000
0000
01fe
0000
00ff
01fe
00ff
0000
0000
0100
0000
0001
0102
0100
0000
0000
ff00
0100
ff00
ff00
ff02
ff00
01ff
0000
fe01
ff00
fe00
0000
0002
fe01
fe00
01ff
00ff
00ff
0100
0001
0101
02ff
0000
0002
00ff
00ff
ff00
0001
0101
fe01
0000
ff00
00ff
01ff
02ff
0000
0001
0000
0000
00fe
0201
00ff
0000
0001
00ff
0001
0000
01fe
ff00
01ff
ff00
00ff
0000
ff01
01ff
0002
01ff
feff
ff00
ff00
0000
0000
ff00
fe01
0000
0001
0100
01ff
fe00
00ff
0000
0000
0202
0000
fe00
0001
0101
0000
00fe
fe00
01ff
fe01
0101
0000
01ff
0000
00ff
0001
01fe
0000
00ff
0000
ff00
0100
0000
0000
00ff
0201
00ff
00ff
fe00
0001
00ff
ffff
0001
02ff
0001
ff01
ff00
ffff
0100
0100
0000
0102
fff5
ffff
01c4
0000
00ff
0000
01e7
0000
fdd8
ffff
0111
0000
05fd
0000
0436
0000
03bc
0000
0078
0000
002a
0000
01c0
0000
02cf
0000
02bb
0000
0717
0000
fddc
ffff
02f6
0000
feeb
ffff
04b4
0000
0331
0000
ff4a
ffff
0400
0000
0457
0000
02c6
0000
0380
0000
0343
0000
00f0
0000
021b
0000
0221
0000
02e9
0000
009c
0000
fc55
ffff
063a
0000
01c0
0000
0012
0000
ff39
ffff
002e
0000
ff61
ffff
0257
0000
ff05
ffff
04f2
0000
01b1
0000
0385
0000
030a
0000
02b7
0000
0309
0000
0111
0000
059c
0000
0246
0000
fdda
ffff
0299
0000
05cc
0000
0248
0000
0404
0000
035c
0000
017e
0000
077f
0000
fea0
ffff
001d
0000
feca
ffff
0424
0000
0524
0000
0005
0000
011a
0000
021c
0000
03e2
0000
0008
0000
0113
0000
fe3f
ffff
0518
0000
00b8
0000
0494
0000
fe8e
ffff
016a
0000
0236
0000
012b
0000
03a8
0000
0177
0000
fff0
ffff
fefd
ffff
fc3f
ffff
0039
0000
fcd5
ffff
fe60
ffff
0299
0000
001f
0000
0204
0000
fb00
ffff
03d3
0000
fffb
ffff
02ec
0000
097f
0000
041c
0000
02b3
0000
01de
0000
037f
0000
0040
0000
0040
0000
0040
0000
0040
0000
0040
0000
0040
0000
0040
0000
0040
0000
0040
0000
0040
0000
0040
0000
0040
0000
0040
0000
0040
0000
0040
0000
0040
0000
0040
0000
0040
0000
0040
0000
0040
0000
0040
0000
0040
0000
0040
0000
0040
0000
0040
0000
0040
0000
0040
0000
0040
0000
0040
0000
0040
0000
0040
0000
0040
0000
0040
0000
0040
0000
0040
0000
0040
0000
0040
0000
0040
0000
0040
0000
0040
0000
0040
0000
0040
0000
0040
0000
0040
0000
0040
0000
0040
0000
0040
0000
0040
0000
0040
0000
0040
0000
0040
0000
0040
0000
0040
0000
0040
0000
0040
0000
0040
0000
0040
0000
0040
0000
0040
0000
0040
0000
0040
0000
0040
0000
0040
0000
0040
0000
0040
0000
0040
0000
0040
0000
0040
0000
0040
0000
0040
0000
0040
0000
0040
0000
0040
0000
0040
0000
0040
0000
0040
0000
0040
0000
0040
0000
0040
0000
0040
0000
0040
0000
0040
0000
0040
0000
0040
0000
0040
0000
0040
0000
0040
0000
0040
0000
0040
0000
0040
0000
0040
0000
0040
0000
0040
0000
0040
0000
0040
0000
0040
0000
