0001
0000
0c07
0b07
0101
1700
0507
0000
0c04
0205
0002
000e
0000
0403
0600
0005
0000
0000
1700
0b00
0000
0005
0e00
0910
0b13
0001
0504
0200
000a
070a
000a
0000
000e
0013
0b02
0000
0b00
0007
0900
0000
0600
0900
0013
020d
0c00
0500
0700
0600
0000
0000
1001
1009
0001
0910
0600
0000
1306
0000
000e
1104
0000
0000
1106
0003
0000
0005
000d
0005
0000
0006
0000
0007
0016
050b
000a
0005
0015
1100
0e00
000e
0010
0700
0004
0001
000e
0012
0904
0306
0001
1900
0000
0407
0013
0714
0000
1700
0003
0000
0b00
0000
0006
0000
050b
0100
000a
0607
0500
0000
0000
0010
0000
000b
0300
0500
050a
0000
0c01
030c
1800
0001
1100
0605
0d00
0300
040c
060c
1200
0000
0001
0000
1104
0b05
0001
1a00
0006
0000
0900
0305
000a
000f
0001
0000
0a00
0002
0000
0000
1d00
0a00
0004
0008
1100
0d15
0c1a
0001
0904
0100
000e
070c
0008
0000
0014
0017
0503
0400
1300
0003
0c00
0000
0100
0703
0011
000f
0800
0803
0600
0000
0000
0000
0d00
0f0a
0000
0c10
0600
0100
0f04
0000
0004
1105
0100
0000
1307
0003
0100
000a
000b
0011
0000
0008
0000
000b
001a
050a
0016
0008
0018
1102
1502
000b
000f
0000
000a
000b
000a
0012
0906
0506
0006
2200
0000
0a07
0016
0411
0000
1500
0004
0101
1000
0307
0005
0000
0406
0200
0004
040b
0300
0000
0000
0008
0000
0005
0502
0500
070d
0000
0c00
0105
1600
0000
0800
060a
0c00
0000
040e
060f
1500
0000
0001
0000
1107
0e0c
0008
1100
0005
0000
0800
040b
001d
000b
0000
0000
0900
0200
0000
0002
1a00
0900
0000
000c
1200
0e17
0f1e
0002
0606
0200
000e
0a0e
000d
0000
0018
0013
0407
0b00
1200
0000
0d01
0000
0000
0808
0011
0011
0b03
0800
0d00
0000
0000
0000
0600
0505
0000
0e0d
0402
0600
0b02
0000
0006
0e05
0100
0000
1309
0008
0100
0007
000d
0018
0104
000b
0000
000a
001a
070d
0022
000b
0515
1101
0e07
0007
010d
0004
0012
0011
000e
0013
0009
0412
020c
1d00
0000
0e01
0116
030d
0100
1909
000b
0405
1200
000c
0008
0003
0102
0200
0001
0709
0000
0000
0008
0005
0300
0001
0906
0300
060e
0000
0f00
0100
1600
0000
0700
0713
0c00
0000
020d
0514
1300
0000
0000
0000
1309
0d11
0002
0f00
0000
0002
0800
040f
001a
0009
0000
0300
0a00
0000
0000
0000
1500
0b00
0000
000c
1000
0e15
0f1e
0007
010a
0800
0005
0b07
0010
0000
0016
000c
0008
0300
1000
0000
0f01
0000
0000
0304
0011
0312
0b05
0300
0d00
0000
0000
0100
0300
0600
0000
080b
0301
0a00
0504
0000
0006
0b02
0000
0000
1106
0007
0000
0006
0006
0011
0006
0009
0000
0006
001a
050b
001a
000f
0616
1000
0807
0206
030c
0204
000c
0011
000d
0017
000c
040b
0406
1700
0000
1100
0011
020d
0000
1a0d
000c
0001
0e00
000b
0008
0003
0005
0200
0004
080b
0000
0000
0006
0001
0000
0000
0907
0200
010c
0000
1000
0100
1500
0000
0600
0811
1000
0000
040e
0515
1100
0000
0001
0000
130b
0914
0005
1200
0000
0000
0600
0511
001b
0007
0100
0a00
1004
0200
0000
0000
1000
0b00
0000
0012
1800
1114
0e19
0005
020b
0000
0001
0c06
000d
0000
0012
0007
000c
0400
0d00
0000
0e03
0000
0000
0000
0010
0116
0c05
0000
0c00
0600
0000
0200
0c00
0c01
0000
130f
0502
0500
0000
0000
0002
1101
0000
0000
0c0a
000d
0000
0007
0007
0610
0006
0004
0000
0003
0014
0609
0015
000d
0319
1000
0307
0005
010f
0000
0007
0309
000e
001b
0013
0806
0205
1c00
0000
1a00
0209
0006
0000
1b0c
000d
0000
0f00
0107
0202
0004
0202
0100
0009
0a05
0000
0000
0000
0000
0900
0000
0906
0500
0504
0000
0d00
0000
0d00
0000
0900
030c
1000
0000
0312
0112
0b00
0000
0005
0000
140b
0918
0004
1400
0000
0000
0400
081a
0016
000d
0702
0700
1406
0000
0000
0000
0a00
0800
0000
0017
1900
0917
0c19
0010
0909
0000
0000
090a
0003
0000
000c
0007
000b
0f00
0500
0000
0c04
0000
0000
0304
000d
0017
0a07
0400
0800
0300
0000
0000
0a04
1200
0000
1a14
0302
0800
0000
0000
0002
0f00
0500
0000
060a
0011
0000
000c
0005
0b0e
0006
0005
0000
0002
0013
0609
0018
0306
0014
1600
0009
0000
030a
0000
0002
0000
000e
001e
0112
040e
0308
2100
0000
1a00
0b03
0004
0000
1005
000d
0000
1000
0403
0000
0008
0803
0100
0000
0300
0000
0000
0002
0000
1200
0000
0007
0000
0700
0000
0900
0006
0800
0000
0a00
0010
0a00
0000
000f
0011
0600
0100
0009
0000
0900
0916
000a
0600
0000
0000
0600
0a10
0003
0011
0704
0500
1700
0000
0000
0000
1100
0300
0000
0010
1100
051c
101a
001a
0412
0000
0003
070e
0000
0000
0006
0006
0007
0f00
0100
0001
0b00
0000
0000
0501
000b
0017
1301
0500
0300
0000
0000
0000
0b05
1200
0000
190e
0805
0600
0600
0000
0007
0902
0500
0000
0502
000c
0000
0008
0006
0109
0304
0d14
0000
0002
0210
0607
0011
0102
000f
1702
0108
0400
0001
0700
0000
0001
010b
0817
0908
040e
000d
1500
0000
1000
0c00
0003
0200
020a
0001
0000
0b00
0405
0000
000b
0c08
0000
0001
0000
0000
0000
0009
0005
0600
0000
0000
0000
0b00
0000
0500
000d
1000
0000
1200
0009
0a00
0000
0308
000c
0800
0000
0004
0001
060a
0d10
0011
0000
0503
0000
0b06
0308
000e
0516
0800
0800
1500
0000
0000
0003
1900
0800
0000
0010
0c00
0519
1019
001a
0014
0000
0004
090e
0006
0000
000b
0004
0701
0800
0700
0000
0c00
0000
0100
0c00
000e
0515
0e00
0b00
0500
0000
0000
0000
0708
1000
0000
0f06
0c0b
0700
0200
0000
000e
0909
0000
0000
1201
0000
0200
0000
0006
0001
0801
091b
0000
0002
0f15
050e
0014
0006
0008
1207
0104
0b00
0006
1100
0000
0008
000c
0011
050d
020c
0507
0d00
0000
0e09
0a01
010b
0700
050a
0000
0300
0c00
0102
0008
000d
080c
0301
0004
0008
0200
0900
030e
010b
0200
0000
0800
0001
0700
0000
0800
0011
1700
0000
1900
0008
1100
0000
0606
0112
1000
0000
f501
0000
f601
fcfe
fd00
02fe
faff
fbfe
f801
f302
fbfe
0000
fcff
ff00
fb00
f800
ff00
0000
fe02
ff00
fffd
fffc
0000
feff
fd00
ff00
00fe
00fd
fe03
fffe
0005
fe00
0200
0100
ff01
ff00
0302
ffff
05fd
0000
fe02
fe01
07fc
ff00
0bfb
0002
0403
fe00
01fd
ff02
05fb
ffff
0004
0000
0200
fc00
0102
02ff
0001
00fa
00fe
0002
02fd
0200
0500
fefe
0201
0103
feff
01ff
0105
00ff
0200
0006
0500
ffff
0000
0003
00fe
ff01
03fd
fdff
0000
0100
00fe
0201
ff01
0000
0000
ff01
0100
fffc
0001
0501
0000
0001
01fd
0000
0100
fe00
fffe
0001
00ff
fffc
0102
00fa
ff01
02fe
0000
00fd
0109
fcfe
0300
00ff
05fe
0000
0604
fbff
02fe
fd02
0100
ff00
05fd
ff01
00fe
0001
05fe
fdfe
fe00
f800
03fe
fd01
02fe
fd00
0000
fb00
0203
fc00
0301
0000
0001
fc01
0200
fd01
fd01
fffe
0300
0100
ff00
0102
0402
0400
0f00
0802
05ff
0202
00fb
0101
01fe
0302
00fb
0002
fdff
00ff
fbfe
ff00
fe03
03fe
02ff
0002
fdfd
ff00
fe00
0002
0400
0201
00fe
0103
0203
ff03
0000
0700
0201
0a00
0001
0201
0100
03ff
0400
06fd
ff01
01fe
00fe
0400
0000
01fc
fefc
03ff
0100
fefe
0300
fc02
0400
00fe
02fe
0500
02ff
0004
0300
0101
0301
ffff
08fe
fe00
07ff
0300
0500
0107
0600
0007
0200
0102
0201
0004
0506
0003
0000
0103
00fd
ff02
0303
ff00
00fb
00ff
0201
fe00
0500
fdfb
03fe
0100
fd01
02fe
0000
01fb
fffe
0200
ff00
0100
fb05
0100
0001
0001
0000
0003
fd03
0002
ff00
0001
fffe
feff
fdfe
0000
fd00
ff00
00ff
0003
fe00
0102
0000
0206
fe00
04fd
0100
0300
0000
fe00
01fe
06ff
00ff
02fe
01ff
00ff
fb02
02ff
fefd
ffff
fffe
00ff
07ff
ffff
0000
ffff
0102
fe00
0001
0100
fffe
04fe
fefe
0000
0001
fe00
fffe
02fd
feff
0002
01fe
0001
0000
fffd
fe00
fd01
00fb
fefe
00fd
0000
0000
02fe
ffff
0003
0403
0100
0302
ffff
00ff
0100
ffff
fd01
00ff
0001
00fd
00ff
0101
0000
ff01
ff02
ffff
ffff
00ff
0002
0002
0300
0200
0002
00ff
00ff
0201
0300
0200
feff
0002
feff
0202
fe00
0202
0000
ff02
0200
0003
02fc
ffff
00ff
ff02
02fd
ff01
feff
fffd
00ff
ff04
02fd
fffe
01ff
00fb
00fe
02fd
fffd
00fe
feff
0000
ffff
0000
fe02
0000
0102
fe02
0000
ff02
ff04
0002
0002
00fe
0000
01fe
feff
ff02
0103
0407
0200
0002
0401
0201
ffff
01fc
0300
00fd
0300
00fc
fe00
ffff
0001
00fe
fcff
02fe
fd01
03fe
0004
00fe
0003
0000
fd02
0002
ff04
f904
0204
fb02
fe03
0200
00fe
fefb
feff
02ff
0001
0400
0007
0000
0006
0100
0005
ff00
0102
fcff
0504
ff00
0200
0301
0300
01fe
05ff
0301
0601
00ff
fefb
0100
fdfd
0002
fefe
0202
00fc
0300
00fe
0000
fefe
00ff
01fd
00fe
00fe
0000
feff
0400
fbff
0401
0601
0101
fffd
0001
0401
0200
0800
0001
fffd
0001
0201
fe00
0001
0000
0200
0000
0201
04ff
0102
0200
00ff
03ff
0002
04fe
0107
0100
0000
0001
0000
fd00
feff
0101
fefd
0600
00ff
07fe
fb01
0005
0000
0204
0104
0204
feff
fd05
0000
0001
0003
fd04
fe00
0001
03ff
fd03
feff
fc00
fe00
fe01
0000
0002
01fd
f800
fefe
fb03
00ff
0000
01ff
fc01
fefd
fe00
0100
fffd
0208
0003
00ff
ff02
0103
0002
0002
ff03
00f8
0100
0000
00fd
0002
0200
00fd
ff00
ff02
00fc
fe00
00fc
fcfe
fe00
ff00
fc00
ff01
fffc
fd01
fc00
0101
ff02
02fe
01fb
0100
0100
0000
0400
ffff
0100
0000
03fe
0300
fe01
0002
fc03
0000
0004
0302
0502
fe02
0002
fe00
0103
fe02
ff03
0002
fe08
02ff
0307
0200
0105
00ff
0006
02ff
0102
feff
0002
00ff
0005
02ff
0100
01ff
ff00
0000
ff03
ff02
0000
fe00
fe02
ff00
fd05
fe00
0103
0100
02fd
00fe
0100
ffff
02ff
0000
01ff
0000
01fb
fe01
0000
01ff
0000
0204
00fd
0400
00ff
ff02
feff
0301
00fd
0300
fffd
fe00
0000
00ff
01fe
fc00
0200
fd02
04fe
0003
0301
0000
fe00
fd00
0601
ff00
0200
02f9
0001
fefb
02fb
0002
fffe
fefe
00ff
0002
fffe
00ff
0000
00ff
0202
0000
0100
0000
fe02
fffe
fe02
0000
0101
0100
fe02
fefd
ff02
0102
feff
ff01
0000
00fd
00fe
0201
fb02
02fe
fd00
0000
0002
00fe
ff01
ff03
0303
fe00
0203
00ff
ff00
0000
ff00
0101
ff01
0101
fdff
01ff
01fd
0000
01fe
0102
ff00
01ff
fffc
0002
02ff
0000
00fe
0002
ff02
ffff
01fe
0000
0000
ffff
0204
feff
0201
0000
02ff
0100
0200
0000
0300
01fc
ff07
00ff
0207
fefd
0102
05ff
fd04
04ff
0403
04fd
fe03
05ff
fb02
01fe
fd00
04fd
feff
01ff
0000
03ff
00fb
0002
0000
0102
02fe
0200
02fb
0004
0200
0302
fe00
0000
fe00
01ff
0201
0003
0703
fd00
0202
0301
0101
02ff
fcff
0200
fd00
0300
fc00
0000
ff03
fd01
fe02
00ff
fe06
0001
fefd
fc04
fe00
fc03
0000
0002
02ff
0004
04fe
fc04
02ff
0003
00ff
02fe
fbff
fbff
ffff
0001
07ff
04ff
0001
00ff
0101
01fe
0004
ff01
ff08
fc04
fe02
ff00
0001
03fe
ff03
0102
fe00
0300
0100
0000
00ff
01ff
fe03
00fd
0000
02fe
00ff
0300
0000
0002
ff02
0000
0401
0001
03ff
00ff
0007
0401
ff0a
04fd
0002
0100
0003
0000
0106
0200
ff01
00ff
0200
feff
00fe
fd00
0200
fffd
0200
00fd
0104
fd01
0002
0002
0003
00ff
0104
0000
0001
00ff
0000
0100
fefd
0002
fe01
0201
0006
0202
fb07
0004
0000
0100
0102
00ff
fe02
fc05
00fd
fd00
0000
0002
fefd
fd01
0300
ff00
fefd
0000
fefc
ff0a
00fe
0400
0100
fb02
fef8
fc0c
00fb
fd03
0100
fe01
fefc
0003
01fe
0000
02ff
0000
0000
0205
01ff
0102
0000
0002
00ff
0205
0001
fe03
0000
fe00
0002
00ff
ffff
0000
fe00
00ff
fc00
0001
fffe
01ff
fffc
0001
fdff
0200
01fc
0301
02ff
0201
0101
fefd
0001
ff02
0007
fd00
0206
ff00
0005
fe01
0002
0400
0104
0402
0100
ff02
fe00
0001
ffff
fe00
fe01
0003
00fb
0302
02fd
ff00
00fe
0000
fdfc
0001
fefe
fffd
fdfe
fd01
fefd
0000
fffe
0102
feff
fd03
fbff
0001
fb01
0000
fdfd
01fe
fa01
fe00
f900
01ff
fdfd
feff
fd01
0000
f901
fdff
fc00
fc02
0101
04fe
fe02
fffd
05ff
0001
fc02
00ff
fc07
00ff
0300
ff01
0000
0301
feff
fffe
02fd
0300
00ff
0003
0001
0100
0000
0302
0104
02fe
00ff
02fb
0000
fefd
fd03
fd00
0000
00fd
feff
03fe
02ff
fff8
0100
fdf8
0000
02fd
fffd
fffd
00fe
fcfd
fcff
00fd
00ff
ff00
00fd
0101
ff00
0101
fe08
0000
01ff
fb00
0003
0102
0102
fd00
09f8
fe02
0300
fc03
fe02
ff01
00fd
fefe
ff02
fe00
0000
0003
fefe
0401
0100
0002
0001
fe00
0201
0500
0001
0001
00fe
ffff
fb00
0100
ff00
0002
fc00
01fe
fe00
0000
0000
01ff
fe01
ff04
fe05
0301
0002
00fe
0003
03fd
0005
0000
ff06
0202
02fe
04fc
00fd
01ff
fcfe
0000
fe00
0000
0200
0000
fefe
01ff
0001
0000
fd00
ffff
fdfe
01fe
00fb
ff01
0006
fdfe
feff
01ff
0004
02ff
0008
01ff
ffff
01ff
fd00
fbfe
f9fe
fefd
fc00
fcff
0100
0300
fe04
02fd
0502
0000
fc03
0200
fc04
0200
0301
0000
0000
0201
fefd
0400
0201
ff02
0006
0102
0007
ff00
0000
0001
0102
fe00
0002
00fc
00fd
01fd
fd00
0000
00fd
00fd
fe00
ffff
02fd
fe00
01fc
01ff
00fe
ff04
ff00
fefb
00f8
00fc
fcfb
00fd
0000
fffe
00fc
0200
fffe
0100
feff
fe00
0100
ff02
00ff
ff01
0100
fe00
09ff
fd02
0301
fefe
fe00
fffe
0002
fd00
ffff
fe00
0000
fe00
fe00
fe00
01fe
0001
00fc
0000
02ff
0102
00fc
0103
00ff
0102
fb01
fffe
ff01
ffff
fc07
fefd
fe06
00ff
0005
00fe
fe02
0004
fe04
fe04
0000
feff
0000
0000
00ff
00fe
ff01
ff00
02fb
0603
00fd
fcff
fcfe
0200
fefc
0000
02fe
fbff
fefe
02fd
00fd
0300
fdfe
ff01
fdff
00fd
00ff
0300
0001
0000
fefd
0201
0001
00fe
0000
0001
fffd
fffe
ff01
0000
0001
00fd
fd00
00fc
fd01
0004
0102
ffff
02ff
0000
ff02
0000
0007
0000
ff00
00ff
0000
ff03
02ff
feff
01fd
0003
02ff
ff00
0401
fe01
0000
0103
ff04
0002
05ff
ff02
0000
fcfe
0203
00fd
0100
fe00
00ff
ff03
00ff
feff
0a00
fcfd
0000
0002
02fd
f9ff
0cfe
f8fc
03ff
fd00
01ff
feff
03fd
0301
0000
0001
0008
ff00
05ff
fafb
0203
0601
0202
fcfd
05f8
fcfe
0300
01fc
0002
03ff
fffd
00fe
0002
01fe
ff00
fe00
01fe
fb04
ff00
0000
0101
fefe
0001
0005
0101
0100
01fe
fcff
fd00
0001
0200
0000
0000
fe01
0000
fe00
0100
ff01
0001
00ff
0205
0003
0202
0000
0103
0003
0005
0200
0306
0002
02fe
0304
00fd
fd01
00fe
0000
0100
0100
fd00
fe00
01fe
0101
0001
0000
0200
02ff
03fe
0101
01fb
02ff
0006
00fd
feff
0001
0004
ff02
ff08
0201
ffff
0001
0002
0003
ff00
fe01
0202
0002
fe02
00ff
fd01
fefb
0100
01fc
ff00
0003
ff01
fe02
0100
0100
0100
0100
fefe
01fe
00fe
0001
0300
03ff
00fb
ff01
0200
fe00
fe01
0002
fbfe
0000
fd00
0000
0000
0002
fdfe
0201
fe03
0001
f8fe
0201
f8fe
03fe
fd00
0203
fd01
0201
fdfe
0201
fd00
00fd
0001
0100
01fe
0301
0101
ff03
0002
03ff
0000
f905
0201
0000
0000
ff00
0200
0000
0300
fdff
0100
0401
fe00
0400
00ff
0002
03fe
0001
01fc
fe00
02ff
0000
00ff
0003
00fd
00ff
0101
0400
ff02
0300
0001
0000
0200
0000
fe00
ffff
0002
00fe
ff00
01fb
0400
0000
0101
fe04
fe01
0000
fdfe
fffc
00ff
01fe
02fe
01fa
fc00
0100
ff02
fa00
0000
0100
00fd
00fe
00fe
ff00
fffd
0000
00fe
01fd
ffff
01ff
fefe
0302
01fb
0000
fefb
0300
fffd
00ff
fffa
0000
fff9
0703
fffd
fffd
0001
0101
0002
0003
ff00
0001
0200
0500
fe02
0304
fe00
0004
02ff
00fe
fffd
01fe
fffc
0000
fc00
ff04
fc00
0101
0000
0100
0000
0d00
ff00
f100
00fe
f7ff
ff00
0500
02fd
f701
ff00
fcff
0002
04ff
0200
f701
ff00
fb00
02fe
0100
04fd
00fe
0100
0100
0401
fffe
04fd
ff03
0103
0001
0300
fffc
03ff
fe01
0000
00ff
0300
00fe
06fe
02fd
0404
01ff
04fe
01fe
0000
ffff
0401
00ff
feff
fffd
fdfe
0101
ff03
0001
06ff
0000
ff00
0202
0400
00ff
00fe
0000
fc00
0008
02ff
0100
0300
0000
0301
ff02
05ff
0100
fe04
0002
0003
0001
ff02
ff01
0003
0100
fd07
0100
ff05
00ff
0002
ff01
0104
fdff
0201
02ff
0202
0101
ff05
fe01
ffff
0001
fe03
ff02
0109
00ff
0202
0100
0001
0002
0004
0000
fe01
0200
0001
0102
0004
00ff
ff03
00ff
0103
0100
fe01
00fe
0001
0100
ffff
0100
0300
00ff
00ff
ff00
fe01
0101
00ff
fe02
0200
fe00
0001
0000
0105
0001
00fd
fefe
04fe
00ff
0102
ffff
03fd
00ff
f9fb
0102
fff6
0000
fd02
ff00
fdfd
0001
03f5
fffe
00fe
0000
fe00
0000
00fc
ff00
fc00
ff00
fdfe
fd00
ff00
0000
0004
0100
fe00
0001
0200
0200
fe01
0001
ff02
0201
0000
00ff
00ff
0201
0404
fffe
0102
0000
0202
00ff
0102
03fe
0200
0000
0201
ffff
0005
03ff
0000
0101
fe02
00ff
04ff
0100
0400
0000
0401
0100
ff00
01ff
0001
ff00
0000
ff00
0100
0002
02fd
01ff
0004
0000
0101
0001
fd00
fe01
ff04
0000
ff00
00ff
f8fe
0000
fd03
0100
0000
0300
fdff
0000
ff01
01ff
fe03
0302
fefc
0001
00fa
0001
01fe
00ff
fe00
00ff
feff
0002
fd01
ff01
ffff
ff00
0000
0000
0100
0000
ff00
00ff
00fe
00ff
fffe
02fe
00fe
0201
03ff
0101
0202
04ff
01fd
0301
0100
04ff
0206
00ff
0500
0001
0100
0000
0304
01fc
0205
0001
0005
00ff
0304
0000
0205
0000
0203
00ff
00fb
feff
0000
0001
0002
0000
fd00
01fe
0200
fd00
ff03
0001
01fe
0000
00ff
0002
00fe
ff00
fd05
0000
0001
0102
feff
0000
0000
00fe
0000
ff02
00fb
0000
ff00
00ff
00fc
0000
0001
0100
0002
fc00
0602
0000
0401
ff00
0202
01ff
0000
ff00
0300
ff00
ff03
00fe
0103
fe00
0002
01ff
fe03
0001
fd00
00ff
ff00
00ff
0000
0200
0000
0100
fe03
00fe
0000
ff00
0101
0001
0100
0200
01fe
0800
0002
0000
0000
ff00
ff00
0200
0100
feff
00ff
0000
00ff
0001
0002
0000
fe00
0000
fd04
0100
0100
0000
0005
0200
fc01
0001
fcff
0001
ff01
ff01
ff03
02ff
0102
0100
ff00
00ff
0301
06fb
0300
fd00
04fd
0003
0200
ffff
01ff
ff00
fbfe
01fe
0003
0001
0000
0200
0100
ff00
0001
ff02
0000
0200
01ff
00fe
0000
0000
ffff
00ff
0201
0000
00fc
0102
0000
0000
01ff
ff00
0101
00fc
00ff
ffff
fe00
ffff
00fe
0003
0200
01fe
0000
0200
0001
0000
0000
ffff
0000
0000
0000
0102
00fd
01fd
ffff
02fd
00fc
0001
0001
01fe
ff00
0300
0200
fffe
0000
00fd
01fe
00fd
0000
02fe
fe00
0001
0000
fe00
fd00
0401
fe00
fe00
ffff
0100
0000
0100
0002
fe02
0000
0001
0dfa
00fd
fc00
fffd
fcff
00fe
01fb
fffe
fd01
0000
ff01
0001
03f9
0000
fefe
fe00
0100
0001
0002
00fe
fdfe
ff01
00ff
0000
00ff
0000
00ff
feff
0300
03fe
00ff
fe01
fe01
0101
0000
0000
0000
0001
ff00
0000
0100
02ff
0001
0001
ffff
ff00
ffff
00ff
0000
0000
0000
0000
fd00
0000
0100
fd03
0002
fe03
ff02
ff02
fffe
ff01
0000
01ff
0002
0000
fefe
fe00
00ff
fe00
0000
0002
0000
fdff
ffff
0100
0001
0000
0000
00fe
01ff
0000
0100
fe00
0001
0200
ff01
0200
ffff
0000
0006
00fe
0000
01fe
00fe
0000
ff00
fdfe
ff00
00fe
0000
0000
ff03
ff00
0001
fe01
0100
01ff
00fe
02ff
fffd
01ff
00ff
0100
0000
00ff
0100
02ff
ffff
0000
0000
01fe
ff01
02fe
0101
0100
0100
01ff
fffd
0100
0000
0100
ff00
00fe
0000
00fe
fe00
00fd
fc03
fe01
fe01
0200
ff01
0000
0002
ff00
00ff
0001
0000
00fe
ff02
00ff
01fd
0001
0000
ff00
0000
0101
00ff
ff02
0000
0200
0001
0100
01ff
0000
ff01
0200
ff00
0001
ffff
0002
ffff
0001
0002
ff02
0002
0100
ff00
0100
00ff
00fe
ff00
00fe
0000
fefd
0000
ff01
ff00
0001
0001
ffff
ffff
ff00
0002
fe01
ffff
0000
00ff
0101
0000
0001
0003
fffc
feff
0000
ffff
00ff
0101
0001
ffff
ff00
0000
01ff
0101
02ff
0400
00fe
0000
00fe
0100
0000
0102
fe00
0000
0000
0000
01fe
0200
fc02
0001
fd00
00ff
0101
0000
0003
0100
0000
0000
00fd
00ff
0001
0000
00ff
00ff
ff00
01ff
0100
01ff
01ff
0102
0200
0000
0303
0002
0000
0001
0000
0000
0000
ff01
00fe
0100
00fe
fe00
0000
0101
0002
0002
ff00
07ff
0001
0300
0100
0000
0000
fe01
fe01
0000
0101
01ff
0000
0200
0200
00ff
0002
ff00
0100
00fc
0606
0102
fd02
0000
ff00
00ff
0103
0001
00fd
00ff
fd01
0000
0201
0000
ffff
0203
00fe
ff01
ff02
0000
0100
0100
0000
fd00
ff00
0201
0000
01ff
0000
ff00
00fe
0000
01ff
0301
0001
0000
0301
0000
0100
ff02
fe01
0000
ffff
0000
0200
0102
0100
00ff
ff00
0000
01fe
0000
0102
0100
0001
00fc
0000
00ff
0102
0002
ff00
ffff
0000
00fe
0100
0000
fd02
ff00
0001
ff00
0000
0001
fd01
0001
fdff
0001
0000
0201
fc00
fe01
ff00
00ff
0000
0000
fe00
0300
0000
03fe
0200
00fe
00ff
faff
00fe
fdfe
0200
fe00
00ff
fd00
fe00
0100
0000
0001
0000
fe03
0100
ff01
0000
0408
ff07
0002
ff02
0000
ff00
ff01
0104
fefe
fe00
0100
0002
0200
0002
0000
00fe
0001
0000
0900
0001
fc01
fffd
ff00
0000
0402
fe01
fc02
00ff
ff00
fffe
0402
00ff
fe01
02fe
fe00
0100
ff00
feff
0100
fe00
01ff
fcff
ff01
0000
0000
0201
ff00
0200
00ff
02fd
0100
0001
00ff
0000
0002
0102
00fe
00fe
0000
0200
ff01
fe01
00fc
fffe
00ff
0001
0001
ff01
01fe
fe01
00ff
0100
0101
0100
0001
0100
0101
ff01
ff00
0001
01ff
00fe
0000
0000
0000
0001
00ff
0201
01ff
0000
0001
0100
ff00
0000
fe00
0201
01ff
0000
0000
0200
0201
0100
0000
0103
0000
0002
ff00
0000
fe00
0501
fd00
ff00
00fe
fd00
ff00
0000
00ff
fe00
ff00
0000
ff00
0001
0001
fdff
0100
0000
0201
fd00
fe03
feff
0001
0000
ff01
00ff
0001
ff00
0000
0001
0000
0000
fc00
fe00
0000
fd01
fefc
0701
0000
fe01
fc00
0000
ff00
0000
0002
fe00
feff
fe02
0001
0000
ff00
0001
00ff
0000
fe02
000a
fffe
0000
0000
0002
ffff
0000
0000
fffd
0001
0004
ffff
feff
02fe
0101
01ff
0000
0001
0101
0000
0100
00fd
fffe
0001
01fe
0001
fffc
0001
00fe
0100
0100
0000
ff00
0000
0001
02f8
ffff
0200
0100
0000
0000
fdf6
00ff
0002
0100
ff01
ff00
ffff
fe01
0300
0100
00ff
ff02
0400
020d
fdfe
fdff
fe01
fc00
0002
0102
0000
00fd
00ff
0000
ff00
0102
0001
fffe
0100
0000
0002
0101
00fe
00fe
0100
0001
0100
0000
ff00
ff00
ff00
ff03
ff00
0000
00fe
0100
fd01
00ff
00ff
f8ff
0200
ff02
0100
0000
0000
fffe
00fe
0100
ffff
0202
0100
0000
00ff
03ff
00ff
01ff
fffe
0100
0100
ff01
00ff
0001
0000
0000
0101
ff00
0000
0000
0100
00ff
ff01
ff00
00ff
0102
fdfd
fdfe
0000
00fe
0102
ff00
fefe
fffd
0000
00ff
0000
0002
00ff
0000
0000
0100
0203
0000
00ff
fe02
01ff
0000
ff01
00ff
0101
0002
ffff
0000
fe00
fe01
0000
0100
00ff
00ff
0000
01ff
0300
0000
ffff
fe00
ff01
00ff
0300
ff00
0000
fdff
0100
0000
0000
0000
ff00
0001
0000
ff01
0000
0103
00ff
0002
0100
00ff
0101
0101
00fb
0100
ff00
01ff
0000
0000
00ff
0100
0000
00ff
0201
01ff
01ff
0100
ff01
0001
0100
0000
0001
fefe
00ff
01ff
0001
0000
0000
0102
0000
00ff
0001
00fa
00ff
01fd
0000
0000
0000
00ff
0000
ff01
0000
feff
fff5
ffff
01c4
0000
00ff
0000
01e7
0000
fdd8
ffff
0111
0000
05fd
0000
0436
0000
03bc
0000
0078
0000
002a
0000
01c0
0000
02cf
0000
02bb
0000
0717
0000
fddc
ffff
02f6
0000
feeb
ffff
04b4
0000
0331
0000
ff4a
ffff
0400
0000
0457
0000
02c6
0000
04f2
0000
01b1
0000
0385
0000
030a
0000
02b7
0000
0309
0000
0111
0000
059c
0000
0246
0000
fdda
ffff
0299
0000
05cc
0000
0248
0000
0404
0000
035c
0000
017e
0000
0000
0000
0000
0000
0000
0000
0000
0000
0000
0000
0000
0000
0000
0000
0000
0000
0040
0000
0040
0000
0040
0000
0040
0000
0040
0000
0040
0000
0040
0000
0040
0000
0040
0000
0040
0000
0040
0000
0040
0000
0040
0000
0040
0000
0040
0000
0040
0000
0040
0000
0040
0000
0040
0000
0040
0000
0040
0000
0040
0000
0040
0000
0040
0000
0040
0000
0040
0000
0040
0000
0040
0000
0040
0000
0040
0000
0040
0000
0040
0000
0040
0000
0040
0000
0040
0000
0040
0000
0040
0000
0040
0000
0040
0000
0040
0000
0000
0000
0000
0000
0000
0000
0000
0000
0000
0000
0000
0000
0000
0000
0000
0000
