0001
0000
0c07
0b07
0101
1700
0507
0000
0c04
0205
0002
000e
0000
0403
0600
0005
0000
0000
1700
0b00
0000
0005
0e00
0910
0b13
0001
0504
0200
000a
070a
000a
0000
000e
0013
0b02
0000
0b00
0007
0900
0000
0600
0900
0013
020d
0c00
0500
0700
0600
0000
0000
1001
1009
0001
0910
0600
0000
1306
0000
000e
1104
0000
0000
1106
0003
0000
0005
000d
0005
0000
0006
0000
0007
0016
050b
000a
0005
0015
1100
0e00
000e
0010
0700
0004
0001
000e
0012
0904
0306
0001
1900
0000
0407
0013
0714
0000
1700
0003
0000
0b00
0000
0006
0000
050b
0100
000a
0607
0500
0000
0000
0010
0000
000b
0300
0500
050a
0000
0c01
030c
1800
0001
1100
0605
0d00
0300
040c
060c
1200
0000
0001
0000
1104
0b05
0001
1a00
0006
0000
0900
0305
000a
000f
0001
0000
0a00
0002
0000
0000
1d00
0a00
0004
0008
1100
0d15
0c1a
0001
0904
0100
000e
070c
0008
0000
0014
0017
0503
0400
1300
0003
0c00
0000
0100
0703
0011
000f
0800
0803
0600
0000
0000
0000
0d00
0f0a
0000
0c10
0600
0100
0f04
0000
0004
1105
0100
0000
1307
0003
0100
000a
000b
0011
0000
0008
0000
000b
001a
050a
0016
0008
0018
1102
1502
000b
000f
0000
000a
000b
000a
0012
0906
0506
0006
2200
0000
0a07
0016
0411
0000
1500
0004
0101
1000
0307
0005
0000
0406
0200
0004
040b
0300
0000
0000
0008
0000
0005
0502
0500
070d
0000
0c00
0105
1600
0000
0800
060a
0c00
0000
040e
060f
1500
0000
f501
0000
f601
fcfe
fd00
02fe
faff
fbfe
f801
f302
fbfe
0000
fcff
ff00
fb00
f800
ff00
0000
fe02
ff00
fffd
fffc
0000
feff
fd00
ff00
00fe
00fd
fe03
fffe
0005
fe00
0200
0100
ff01
ff00
0302
ffff
05fd
0000
fe02
fe01
07fc
ff00
0bfb
0002
0403
fe00
01fd
ff02
05fb
ffff
0004
0000
0200
fc00
0102
02ff
0001
00fa
00fe
0002
02fd
0200
0500
fefe
0201
0103
feff
01ff
0105
00ff
0200
0006
0500
ffff
0000
0003
00fe
ff01
03fd
fdff
0000
0100
00fe
0201
ff01
0000
0000
ff01
0100
fffc
0001
0501
0000
0001
01fd
0000
0100
fe00
fffe
0001
00ff
fffc
0102
00fa
ff01
02fe
0000
00fd
0109
fcfe
0300
00ff
05fe
0000
0604
fbff
02fe
fd02
0100
ff00
05fd
ff01
00fe
0001
05fe
fdfe
fe00
f800
03fe
fd01
02fe
fd00
0000
fb00
0203
fc00
0301
0000
0001
fc01
0200
fd01
fd01
fffe
0300
0100
ff00
0102
0402
0400
0f00
0802
05ff
0202
00fb
0101
01fe
0302
00fb
0002
fdff
00ff
fbfe
ff00
fe03
03fe
02ff
0002
fdfd
ff00
fe00
0002
0400
0201
00fe
0103
0203
ff03
0000
0700
0201
0a00
0001
0201
0100
03ff
0400
06fd
ff01
01fe
00fe
0400
0000
01fc
fefc
03ff
0100
fefe
0300
fc02
0400
00fe
02fe
0500
02ff
0004
0300
0101
0301
ffff
08fe
fe00
07ff
0300
0500
0107
0600
0007
0200
0102
0201
0004
0506
0003
0000
0103
00fd
ff02
0303
ff00
00fb
00ff
0201
fe00
0500
fdfb
03fe
0100
fd01
02fe
0000
01fb
fffe
0200
ff00
0100
fb05
0100
0001
0001
0000
0003
fd03
0002
ff00
0001
fffe
feff
fdfe
0000
fd00
ff00
00ff
0003
fe00
0102
0000
0206
fe00
04fd
0100
0300
0000
fe00
01fe
06ff
00ff
02fe
01ff
00ff
fb02
02ff
fefd
ffff
fffe
00ff
07ff
ffff
0000
ffff
0102
fe00
0001
0100
fffe
04fe
fefe
0000
0001
fe00
fffe
02fd
feff
0002
01fe
0001
0000
fffd
fe00
fd01
00fb
fefe
00fd
0000
0000
02fe
ffff
0003
0403
0100
0302
ffff
00ff
0100
ffff
fd01
00ff
0001
00fd
00ff
0101
0000
ff01
ff02
ffff
ffff
00ff
0002
0002
0300
0200
0002
00ff
00ff
0201
0300
0200
feff
0002
feff
0202
fe00
0202
0000
ff02
0200
0003
02fc
ffff
00ff
ff02
02fd
ff01
feff
fffd
00ff
ff04
02fd
fffe
01ff
00fb
00fe
02fd
fffd
00fe
feff
0000
ffff
0000
fe02
0000
0102
fe02
0000
ff02
ff04
0002
0002
00fe
0000
01fe
feff
ff02
0103
0407
0200
0002
0401
0201
ffff
01fc
0300
00fd
0300
00fc
fe00
ffff
0001
00fe
fcff
02fe
fd01
03fe
0004
00fe
0003
0000
fd02
0002
ff04
f904
0204
fb02
fe03
0200
00fe
fefb
feff
02ff
0001
0400
0007
0000
0006
0100
0005
ff00
0102
fcff
0504
ff00
0200
0301
0300
01fe
05ff
0301
0601
00ff
fefb
0100
fdfd
0002
fefe
0202
00fc
0300
00fe
0000
fefe
00ff
01fd
00fe
00fe
0000
feff
0400
fbff
0401
0601
0101
fffd
0001
0401
0200
0800
0001
fffd
0001
0201
fe00
0001
0000
0200
0000
0201
04ff
0102
0200
00ff
03ff
0002
04fe
0107
0100
0000
0001
0000
fd00
feff
0101
fefd
0600
00ff
07fe
fb01
0005
0000
0204
0104
0204
feff
fd05
0000
0001
0003
fd04
fe00
0001
03ff
fd03
feff
fc00
fe00
fe01
0000
0002
01fd
f800
fefe
fb03
00ff
0000
01ff
fc01
fefd
fe00
0100
fffd
0208
0003
00ff
ff02
0103
0002
0002
ff03
00f8
0100
0000
00fd
0002
0200
00fd
ff00
ff02
00fc
fe00
00fc
fcfe
fe00
ff00
fc00
ff01
fffc
fd01
fc00
0101
ff02
02fe
01fb
0100
0100
0000
0400
ffff
0100
0000
03fe
0300
fe01
0002
fc03
0000
0004
0302
0502
fe02
0002
fe00
0103
fe02
ff03
0002
fe08
02ff
0307
0200
0105
00ff
0006
02ff
0102
feff
0002
00ff
0005
02ff
0100
01ff
ff00
0000
ff03
ff02
0000
fe00
fe02
ff00
fd05
fe00
0103
0100
02fd
00fe
0100
ffff
02ff
0000
01ff
0000
01fb
fe01
0000
01ff
0000
0204
00fd
0400
00ff
ff02
feff
0301
00fd
0300
fffd
fe00
0000
00ff
01fe
fc00
0200
fd02
04fe
0003
0301
0000
fe00
fd00
0601
ff00
0200
02f9
0001
fefb
02fb
0002
fffe
fefe
00ff
0002
fffe
00ff
0000
00ff
0202
0000
0100
0000
fe02
fffe
fe02
0000
0101
0100
fe02
fefd
ff02
0102
feff
ff01
0000
00fd
00fe
0201
fb02
02fe
fd00
0000
0002
00fe
ff01
ff03
0303
fe00
0203
00ff
ff00
0000
ff00
0101
ff01
0101
fdff
01ff
01fd
0000
01fe
0102
ff00
01ff
fffc
0002
02ff
0000
00fe
0002
ff02
ffff
01fe
0000
0000
ffff
0204
feff
0201
0000
02ff
0100
0200
0000
0300
01fc
ff07
00ff
0207
fefd
0102
05ff
fd04
04ff
0403
04fd
fe03
05ff
fb02
01fe
fd00
04fd
feff
01ff
0000
03ff
00fb
0002
0000
0102
02fe
0200
02fb
0004
0200
0302
fe00
0000
fe00
01ff
0201
0003
0703
fd00
0202
0301
0101
02ff
fcff
0200
fd00
0300
fc00
0000
ff03
fd01
fe02
00ff
fe06
0001
fefd
fc04
fe00
fc03
0000
0002
02ff
0004
04fe
fc04
02ff
0003
00ff
02fe
fbff
fbff
ffff
0001
07ff
04ff
0001
00ff
0101
01fe
0004
ff01
ff08
fc04
fe02
ff00
0001
03fe
ff03
0102
fe00
0300
0100
0000
00ff
01ff
fe03
00fd
0000
02fe
00ff
0300
0000
0002
ff02
0000
0401
0001
03ff
00ff
0007
0401
ff0a
04fd
0002
0100
0003
0000
0106
0200
ff01
00ff
0200
feff
00fe
fd00
0200
fffd
0200
00fd
0104
fd01
0002
0002
0003
00ff
0104
0000
0001
00ff
0000
0100
fefd
0002
fe01
0201
0006
0202
fb07
0004
0000
0100
0102
00ff
fe02
fc05
00fd
fd00
0000
0002
fefd
fd01
0300
ff00
fefd
0000
fefc
ff0a
00fe
0400
0100
fb02
fef8
fc0c
00fb
fd03
0100
fe01
fefc
0003
01fe
0000
02ff
0000
0000
0205
01ff
0102
0000
0002
00ff
0205
0001
fe03
0000
fe00
0002
00ff
ffff
0000
fe00
00ff
fc00
0001
fffe
01ff
fffc
0001
fdff
0200
01fc
0301
02ff
0201
0101
fefd
0001
ff02
0007
fd00
0206
ff00
0005
fe01
0002
0400
0104
0402
0100
ff02
fe00
0001
ffff
fe00
fe01
0003
00fb
0302
02fd
ff00
00fe
0000
fdfc
0001
fefe
fffd
fdfe
fd01
fefd
0000
fffe
0102
feff
fd03
fbff
0001
fb01
0000
fdfd
01fe
fa01
fe00
f900
01ff
fdfd
feff
fd01
0000
f901
fdff
fc00
fc02
0101
04fe
fe02
fffd
05ff
0001
fc02
00ff
fc07
00ff
0300
ff01
0000
0301
feff
fffe
02fd
0300
00ff
0003
0001
0100
0000
0302
0104
02fe
00ff
02fb
0000
fefd
fd03
fd00
0000
00fd
feff
03fe
02ff
fff8
0100
fdf8
0000
02fd
fffd
fffd
00fe
fcfd
fcff
00fd
00ff
ff00
00fd
0101
ff00
0101
fe08
0000
01ff
fb00
0003
0102
0102
fd00
09f8
fe02
0300
fc03
fe02
ff01
00fd
fefe
ff02
fe00
0000
0003
fefe
0401
0100
0002
0001
fe00
0201
0500
0001
0001
00fe
ffff
fb00
0100
ff00
0002
fc00
01fe
fe00
0000
0000
01ff
fe01
ff04
fe05
0301
0002
00fe
0003
03fd
0005
0000
ff06
0202
02fe
04fc
00fd
01ff
fcfe
0000
fe00
0000
0200
0000
fefe
01ff
0001
0000
fd00
ffff
fdfe
01fe
00fb
ff01
0006
fdfe
feff
01ff
0004
02ff
0008
01ff
ffff
01ff
0003
0201
0001
fd02
0002
0000
00ff
0600
fffb
0002
00fc
0000
0003
04ff
0002
05fd
0000
05fc
ff00
0400
fefe
0500
0001
0300
ffff
fb00
fe01
0000
0100
02fe
0002
0000
ff00
00fd
fc00
0300
0002
fe02
fe01
ff00
ff01
fe00
fe01
05fe
fcfe
01fd
0003
ff00
f901
0001
f801
00fd
fdfd
fb03
fe00
0000
0301
fcff
0003
0100
ffff
0200
fa05
02fe
0600
0104
fc00
02fe
fc00
0000
01ff
0001
0301
03ff
0000
03fe
0102
0203
fe01
03ff
fb00
0000
0000
0000
fe03
00fe
00ff
0000
0100
03ff
fc00
0000
0000
0101
0000
00ff
feff
fe04
fefe
0203
fffb
0002
0000
0003
0004
0007
0000
ff05
00fc
ff02
02fe
0204
00fa
0001
0300
0402
fd00
0005
0000
05ff
01fe
0103
fe00
ff09
0100
0102
00fd
0301
02ff
0204
0102
0001
0200
0101
0000
0004
00ff
fd03
ff00
0003
0203
ff01
00fd
fe01
00fb
00ff
fefe
0000
00fc
ffff
0003
0201
fe02
feff
0100
fe00
0002
0201
fe02
ff05
0100
fffd
0102
fcfe
0104
fc02
00ff
00fd
0301
00fb
ffff
fff6
fe00
0002
00fe
fffd
0000
02f5
0001
fffe
0000
0000
0200
02fc
00ff
ff00
02fe
02fe
0301
0400
02ff
0104
02fe
0400
0200
0400
0000
0101
01ff
0302
0302
0300
ff01
00ff
03fe
0304
f9ff
0602
00ff
0402
fffe
0402
00fd
0000
fdfe
0401
04ff
fe05
04fd
fd00
00fe
ff02
00fe
06ff
fefe
ff00
0000
0401
0000
0000
0001
fc01
0401
0200
0301
0300
00ff
03fd
00ff
0504
fffe
fe01
0000
0000
0100
ff04
0000
0000
fefe
fdfe
00fe
ff03
ff00
0000
0100
01ff
01ff
0201
0106
0203
fafc
fffc
0102
fffa
0000
fefe
fffb
0100
0002
02ff
0103
0001
01ff
00ff
0300
fe00
0003
0000
0300
0000
0002
fffe
0000
01fe
0700
fefe
ffff
00ff
01ff
01ff
0303
0001
0100
ffff
00fe
01ff
0400
fe01
0402
fe00
fe00
00fc
fe01
0001
0000
feff
0404
0000
0101
ff00
0003
00ff
00f9
01ff
00ff
0001
fffd
ff00
00fd
00fe
0103
ff00
ff00
0001
fffe
0000
0100
ff02
00fc
ff00
00fd
fd00
feff
0002
0000
0100
fefe
00fe
0302
0202
01fe
0000
fcff
02ff
0100
0000
ff00
0200
fe04
ff00
fd01
0000
ff02
0000
fe01
03ff
ff02
0000
ff02
ff00
fd00
03fe
0100
0100
01fe
00ff
0004
0101
0204
00ff
ff04
01ff
00ff
0100
0800
ff00
0000
fffe
0001
0000
0202
0101
0000
0000
0201
0000
01fd
fe00
01ff
0000
00ff
0000
00f8
00ff
fffd
0100
0100
0301
fffd
0000
ffff
0100
01fe
0300
01fe
0000
0100
0000
0201
0001
fffe
0001
00fe
0001
02fd
ffff
00ff
ff00
0000
00ff
0201
00fb
ffff
0000
ff00
0003
00ff
02ff
fe00
0200
0003
01fe
0002
0401
ff01
0300
0001
0400
0102
0005
0205
0003
0001
0000
0003
0100
0102
0001
fe00
0000
ff03
00ff
ff02
0001
ff02
0001
0200
fe0d
0000
00f1
0000
00f7
01fd
0105
fe02
fdf7
00ff
00fc
0001
0004
0000
00f7
0000
fffb
00fd
0001
0000
0100
00fe
0001
0100
00ff
0000
ffff
0100
0000
01ff
00ff
ff00
00fe
0100
0100
fe00
fc00
0006
0002
ff04
ff01
fe02
0101
0000
ffff
ff03
ff00
ffff
00ff
0101
fe01
ff00
0100
00fe
0000
00fd
0002
00ff
0000
ff00
0200
0000
0100
00fe
0001
0200
ff00
ff01
00ff
0001
0201
0101
0800
0100
0000
0000
ffff
ffff
0201
0001
fe01
0000
0000
0000
00ff
0000
00fd
fffe
0002
02fd
0101
0101
00fe
0100
0200
fffc
00ff
fffc
0000
02ff
ff01
01ff
0200
0001
0100
00ff
0002
0003
0601
ff03
fd00
ff04
0000
fe02
ff01
0101
ff00
01fb
0101
0000
fffd
0002
feff
0100
fbfe
0000
0004
0201
0404
0201
00ff
01fe
fc00
00ff
fefe
03fe
fa00
0200
0003
0002
00ff
0000
0000
01fd
fe00
fdfe
00ff
01fd
00fd
00fe
fd00
02ff
ff01
03fe
02fd
01fb
0000
00fb
0000
fefd
ff01
00fa
00fe
fff9
0301
fffd
fdfe
00fd
fb00
fff9
fefd
02fc
fcfc
fe01
0304
fdfe
02ff
0105
0000
fffc
0200
fffc
0200
0103
00ff
0100
0203
fefe
04ff
0002
ff03
0300
0100
0000
ff01
0200
0003
fe01
fe02
fb00
0002
fd00
01fe
00fd
00fd
fd00
0000
fefe
ff03
f802
feff
f801
01fd
fd00
ff02
fdff
feff
fd00
00fc
fdfc
0000
0000
ffff
0100
0201
01ff
0101
00fe
fe00
0001
fffb
0200
ff01
0001
fefd
0209
fdfe
0303
fefc
01fe
ffff
fe00
fdfe
00ff
fefe
0300
fe00
01fe
fe04
0201
0000
0000
00fe
0002
0105
0100
0100
ff00
01ff
00fb
ff01
02ff
ff00
fefc
fe01
00fe
0000
ff00
0001
04fe
00ff
01fe
fe03
fe00
fe00
fd00
0003
0000
0000
02ff
ff02
fc02
0604
ff00
fc01
00fc
0200
00fe
0000
0002
fb00
fffe
0201
0000
0300
fffd
ffff
fefd
0001
0100
03ff
fe00
00fd
fffe
0201
ff00
0002
ff00
0001
ffff
ff01
feff
0003
fd00
0001
fffd
0002
00fd
00ff
fd01
fffb
0002
00fc
00ff
0003
0000
0002
00ff
0000
0100
ff00
0002
fefe
0201
0001
0202
ffff
0004
fe01
0100
0100
00ff
0002
fc05
ff00
fd00
fc00
0002
0002
fd01
fe01
ff00
ff01
0000
fe01
ff0a
fcfe
0400
0003
fb02
f901
fc0c
f801
fd03
fdfd
fe01
fe00
0003
0301
0000
0003
0000
ffff
0205
fa05
0102
0600
0002
fc00
0205
fc00
fe03
01ff
fe00
0301
00ff
0000
0000
0102
00ff
fe01
0001
fb00
01ff
0000
0001
fe03
0200
00ff
0301
0100
0201
fc00
fefd
0000
ff02
0000
04fe
01fe
03fe
fd02
02ff
ff00
0300
ff00
0700
f800
0500
fdff
0200
00ff
0402
fd02
0100
ff00
0203
fe04
05fd
fe00
ff00
0005
0301
0101
09fe
feff
0201
fe01
0100
fd03
0402
ff02
0101
0000
0102
0101
0400
ff00
0300
00fd
03ff
ff00
0102
00ff
0100
03fe
ff00
0200
00fe
0100
ff00
01ff
0100
0202
fffe
05fe
0001
01fe
0100
0302
05fe
02ff
fd01
00ff
fe01
03fc
0201
02fc
fd00
0200
fb03
0000
f6ff
00ff
02fe
0000
fd00
fdff
f500
0202
fe00
ffff
0000
0100
fc02
0002
0000
00ff
fe02
fd02
0003
0004
0402
fe01
0002
0004
0002
0004
0100
0001
0201
ff03
0003
0003
ffff
0000
0403
0003
02f9
0606
0200
0404
02ff
0204
0000
0000
01fd
0304
0504
fffe
0004
01fd
0200
00ff
ff00
fe06
00fe
fdff
0100
ff04
0000
0000
0100
00fc
0004
fe02
0003
0003
fd00
0103
0400
0105
01ff
01fe
0000
0000
0401
00ff
0000
ff00
fefe
01fd
0300
00ff
00ff
0000
ff01
0001
0101
fe02
0301
fd02
fcfa
01ff
fa01
00ff
fe00
fcfe
00ff
fc01
ff00
ff02
0101
ff00
ff01
0100
0003
fffe
0000
0300
0003
0300
fe00
04ff
fe00
0201
fe07
01fe
ffff
fb00
0201
01ff
fd02
0303
0000
0100
0600
00fe
0002
0400
0000
0402
04ff
fe00
05fd
fe01
05fc
0000
0400
0404
0500
0101
0300
0003
fb00
00f9
0000
00ff
02fe
fffd
0000
00fd
00fd
0103
0300
ff00
fe02
fffe
ff00
0100
fe00
00fc
05fe
00fd
01fd
feff
ff00
0000
0001
fefe
00fd
0302
fb03
01fe
0000
fcff
fcff
0100
0100
ff00
0200
fe04
02fe
fd01
0104
ff02
02fe
fe01
0000
ff02
0001
ff02
03ff
fd00
03fe
0100
0203
01fe
03ff
0004
0000
0204
0000
ff04
00fe
00ff
0000
0800
03ff
0000
0000
0001
0101
0202
00ff
0000
fff5
ffff
01c4
0000
00ff
0000
01e7
0000
fdd8
ffff
0111
0000
05fd
0000
0436
0000
03bc
0000
0078
0000
002a
0000
01c0
0000
02cf
0000
02bb
0000
0717
0000
fddc
ffff
02f6
0000
feeb
ffff
04b4
0000
0331
0000
ff4a
ffff
0400
0000
0457
0000
02c6
0000
0380
0000
0343
0000
00f0
0000
021b
0000
0221
0000
02e9
0000
009c
0000
fc55
ffff
063a
0000
01c0
0000
0012
0000
ff39
ffff
002e
0000
ff61
ffff
0257
0000
ff05
ffff
0000
0000
0000
0000
0000
0000
0000
0000
0000
0000
0000
0000
0000
0000
0000
0000
0040
0000
0040
0000
0040
0000
0040
0000
0040
0000
0040
0000
0040
0000
0040
0000
0040
0000
0040
0000
0040
0000
0040
0000
0040
0000
0040
0000
0040
0000
0040
0000
0040
0000
0040
0000
0040
0000
0040
0000
0040
0000
0040
0000
0040
0000
0040
0000
0040
0000
0040
0000
0040
0000
0040
0000
0040
0000
0040
0000
0040
0000
0040
0000
0040
0000
0040
0000
0040
0000
0040
0000
0040
0000
0040
0000
0040
0000
0040
0000
0000
0000
0000
0000
0000
0000
0000
0000
0000
0000
0000
0000
0000
0000
0000
0000
