00fe03f7f300f7f1fb
00f5fefefbfafcfcfc
fb000000ff03060200
fe0300fc00fb0001fa
fffd01fcf7fd00f8fc
fdfbfefef6fb00f9fd
0200fa0805ff0c02fd
fefe04fdfcf60200f7
00fffe05fd00fffc03
020000fcfd00fbfbfb
01fbff03fd0002fdfd
010406fcfc0401fa00
fefd0300f800060200
f6fc07f8fa05f8f906
010203fffeff0201ff
0702fa0306fd0207fb
04030600fa0500fe00
02060000010201fffe
020301000007030301
fff50100fc00020504
fefc05010002010002
03030200fefe0000fb
0606fb040aff0000fc
fe0001f9ff04fbfe03
03fefc01fd00ff0003
f6f9fff7f4fdf7f800
04040300040301fc04
fdf800fffaf900f8f9
fefd03f5f100f4f3f9
00fd04faf2faf9f4fb
0000fcfffdfafd01fd
ff00fefffd0201fc02
01f5fb020708ff0705
f9f9fefe0202000a04
faf70101feff010afd
fcfe00010606fe0704
fffc00020300fcfcfc
030ffffefafe00fe03
00fe000002000102ff
fdfd00fdfd00ff0000
0400fd020007ff0808
fe0d090403fe00f3f3
01fe0405fc0006fdfd
02000300ff01fef9fb
fe060a02000000f6f9
040700fcf4f5f8f303
00fefe03fd010002ff
fc0702010403fefafc
01faf606fdfe03fcfd
fef9fe00fdfcfd03ff
fdfe000402000303fc
00fe0001000000fd00
fdfd00fbfafcfcf8fb
fe00020400000000fc
fc04000000fcfffcfc
f8f1f6fc020a030806
fefd0001ff06fffb00
000000fffffffdfdfc
fff3f8fefc00000300
ff00000200fafe03ff
01010204fd00fffeff
01fffefdff01ff0003
01fdfdfff800000000
0100ff000000fffff9
00040400f9fffd0001
0000f800fefcff0000
00fe0000fcfefefefa
fdfffffc00fefefd00
0001fe00fcf9030501
fe0200ff060002ff01
000d03ff02ff020301
fbfefafafdf7fefd00
0303fc010405000601
000001fd0302fdfc00
040804090a03070600
ff000002fc00050300
00fffd0100fe0004fe
0203030503060000fc
fafc00fefc00fefaf9
fe0afdfb08fffb01fd
ff02010001fffe00fe
faf9fbfcf3f7fefefe
ffff02fe00000103fd
00fdf9ff0100fefcf8
fdfbf801fcfd01f4f5
ff0001000201fdfffb
fb0603fefd030001fb
04020200fe00000001
0301fbfffffbfff900
f8f3edf7f1ecf8f5f9
fcfcfbfefefbfefa00
fffbf400fafa00f9f4
02fdf9fbf5f6fef9fe
01fcf8fdf7f4000402
000300000200020609
02fe000400020305fb
0701fd03fdf800fefa
000000f9fdfefcfe01
fefffe030201020402
04ff01f7f8fafd0003
010000000204010005
fd01f9fe00fbfd00f7
0400000603010a0402
02fd01fffdfd03fefc
0500ffffff0100ff03
00ff0200000301fe01
02fdff0000000200ff
03ff03fbfafc00fb01
02ff0103010101ff00
02040300000100fd00
0100000802ff0703fd
fdf503f2ebf2f4eff6
0805030101fafef7f9
f9f5faf8f8f9f9f9f8
fafb02fbf8f500f8f6
00fdff000002fe0303
fbfdfeff00fe0300fa
030509fb0002faf7fe
02fcf9fffbfb02fdfd
0402020100ff05ff00
fdfef8fafef9fdfcf9
04f5fe03fbfe04fcff
fe0100020002fefbfb
02fcff020302010202
faf9fcfdfdfffff900
fffc01faf9fdfff801
f9f8f8000205fd0305
fff3f8fdf1f7fdf3fa
00fdf9ff00fafb0000
ff00fe080304fefc05
fd0000f7fdf900f4fc
00fefc030303060104
fef9fa0506ff010405
fb0607fdfdfc0a0101
0701fd050400ff0005
fd00fe01ff00050004
ff01fcf4f8f5f2f7f2
0000fd04fe01020100
050402ff00f9fbfaf7
03030502fe020303ff
030003080201020000
fb01fe0200ff000001
00ff0101000206ff05
0102fe030300fefefd
fffef9fffbf70003fb
fd0301060205040303
fffc05ff0200020103
000902f1f1f3eeecea
000000faf9f5f6f5ed
0104fefe03fb0002ff
06fffa0a0600fc0206
02000003fd02020001
0102fb00fbf404fcfb
fafbf7f3f9f5f4f4f8
fefd0100fe00000000
faf901f7f1f5f1f3f0
fcfafb01ff01010201
fd00f7020002fcfd04
fcfcfdfefffe00fe03
000400f4fdfbf7f6f4
fd01fc0004fffd0000
f8f5fffa0400050bfe
fa00f903fc0405020a
f80104fc01fd0702fb
0b0e0005f9f9fbf2fa
0000010000ff0402ff
13130c04fd00f7eff4
fb060201050105f7f6
fdfb0003000206ff00
030601ff0001010000
fdfafe000103ff0a06
07040103fe00fbfc02
0601fdfcf8fbffff09
03fafbf9fafdf90206
fc0000fe03030001ff
08030001fb00f3f8fd
ff0100020200010202
ff0001000003fffcfd
f8fdfef7fdfefd0101
f8f9f4000103ff0001
04fcfc00fbfffc0202
0100fdfefdfd000104
0d0101faf1f9f1f800
fd02fe0401fe0300fe
030003fff800fe0000
020afb00000304fa04
f9ff04020005020301
01f5fafffa02000603
00fbfffbfbfcf5fdff
00e8faf40000fd1107
f9fd04ff050000fffd
0005000001fefef5fd
fe0002ff0301fe00fb
ff0505f60006f90006
010303000002000000
03000500fd0300fd01
fefdff0000fe0303fc
fe00f90812f1fd06f5
fb00fdfa02fb0006f8
02fffffe02fe0003ff
010000fdfffffe0000
f3f700050df8fe0efa
010004fbf605fffb08
fbff00fc0101fd0000
fcf7f7070dfb020bfb
fcfbf31206ee0603f1
00fd00fdfaff00fe00
0000fffd0002fbff03
fefe01faf8fff9fb02
01000001ff03030300
03000100fd0200fe00
000102fffe00000102
0200ff00ff00fefd02
fe0000ff0103fa0000
fefdff0000000802fd
000009f8fb06fafe09
ffff00fefe03000002
02ffffff0000fffe01
fdff03f8fd03f6fb04
000505fe00fefbfdfe
00fffe03fffd02fffd
fffbfb0400fe0303fd
0200020400fe00fc02
fefd00fb0001ffff04
fc03feff1003fffff8
fefefb000c02050b04
000001000000010302
fd04fe000705fefe00
feff01020005020005
010001fef2f801f9fd
fb00ff0500fe00fcfe
fcfe0102040bfef3fa
01fafd01f5fa02fc00
00fffc05ffff00fffd
ff0402010000fe00fe
f902fe000203fb02fe
01fd00fff2f702f5fe
fdff01fdfd01fbfd00
fefcfb050902080803
f500fafc0202fc05fe
0301000401fe03ff00
fe02fe0201030001ff
fcf800fef2fc00f6fa
05fffd01fff8fd01fe
04ff02030003000300
000401000000fc0000
0004000000fefcfdfb
0000fdff01fcfe00ff
fd0000fdfaff00fdfd
000502080501030904
fbfefdfdfbf9fcfbff
00fefffefa03000005
000004020503fc0002
fcfbfafa08040005ff
030600ff0400fb0000
fcfcfe01fafe03fcfc
ff0600f7f6fffaedfa
00fefefefcff020501
fafbfd0303fefe0201
feff00fb0000fdfc02
040a0003ff0303f5ff
01fd05010ffd000002
000b01fefbfe00fdfb
fd04000604fd0401fe
fe00fffdfcfcfcf3fc
fcff000002000000ff
faff0000ff00000200
fb03fcfb0c01f8fb05
070404fff9fafdfbfd
01ff00faf700040400
fcfffffe0502020003
f5fb00fe0000f601fe
01ff00fffdfe00fd00
01010002fe00010903
fefbfefcf5fcfff9fd
03fe00fe00fffaf8f9
010003000000fdfdff
fcfefb00fffffcfdff
ff030304f704070100
02ff00fdfd00fcfd00
01fe00fefe02fffdfe
00fffd0304000303ff
00fd00fffd01fefa00
ff0afa000e01f9fb05
fcfa00030204000202
f9fafb00fbfd000700
01fe0001fe01fef901
fffd030506ff000100
fd00ff03040201fefc
090b060b040102f9fe
010404feff00f900ff
f8fc00fd0107050800
0504fb0703fd0600f7
080305fdfe040001ff
040601030300fcf6f3
0005000206020200fb
fefefdfdfd00000003
0007010a07fcfdf9f4
fcfe01fbfd02fe0004
0100fefc0001000101
0807000400f7fbfdfb
080800fffcfcfbfbfd
fdfdfe010603030300
f9fc00f5fb00f90104
fd0000f90001fe0003
00fdfefdf3f9f7f5fb
fff5fafaf7fef9fa00
090503fefefd080002
06fffc00f8fcfcf8fe
fffe0000fd02000000
0405000901fdfdfaf9
fefeffff0400070b04
0000010202ff0203fe
030504feffff00fcfd
030507040505000307
000200fdfbfff5f800
02000201fbfe010102
0004ff0505ff0503fd
00ff0202060201fcfc
000303ff0404010400
0603ff0a16fe0800fe
0f150709120bfd0202
05000f01fc02f9fc02
0806fb03feff090703
ede5f6fe0907ff140d
f1e8fdf8f9fff5fafc
00f5fdfff1f9f3f6fd
030a03f80809f80200
07fffcfc0100020501
fefaf90004030204fe
02ee01fbf6f9000302
020302f2ed00f3f4fb
ffecfd05f8f70a0602
fcfb0000fd04000408
faf3effdfaf2fe0001
fafafaf0e9fbf4f303
faf600fef3fa0df3fb
020c0b00fb03fffffe
00fd080708020e0706
04fc0501f90300f100
fcfb00f6f90300f405
fcff00f7fa00fcff00
02eff701fafdff0303
f4edf8f3edfeff020c
fef100f8fb03020104
090d00031100030b00
040702f9fa00fdec02
040d06090cf9010cf9
00f104f8f1fbfefefd
0b110900100705ffff
050302fef900030700
02ff01fcf500fb0402
000202060000f8faff
0402fe00fc00fafa00
fdfc0203f9fb000402
0200000006fb0302ff
0305060103fc00f9f6
010106010303fefdfb
0204ff0200fafdfbf9
fe00fd060600070100
f9fe05fe0608fd0303
07070004fefafdfdfe
fdfd02020000050102
fbfe00000503030100
0000fdfefef9fffeff
040000fafe01fafe00
00fefb03fefe040101
fefcfefdfffefafdfe
00fd0100ff02fbf800
04fffc060000050201
01fbfa07faf404f9fb
fcfb0700ff08fe0101
fbfafaf7f4fdf5f6fb
00fc0002ff0400fc00
040701fdfafffefeff
080701090d000203ff
fe050afc0b07ff0004
fcfd01fc01fb0002f9
01fd000804fd0a05ff
fc00f600fefb0404fe
fdfffbfefcfdf7fbfa
000200fdfefcfdfefd
ff02ff090903090702
fdfb04fe01ff02fffa
f9f2f3f9f3f4fffbfc
0402fa0500fc010201
fdfc0000ffff030100
ffff01000002000207
02fafffff8fd020003
0002030208070001ff
f900fafd0200faf7fb
0300fdff00fd0001fe
0200fe01fc00ff0000
ff0400ff0905fefffd
ff0000010100010000
00fe00000000fdff00
01f2f801f5f6030700
faf7fffefd00040100
fcfeff0101fe0003fe
fe0100000403fc0000
0401000104fe0006ff
00020101ff04030404
00fe000200ff040400
00fffffffcff01fe00
00fd000200ff01ff00
fefdfdfffbfefffffe
001002fe0d06f7f8fc
01fd0200fb00040007
0301ff01ff02ff0307
0100fffffefe000000
02fffe00fdfc01ff00
0100ff03fffd03fcff
0200ff01fdfffe0001
01fcfbfff9f702ff01
fefbfefaf9fefcfe02
0000ff01ff0001fd00
fe0006fdfd02fcfd03
00fd04fcfe01fffb06
0202000508020c0cff
020100000c06020403
030001040301fffc00
01feff010f03040afe
fbf8fffbfffffdff00
fffafbff0002020702
fefcfdfcff00f8ff04
00fcfeff0300040d03
07000700fb00faf0f8
fffefefefe00010505
fbfe00ff0000fb0704
fbf6fd0306000509fa
0003000100ff00fbff
03ff01fdfafd00f9fe
06000106000401fd00
faf9f800fef9060c02
fefefd0205fe0402fe
04040102010000fbff
ff0304000101fef9fc
fe0202000200fdff01
f8fa01f7fd09000d0c
0b0901060703000001
fefffefe0104fa0001
08fffffef8fef6edfc
0108020506fefd00fd
f8fc03f7f7f8f9f4f4
ff01fe0200fe03fefc
00ff00050001030000
ff0103faf8f8ff01ff
07fcfefef900fbfbfe
fdfeff000201020000
010000040200030101
0300ff0103ff010300
ff0103ff0100000200
03040200010000fefe
000101010500feff04
fefe0000fe01030101
fffc01fe0002fc0302
040200040502040800
020102000000000100
0106000307ffff0300
0100fd020300010101
010000fd0000fe0000
ff00fffdfefefbfcfe
ff0000010301ff0000
000000fffff9ff00f8
0002ff000401ff0000
0000020000fefe0201
020205030303060703
0200fd0100ff02fc00
0000fe0000fe00fe00
00fefd0100000000fc
fe00fefbfb00fefcfd
fe0000fe0200fbfc00
0100000101000001ff
0103ff0101fffdfefe
0000fe030600010300
020700020705040304
0206000606ff030402
01ff040000ff0102fd
030200030302020301
010401050201040300
00f7fffaf802fcff06
fe06fb0002fc0002f9
0002fefffefa0000fc
fd000800030700fc02
06ff0101f6fdfff705
fefbfefdfefe0403fe
04ffff020002050107
0ff4fb0beff70bf0f9
0107000001f703fffa
05fe0101fe0100ff02
ff01ff0502ff06fefe
fd0001ffff00000000
04f10300f30904fa0d
fdfb08f9fb08fdff09
0304ff0302fbfcfefe
fafbff00fbfd00fafc
0103fcfbfffffe02fd
0501fe01fffcfbffff
0200fefffffefd00ff
000bfcfc01f90000f5
0105feff00fdfd02fb
02fffe00fcfbfffafc
00fa00fefb01010107
ffff00ff0101ffff05
000402fffbfc01fd00
0508fe0103fa0401fa
0103000301fa0000f9
000600fd0600fb0604
0000010000fefffdff
0000fffefc00000101
fb010800fc05f5fc09
0100fe01fffc04fdfc
fdfd00fe0100fdff02
02f9fb04fcf9040302
02000001fafd030100
00fdfd02fffd0000fe
000003ff0200020101
fb0b07fa0019faedee
fffbf301fffa0002fe
00fcfb00fefc0000ff
00fffe00fefd000001
f3080af51027f2eff1
ffff00fffefdffffff
02fd0301fd01000000
ff00f5fefc010300ff
f813faf60808f8f0f6
0301ff000002ff0000
0001fc0201ff0201ff
000000000304fffe03
00020101ff0002fcfc
0100fd0100ff000000
ff0203000003000000
01ff000100fa020503
00000000fd01000100
fdf704fe0006fa00fe
05fcf804fcf9050301
01fe000100fe020100
02fd0000fdff000002
020200000000fd0201
fffcff00fcfffe0101
0001ff0100f7010200
0301ff0000fd040002
000101fe00010100fd
00fe05ffff02000102
0000010101000000ff
02ff02fffbff00fd00
fbf8f9fdf9fbfdf8fa
0001fefefefdfdfdfe
01fd00020301020500
0008ff01f901fefd01
0300000000ff00fe00
ff0001fd0000feff00
fcfbfbfbfafff9fafd
0202000001fefdff00
0002feff00fffcfffc
000001fffd000100fb
fffefe020001000402
010501020000030000
01020400000100ff00
070502030302010302
fffeff01fdfd01ffff
ff0101000002020000
fbfe00fcfb00fffcfd
fffcfefefefefdfbfa
000000010002000300
00fdfdfefbfafffcfc
04ff02fc0100fefeff
000000000000000301
0100ff0100ff000100
010002020101feff01
fe0000fefcfefefefe
00fd0100feff00fffa
01ff00000001010203
00ff00fdfffffdffff
fdfe00fdfdfffd0000
030200020501010104
ffff020302fc0400fc
fbf9fb07060301ff01
fcf8ff01fbfb060402
000400fe0200ff0402
000409f9fb05fafaff
000002fdfa0102fb00
020509fdf701fcf8f9
0601ff050e05fbfaf7
00fdfafefffe020305
fefe02fdff0001fefe
0101fe00020301fcff
fd0101feff02faf6fe
010605f9fc0000fffc
020807f9fb01fcf9fd
fdf9fd0000fafc0000
fffdfe020301f9f8f6
f9fefd030302040104
070500030402f6f700
00fe01fe00fc02fe00
fefdfe05030600fd02
070604020402faff01
fffeff0402ff040601
fa0008faf802fefb00
01fd00040302000103
010206fdfdfa0202ff
0504000402fffb00ff
00f9fc03fefe080704
030801010308020004
fd00fdf9fbf8fbfbfa
01f9fc0102ff03ff00
030000fdf8fe0300fb
0100fffcfafefdf5f8
fff5fd00fa0002fafe
ff0505fd0005000000
000202fe04fffd0705
00fc00fef8fe04f9f8
01fd0000fbfc0702fd
0001ff000401ff0301
02000800fb0004fffa
020406ff0103000100
00fffb0001fcffff01
00fdfe0302fd0200fd
fafd0100fdfe0700fd
ff020afafd0bfdf800
ff00fd0200fc0004ff
fef8ff05fefd0603fe
fcfc00fafcfdfc00ff
fdfd0800f60007f8fc
0200ff0600000606fe
f3fafefdf3fb05fbf7
000501020303050404
02fd0000fcfdfff900
030800000200fffd02
03feff01fffb060100
fcfb0104fafe09fe00
fe00f900fefa0202f7
fefd00fefcf90300fc
04ff000401fefefd02
fcfffd00fffe030001
fe0604f9fdfdfcfefd
fcff03fffc0300f900
fe0705fb0004f90002
fcf90000f6f804fbfd
0201fcfffefd0100fc
0200fc01f8f9fefdfe
fb00fcfdfe00fd0403
00fcfafefefdfeffff
fefbfefdfdfcfcfd01
0a05fb0afef203f9f2
ff020401000000fd02
0303fd0500fd020001
0103fe0000fe01ff02
ff00fffe000101fe00
fcfc01fbfd01fc0008
ff0304000004010306
02040102fef800f7f7
0900f806fcf903fdf6
fcf9fafaf8fafbf9ff
fe0000fffefdff00ff
f90104fb0605fd0502
fe000100ff02010200
05fffefe0003fe0201
fe000202010102fffc
0100010003000000ff
00000100ff0201ff00
fdfefffefcfdfefefd
fef3fdf9f906f7feff
fdfcfbfffb00000000
060303040100040000
00fefd0100fefe0100
000103fffe02000200
fcfffefdfdfdfcfffd
0001fc00faf8fbfd00
0502f902fcf700fdfa
010402ff0102fd0001
ff0400fffffdfcfa00
fd0204f8f7fdf6f0f3
00060600040300fdff
04ff00fc0506000300
0500ff03fbfaf4f5fc
f503ff000c05ff01fe
fc00ff0205fe01fdff
f9ee00f80400ff0bf8
01fdf906fafafaf6fe
00fd00060401030002
0af7fdfbf3fdfc0804
fefcfd04fb0003f900
fefefff9f100f6f6f6
f507ffff0b06fdf7f5
faf601fe0400080f05
fffafdf7fcfe010000
f7f6f7effef3f700f3
060500fff8f8fbecf5
fb060402fe0102f403
fd0105f9040b02fd02
00f9f604faff02f800
f7fd03fbfd0500fd02
07fffafffdf5fef9fe
fdfc03000c08020e04
101713080403edf1fb
fe0d03070a01030407
000b00030000fdfb00
03000501f1f9f6e7f4
02090601000108f5f3
020a0800fb07fff5ff
fc0003030301fcfe01
fe00fbfffef7fbfcfd
0406fb0505ffff0004
fdfafc05fb0008fe02
fe0200000101040603
0100fafcfffbf7fafa
0000010001fefc0003
fefbfcfefc00fd0007
fbf4f6fff5fafefe00
00f6f903fafd07fd01
fff9fbf7f9faf9fa01
fafbfdfefdfd0001ff
0001feff05fcfafcfb
09090600fefffa0001
fbf9fff4f4f8f8f7ff
000402feff00f90001
fcfafd00000005090a
04fefa00fbfbfbfcfb
fef900fdfbfcfffb00
faf8fc0300fe06fd03
f8f5f2f4f2f8fdfa00
0000fe040000020200
04fffd000200020600
faf5fcfdfafbfefaff
fbfcfffefeff010306
fbfafcfbf8fcfd0002
00000001fefd000206
01fefe00fcfe000103
fef9fcfdfe03ff000a
fe0601fbf9f9fdfcfc
040003030204010202
02fdfe02fcfffcfe00
000400000001fcfef8
ff0002f8fb03000500
fef9fcfffa00feffff
ff0000fffc01000102
00fffefcfb02fefe02
0402fd01fdfdfffdff
0103fbfe0000010104
fdfdfb00f9fc030403
0200fdfa0000fafd00
08010107fefe0100fe
fef600f8fe050206fe
020005fc0400fc04ff
000202fd0002000204
fcf9fefafa00ff0000
fd0001fbfe02000000
0405fe00fefb02fdfb
fefcfe000001020206
ff00fffff9fffdfe00
fdfcfdfffdfef9f7fb
02ff02fcfb00fdfdff
04fb01030304050905
03070004020001fc00
fcfbfff8f3fcf8f8ff
ff050000ff00040100
0100fefdfbfefdf9fd
ff00040003050203fe
f9fd02f70100000102
060506000901ff0300
f8f701fbfd03020504
f8f900f7fe02000200
00fcf800f6f700fefd
fffd01fcfb01fcfcff
fefefcfcf5fcff0304
fefcfbfcfefe030002
00feff0003fe0002fd
fef9fc0000fd030101
fe00000109000301ff
ff0001fe0000fdfffe
fffd0000f700020600
010202fe0000ff0402
ff00ff000107000602
f9f6f3010dfa0013fe
fefe00fafe00fd0503
0200000003fffffeff
fcfcfb000a00000d00
00ff00ff000000fefd
02000101fa02f9f800
010101fff8fc00f7f8
0001fffffffdfbff00
00fdff0000fe000500
0000ff01020000fb00
01ffff00fafe01fefe
000001fd03fe01fc02
0100010200ff010100
01000000000301ff00
feff0001000001ffff
0000fffffd0000fe02
fbfbfa0615f9041101
00fffffffd00000004
01ff0101fb00feff00
00fefdff00fffe00fe
fefd01fdfc0000fb00
00ff0000fffd0002fe
fffefefefdfb00fdff
0302ffff0300000203
010000fffe00030000
010001fcfd05f90004
0003fd00fd00060101
0102fe000005fd0107
0002fefb00ffff05fe
0503050105040103ff
fdfe00fe0404ff0200
01ff00fcfdfdfdf9fd
fbfd00000200f9fe00
0a05090302fe0a0506
fdfa00fdff0001fefd
000006fdfe02010003
fbf6fbfdfafefef7fb
ff0003faff00fbff02
fcff00fe000301ff03
00fc0004fb01050003
0303000100fc0b0600
fefc09f8fb00f6f700
fefbfdfcfb0002fd03
030008fcfd00010004
fbfe05fafcfe070102
00fdfd01fffe050602
f0f701f2f203f4f902
010502000101000401
00fc01fcfdff01fe00
010702fb0201000507
f9f8f9f9fcfbfafbfd
fcf1fe04f9fe010300
fc03fdfb00fef90004
f8f600f6fa00fc0000
fdfd0102010300fe08
02fe0602fb07fdf809
0105fc030a03fc0204
ebe6faeae6f6f1ed07
0000fc02fefefefdff
fbfdfd00fefffffe02
020402010300020304
faf5fafefbff00faff
00fff80400fd0101fd
fd0003020101030603
0300fe01ffff01ff01
0100ff0302fe04ffff
fe0207000604ff0408
feff0400ff04fffe00
fffefefefeff0101fd
01fc00fffc0000fe00
ff0000fe02ff0201ff
000001fffffefffbff
00fdfb02fe00fefbfc
efe8f9f1eaf7f2eaf9
010000020402010200
fef6f102faf700f9f9
fff8f906fdfafffbf9
0200000000fe000101
000207ff0102000000
000000010000000000
00fd0100ff03ff0007
fdfdfd0000fffdfdfe
fe0100fdfffffdfdff
020400000000000301
040100fe0000fcfefd
fe0004030402050807
fe00000001000103ff
0000ff00fefe0001fd
fdfaf8fefafcfbf902
000003030206050004
fdfdff00fefe010300
04000002010001ffff
0000fffffd0000ff00
fdfbfd000000fffdfe
fe00fe0000fd030701
000000fe00ff000001
0403010302ff040604
ff00ffff0000fe0001
0000000000ff000300
020300000203000103
0002ff0102000000fe
0001ff0100fe0301fe
fdff00fe01ff000202
0403ff020201030402
030203030203020000
0000fe0201fe000100
000001000000ff0003
fdfcfefefbfdfffefd
000100000200000303
000002000201030602
00fe00fe000001ff02
ff00ff00ff00000000
fffefe0100fc0503fe
fdff01000102020202
fffe0000fd0000ff00
ff00ff00fffe000000
ffff00000000000102
0300010100000400fe
0200ff000100030200
00fffc0000fe000201
fffe0000fffefefefd
00ff00000000020000
ffff01030000030300
fffefdf9fbfbfaff00
01fefe03fcfffffafd
000400ff02fffbfb01
fbfafc00fe01020104
0502ff00060004fe01
ff000001fafc0300fd
fdfc0101fdfcfcf7fd
05020000ff00fffe00
03060400ff0000ffff
f9fcfcf9faf9f6f8f7
ff0201ff040100ff04
00ff000200ff020200
fefd0100f9ff010200
fdfeff030002060601
fc0002ffff00000708
fcfaf8fffbfafcf6f6
fcfbfcfcfefbfe00fc
f9fc00fcfbfd05f9f6
06fafb01f9f800f0f7
fcf9fffdfd0101fdfe
fe00feff0001fd0000
000100fffe00080503
000401fb0001fbfcfd
0001fdff0301fa0006
0400fd05fffcfdfc00
fdfaf8faf9f7f7f8f9
00fbfcfdf9fcfdf7ff
000000000102030405
01fc0201ff01fcfe00
00fefcfb00fef9fe03
03fcfc0200fafffe05
fbfe01ff00040000ff
fcfcfeff00fd0100fe
fdfffffe05030001fe
000002ff0101fcfdfe
fd0303010d07fe04fe
00fffcfdfc01000700
fd0402fd0a02fc01fd
0000fe00fcf9fbfbfc
0300ff0200fe00fe00
02fefe00f3ff000002
fffe03010000fefe00
fc0500020afffc02f9
fb0507fd0304fdfdff
fafc03faf902fbf800
fe00fefbf9fdfbfcfc
ff0000fbff00fafaff
00fbfd00f9fbfffcfd
faf7fffbf8fefdf800
00000000fe0200ff01
00fbfffffcfffffdfd
00fafefdfb00feff00
02fdff03fe02fefd00
0402000504fffc0001
fbfe00f8f9fefafbfd
000201000100000400
fefc0000ff00020303
fff7fefff800fcf601
00010000fc03040200
f9fefdfd00fffcfefd
fbfafdff0101fe00fe
00fbfdfffe04ff0200
03ff0000fa00fd0001
0202fd000002fbf802
0103010303fdfeff00
00fe030201fffc0604
020000fdfd0000fdf9
fcff01fdfd00010500
fcf8fafcf8fa0600fa
00fefe020100050700
ff0201fa0404fbfaff
fdfc0001020000fdfe
fffbfdfffefc03fdfd
fef6fefdf5f806fefa
00fe01f9f5fe05fbf9
00fb0000fc00060300
f7fd00fefcff0b0600
0201feff06fef80102
00ff04fff8ff0c00f8
0400fd050101040404
fe0003f9fb0100fbfb
020000000403020101
fafcfe00fffeff0001
ff02fb000500040100
00ff01030100080500
fef9fa0302f9080a00
0003feff0001fe0002
fff8fc0002fd030200
02fe01050601030a03
00ff00fdfcfffffe04
fb00fbfafaff05fdfa
fdfc02fdf7fd01fcf7
010b08fe0500fef2ff
fffeff04fffd0000ff
01fdfe03fffd070800
f301fd0405fe01f8f7
fa0202fe05020002ff
060afd0500fa02f803
0304040602fe040101
010002000301020406
01fcfaf9eef2fbf5f6
03fbfdfdf8fcfafafb
0100fc0400fcfffffc
0503ff06fe0002ff00
05fbfefffb01fcff00
05fb0000fafbfdfbfd
040005fefb02f7f800
02ffff020000fbfe00
02fd03fbfc05f5fe07
fb01fe0403000400fe
01fa0704fb08fcfc0a
fc02fdfcfcf5fbf7f5
03fc0203faf901fe02
f8fd05f6fcfff8fdfe
02fcfdfdf5fefcfc01
03fb01fbf6fcf80203
000500000200ffff02
03f7fefcf101f8fa09
ff0504fd06ff00fffe
000602ffff01020001
040b020204ff0c0203
020908000401fdf9fa
01fffbfdfbfbfa070a
fffd00f7fb00fafe01
fd0103f90709fc0eff
fb01fefb02fd0002fc
06fbf903f6fefffeff
fcfe08fbf80001fc00
0100fa0206ff000202
fb0200f90102040102
fffc00000000030604
fefd04fdfb00030002
f7f4fcf9f3faf6f4fb
f9f5f7fdfaf9fffcfd
0001fdfffdf90002f7
010000020203010303
020400000100fbfdff
02fffe020001010001
fc0005ff0003ff0000
fefa00fef9fa00fcfc
f7f904f7f501fcf701
fd02fcfcff000304ff
0002f70405fc060cfd
000003fbfa00ffff02
000003fffefd0001fb
010202000100070300
020000000000fffd01
ff0002010204000003
03000001fcffff0000
faf800fefb00fcfd00
fbfc04f9fafefe0002
00fe00000002030805
0000fc00fd01010001
fdfe05fefd06000004
fb0100ffff04fcff02
fafcfffafe00000101
ffff00fcfcf9fdffff
04010000fe00020100
ffffff020003000100
01000302ff0002fbff
000400ff00fffc0200
0500fa04fbf705fcfb
02f502f7fa0cf2ff0a
fafb00f8fe06f7fe0b
0109fe0303fd0407f9
fc0103f80303f80201
fdfc04f7f808f5fb07
0b03f606fef60102ed
f9fd05fd0304ffff04
05faff05f8f907fdfb
fa0104fa0104fe0906
ff0000fdff00010006
f70305fa0302f70001
00fb01fb010601fc06
fcff04f3ff06f00304
0509010504020401fe
fdfa02f1fc0df9000a
ff01f7fffefb0401fd
000100fdf8fdfe0401
0600fd0500fc1101f8
fdff05fdfa03fe0005
0106ffff06fef90803
08fa0805fd0605fe07
080403000303f5f8fa
000000fefefefefdf4
04010502fc0002fbfe
02fef101f9f80a03fc
00ff03fd0300f80205
01fe00fd0000010202
f5ff09ec0307f0fe07
0601fe00fefc0700f6
020001fff90101fd00
fefcfefbf9fcfdfbfd
fdfe00fafe00fafe05
fcfdfbfafafcfcfc00
010102fefa0100f7fd
010000050900040304
01010001fd0001ff02
010201fdfefffdfbfc
fefafffefa0002faff
0001ff000200000300
040303060304030202
0002fd010400000300
fe01fe00ffff000401
fffeffff00fffefd01
fdfe0002fd0002fffd
0105fc0103fb0608fe
fffeff00fcfe00fe00
fefe01fcfbfffcfdfc
fcff00fcfafd00fcfd
02fcfe00fdfc01fdff
fd0004ff0001fbfe02
01fd00fdfbff00fd00
ff00fe000003fd0100
fefd0000fe00ff00ff
fcfbfdfefafdf9f9fd
fffffafcfdfbfcfcfb
fefeffff00fe00ff00
ff0000fefd02fcfe00
000100000002ffff03
00000100f9fe0100ff
0000fefbfefbfafefb
fd00fe01fe01ff0000
0602fb0406000001ff
0002ff0005ffff0300
0000000500ff090300
fffbff00fdfffbfdfe
fe00f9000400ff0300
f9fa0000fefbfeff00
0805fb0106fefbfffd
06fcf80901fa01fefb
fbf800faf8fdfffd00
fefffe0100ff040000
fefe0000fdff0300ff
0402fe010301ff0101
000000050003030304
fa00ff0001fe0000ff
04fc03040400ff0000
fbfc03f60009fcfc00
fcff03fdfe03ff0000
010302fa0305fbff02
00fbfffbfcfffcf901
fffe00fef9fcfc01ff
090202010504000302
ff0000fdfefdfc00fc
fef9fe01fa00fffcfc
000103000001ff00ff
fd0000fafd01fc00fe
02fe0203fdff020305
000307fe0008fdfe03
060200010600010500
fbfd01fcff01fa0002
fefffa030d00fd0603
fff900fefd01fbf9ff
fcfd00fcfc0000fd02
00ff01f90001fbfe05
03010103fffefcfc02
ffff0003020000fe00
fffe0305fafa0204fa
fbfaff02fcf90805fb
fffe0106ff02fdfb00
0efbea1811ec010cf5
03f9fb0400f50304f9
00000100fc03f8fe02
05fef80a04f60105f8
fffffefdfc0300fe02
fdfc0302f8f90a01f6
0000fffffb0004fcfc
00f8f605fbf900fd00
010200000000ffffff
07fefd04fffb02f9fb
fc010500fd0304fe03
0004030000fffef9fe
000203fdfb0201fe00
fe0003ff0001000102
ff000101fdffff00fc
0304fdfe0000010000
02f8f61206f0fdfff4
fc0005fa0101fd0204
01fff9030501ff0807
000100fc0003fd0206
000001fc0101fe0003
fc0607fdfc02fdfe00
f80009f8fc05010004
000000ff0100010104
ff0002fffc03fffe03
fd0001fb0202fcff00
fd00fdfcf700fffbff
fefcfffafd05000c05
ff000100fc02fe0101
0102fc0301000502ff
01fd0300f602fffc06
050400040a01030301
03f600fbeafdfffd03
0006fd0103fc030000
fffafefcf9fefffcfd
07fa01fee7f705f707
020200000000ff00fb
fc0304f9fb00f4f5ff
f6fcf9fa0804fb02fb
faf1fff3ea0004ff0b
0004000000ff050300
0101ff0104000303ff
000001010001040303
0302000105000102fb
fefeff00fdfc0000fd
01fbfdfffcfe0000fe
00010300ff03000300
00ffff010001000100
03fc0701fe09020908
fffcf900f9f800fefb
ff0003ff0102000001
ff05000302fd020200
ff01fffdfc00000100
ffff06ff0005fe0102
0004fd030e00ff0502
01fefe00fcfdfdffff
fbfefbf9fbfbfbfffe
ff03fe0003fffdfe03
00fffff6f6fef9ff04
00ff00fffc00ff00ff
01010100fc01fffc00
0203fd040300020500
00ff00fbfbfdf9f7fb
00fcff01000000fc01
030000fff7fdfef7fa
fe0104ff0000010100
03020002ff00ff0305
020303fffb00fefcfd
000001fbf9fffffcfd
030401030200fbfbfe
fefffcfd00fc0003ff
03030100010000fdfc
00020000fcfdfcf9fc
0001000304000505fd
03fe00fbf800fdfd06
ff02ff0001ff050700
0001ff0002020100ff
01000000fe00000005
000000fe0001feff00
000300000200030601
010002fd0004030905
00fbfaf6f4fdfd0004
020401030103010405
000200fefffefe0100
030200fbfb00fafb03
00ff00fdfafefefbfb
fdfafefefcfffcfcfe
020301fefefafdf9fd
00ff00ff0000010200
fdfcfffffd0000fe00
f9fbfa040000090602
0504fe0400fefe0002
00000101fffe02fc00
fc00f9f5f9f6faf7fd
fefbfa00fafd000002
faf7f5fcf4f7f7edfa
f8faf700fc010f080a
fffdfffc0100fd0101
05faf901f8fefcfb05
01feff00fc01fa0000
04ff04fffbfefffeff
020400feff01fffd03
00fa01020006070504
02000400ff00fef900
fcff01fafbfb0200fc
060806fdfc01000000
02060703020700fdff
ff0003fbfbfdfffffe
fafafcf6f7fa01fefb
00fef805faff01fe00
fdfafefef9ff00f6f8
0102010000fe00ffff
05fff705fdfe050203
02ff00fefc0000fb01
01fcfb02fafd00fa03
0000fffb0100f90207
020505010503000300
fafdfefd0300030a00
03fc01fd00ffff0002
ff0204010306010403
01fefdfdfcfa030504
02f8f7fcf2fcfdfa03
00fd0006ff0000fd00
fa0003ff0003f8fa05
fdfd09000000ff020b
0800fe03fefe04fcf4
0001fe0300feff00f9
050500fe0000080303
fe03fe0203fbfe0900
00fff80905fa0300f4
fefe0300ff01ff0008
0403fffaff000100fd
01fc03fcfd0003fffe
fd02fcfe01fc0106fa
010900f600ff0006fb
0200fef9fcfc00fdfb
00000100fffd0003fd
00fcfd01fe06fcf6fb
fffdfd00f9fd00f7fd
02f6fcfcf6f5fdfbf2
020303060003fffb01
02ff0202000001fe03
ff0906030201000306
060104040502060102
0200000200fd0500fc
00fb0000fc00fbf800
ff0004feff01fffc01
f8fdfafdfdfb0000ff
fafa07fbfa05f6f903
fc0201000301f8fe00
010000ff00ff01fbfc
f700fcfe01fefafe00
05fd0700ef000dfb01
fafafdfff9fffbf9fa
fafdf8030500030001
fafefa00fffc0001fd
ff0100040400000300
0000fe010300000301
02000300fc00fefe01
0300fe0302fe0000fc
ff04fb0104ffff01fe
fe02ff0006030000ff
fefdfafbfdfafcfdfb
fb03fb000c03000500
fefefffdfbfbfdfcf8
010204feff00f8fbfb
00010400fe00fdfcfd
fe03fdfe0702010706
000300020805010605
000001fbfc02f6fafe
00fdfc0100fbff00fd
02010000fe00fdfefd
fdfbfbfefffdfdfd00
030601fbfdfefdfbfd
00030100fffe01fe00
000002ff0000fd0000
fd0100000402fc02fe
fdfcfcfffffb00fffd
00fdfdfffcfffcfefe
0507040305fe010501
fbfbfe00fe0000fcfc
030305fb0002000100
00fd0002fe0000fc00
fa0200fb0705fe0501
fefcfc02000000ff00
fdfe00fafc00fefe02
00fdfbfdf4fafff5f8
0705fe040600fb0200
fe0001fe0001ff0000
0102ff010000000000
01030400ff02fbfe01
faf7fbf8f4f7fcf6fb
060a04050600fefdf7
fe0101fbfc03fc00fe
fffdfbfbf8fdfbf8fe
0006ff000700fc02ff
fb0100fd00fefefefe
020604000003fdfe00
03fafdfcf0f9fef6fd
00fe00faf7fef6f600
ff01020302020302fd
ff03fe000801020905
030100030000030100
ff000000ff01000000
fcfbfffcf8fbfdf8fc
01ff01000103fefe00
fe0206030404050402
0002ff010202ff0202
0005fc040901feffff
fdfbfb00fdfc00fdfd
01fdff01fdff00ff00
040600020503020501
010000010002000001
fffeff00ffff00fe01
fefafdfefefcfcfe00
00000104fdfdfefafd
ff00fffffb00fdfc00
fe0000fe0100000004
000700ffff010100fd
f8fcfdfdfcfc0100fd
050bfd0107050101ff
0001fd00fff4fcfff9
08010401f7f801f5f7
000305fdffff020105
00fd01fcf8fb0b0001
f9ff0103fcf9fcfdf5
f50a08f50004f9fa08
00f80002fdff05fdfe
fdfff8f9fdf6fc02fd
00f907faf203f6f4ff
04f9f302fef50606fc
00f10afcebff0af401
ff09f90407fa0509fb
02fd06000101fffffb
000407f7fb01fcf9f9
0304fd0104fb000500
0000ff0004ffff04fe
f9fe04fcff05fcffff
040001fbfc02f5fe00
00000000fe0000fdfe
000007fcf70101fa02
0308f7030cfc040dfd
010004fbfdf8fa00fe
fd0000fcfdfd0606fa
0205f60006f8fa02f7
030d02fa0000fefbfe
03ffff05ff0003fbfa
f9fafffbf5fb01f6fe
00fff50706f4000b03
0307fe02fff7fffffa
0000ff000100000100
ff000000fdfeff0000
000001010102010101
0200010103010100fd
fefefefe0201000102
020001ff0301010200
000404010305010207
0000feff0200000000
ff0202000101010100
00ff00000000ff0000
0102000000000000ff
030101010603050402
020301010303010301
010100000000ff00ff
000200000001fefdff
00000000ff0000fe00
0101000001ff0000ff
000100000000000001
030200010100ff0001
0001ff000000000200
0000fefffefffffe00
000000ffffffff00fe
020401010101000200
00000000fffefffefc
0100000102ff0000fd
ff0000000000000001
02010001ff00fffffd
ff0000fdff00fffefd
0000ff0101000000ff
ff01000001000000ff
0000000100ff00feff
000002ff01000001ff
010705fcff02fe00ff
f7f500f6fc05040702
fefdfefe0202000000
00ff00ffff02000000
f5fbfa0202fcfcfdf9
010afe090ffff9faff
fe0109fafd030305fe
0809fe01fefefbf8fe
00ff02fbfcfe030100
ffe501efd6f608f604
fcf100f8ee00060706
fd00f70306fdfefdfc
fc12f4062a03fafef3
f9fe00fafbfe0b0501
fcfafffbf4fe00fffe
fef902fdfa04fff802
040000050100040402
030001050b010202ff
fffe02feff00000101
00fc0002fdfe000101
0200fffc0004fdff02
01fb0000fbfefdff00
fdf900030002fdfffc
fe00fc0301fd0206fd
0101040206030001fb
0001010200ff010000
faf9fff9f700fafc00
060300fd020000fc02
020dff081602fb0001
fe00fd060801fe01fd
fefe000000fe020103
0502fd06fcfa00fefc
030405fffc00fffd00
060201fcfb00fe0301
ff0000fc0001fe0301
00ff00fefeff000000
ff00ff0102ff0202fd
000001ffff00fffefe
010002fefb000000fe
00030202ff0200fcff
000000fffd00000002
02040100f600fbf700
010003020301000100
fafdf6090af70f0efa
fffeff000002000700
000005f8f804fbfd00
000301010003ff0001
000101ff02020205ff
03000004ff02040000
00fb00fdfb00fdfbfe
fffd00fdfd0000fdfe
0200000000fe040101
000001fdff02fe0002
01ff0002ff0000fe01
00030100fd0001fcfb
fcfefdff00fe00ff00
02fffefffefefefd00
000001fefbfeff0100
fdfefd00fffe000001
030001fe0002fe0102
020302020303030600
fdf6fdfcf4fafef8f8
0301000001ff000300
0103000800fc06ff00
fffb0600f800000000
00fdfe02fd01000300
fdfb00fdf7fe020000
fefd00fdf8fdfbfefe
ffffff00ff00040401
ff02fafd03fc00feff
01f7fc03edf002fcf3
fffcfafdf8f9ff00ff
00000001fd03fe0000
0200fefdfbfa000000
02fcfd05f7000503ff
ff0403f9f7fef4f2f7
f500fcf80702fb0000
fbfcfefc0200010503
00fdfd0001fffd0000
fe08fb000a03f906fe
02f0fb06f0f308fdfb
00fe0003fe02010302
01fe0300fe010400ff
00fcfe01fa0100fefe
01ff0501fa02010001
00fefb01fbfbfd00fc
fafe04fdff06ff0402
00f30400f0fd05ff04
04020002fe00010100
010300fe0202000400
02f900fdeff800f7fd
0000000003fe0005ff
ff0000fffd00fefcff
00fcfb00fcfb0002fd
fe00fffbff00000001
0501000200000002fe
0601000102000100ff
f9f7f800fcff090801
fffaff00f9fb0006ff
03fffd0400ff01ff06
060909fd0003f8fcf8
fefc00fcff02040301
fdff00fefbfffdfdfc
000101ff000402ff07
f5f3f9faf1f70101fd
000100000003fffffe
00ff0000f8fb0304fc
030300010205fefe02
020707fe0302fafcf7
010106fd0003fafaf6
010102030204fe0108
010300010504010304
00feff00fcfc02fdfd
02020004040400010b
020305080304060803
f7f2f8fef6f2020afe
fcfe0400fcfd0001ff
00fffffffdfc0100fe
000100fbfcfdfcfdfd
000201000002050001
faf8f9faf5f5fffdf9
fbfa00fdfcf8ff0401
fdfc00fffe00030304
ff000400fdfc030400
02000500fd01fefefe
ff00fefdff00fdf9fc
fffffd00fe00ff0002
fffc01fffaff0201fd
05000001fafe0202ff
000000fcfafe0100ff
ff0100fc0000fcfe00
00fffffdfc00000000
fffe00000000ff0001
ff01fffdfcfd0100ff
020004020000fcfbfb
fdfb00010000020001
fe0200ff000000fdfe
00fdfdfffefe0100ff
030402020301030402
000001000001fdff00
000201feff0000fb00
0000fffdfafefdfcff
00fe0004ff00040704
fc00fc020401010402
0200000100000202ff
00fe00030c04030602
00030002ffff020000
020202000000010100
020306020301000202
0000000000ff010000
00fefffffffffefeff
fdfefdfdfbfd00fe00
020605030304020506
00fbff0000fd00fe00
fdfefdfdfbfe00fd00
fffefc00fffefeff00
fdfc00ff0001000101
02020402fbfdfe0300
fffbfcfefffe020000
00fefdfcfeffff0000
0100fe05fffc070000
fdfd02f9ff09f9000b
fdfffcf9fbfdfafb00
010103fe0004fcff00
020500080b00070300
fcfefdfbfffcfffe04
fd0006fe0100fdfdfa
fa0e00fd0601f9fb0a
0e08000b0400fffc03
02fa03fef7fd00fbfe
00fef8fefbf903feff
fd00fbfa0301f900fb
ff00000204fd04fdff
00ff0209fe0307fbff
fdfe06fbff000401fc
f90301f900fefafdf7
00fdfa01fcfa00f8fb
0200000500fb020102
01fd00050504070400
00eef3f9eafaf5f100
000000050300040100
00fe0101fa00fcfd00
fffefb0401f8fffe04
07000001f7f9fefef8
03060009fd00070503
02fcfafefc00fa0001
fefcfcfef8f7fffafc
fbf5fcf9f7fcfaf1fc
040100fe0000fe0000
040000fffefffdf8fe
f900fffdff02ff0402
00fffc00fffe000209
fc0903fdfb0000f700
01fafffd00fd000002
0002fefeff0002ff06
030206faf40100fefc
010904000000fefffe
00ffff010100030102
fafbfe020101060805
05f80102fcfa0304fd
03feff080104050401
faf6fa0104fc040b06
03fbfa000002010004
020300fefb00fffe00
fefcf8000707ff0203
fdf8000005fdff02ff
000c05ff0a01fe0101
03f9fefffefafcfcf7
00090ffef8fc00f9f9
000c08feff03fdfcfd
010606fcfa05fcfafe
faed000204fd010601
f8fa03fd0100040400
05020300fefffffbff
fffcfa0100fe0001fd
000b09fafc00f7f6ff
02fefbfdfafafe0000
00f3fb00fefc01ff00
080af8fd0601f8fafc
f800fe020000070708
02fd0700fefd00fffe
00f9fd0300fd000301
0c0afafe08fefc00fe
fdfffdfbff0100fd01
f9fc06f8ff08fb0509
fd040501040105fffb
00fefefefe000102fb
fafd02fffe09fe0301
00fafcfdfdfefefefa
fefc04f9ff06010505
ff0100fd00000100fe
00fefd00f905fafd05
fe0000ff05010104ff
0202ff0001fe0001fe
02ff0100fdff00fe00
0601fc00feff02fffa
02fbfa01feff00ff00
0500fd0000020003fd
03fcfb02f8fcfdf703
0401fe0303fe00fef8
030006fc0008fe0906
00fa02fdfa05fafe07
fff4f4f3e8faeff3ff
fc0005fcfe02000201
0005fcfbfcfafdfc00
fdfe00fe0002fe01fb
03f90000fdfffffc00
fff507fcfd0c02060a
010808050a06030efa
0005050501fe0200fa
00fc04fdfe09fb0609
fefe00fb01fe0004fc
0000030201ff00fbfd
030300ff06fe00fe01
fafa06fcfc0afcfe04
ff00fe0002ff0500fe
fffb00fbfefe020301
060201fefc010000fa
fefcfcfcfffe000200
080106070500fffeff
00000000fdfd030203
00fffdfefd00010200
faf8fbf7fcfb05070a
00fe03feff01fefdfd
00fcfa00fff9fefffd
00010201010000ff00
ff00fd000000fe00fc
000505fffefdfcfbfd
fefbfafcfdff060601
f9fcfefbfcfd070405
060108050408040800
000003000303fefe00
fe00ffff00feff0201
00000600060406fdff
010000faff04fffeff
01fcf5faf5f6fe00ff
fdfbfdf9f9fcfffffb
0102000005000005ff
fffffc00ff00020106
0300ff02040101fcfb
000400060200ff0205
0604020302faffff00
00fcfcfbfbfd00fefe
fffefafaf5f4fbf7f9
020400050005030302
00ff050004090102ff
02fe0405020704ff05
02fffefffa01000306
07020502fe0200ff0e
fbf9fdfffc00fffd01
fdfbfdfa00fffefffe
fffbfefefb01010000
060203040201030003
010003040806060600
fcf7f8f8f1f7f8f5fc
fd0000ffff03030202
000000000100ff0102
ffff00fdff040107fe
000002000201fe0000
00fffcfffdfdfffcfc
01fefd00f7fbfefdf9
ff0100fd0002fffdfd
fefefcfffd01fefdfc
0305010301ffff00fe
fbfefbfffefdfe0305
fbfafcfdfbfdfdfcfd
00ffff00fff9fcf901
0201070204010005fe
fefcfffefefffefefc
010000000000000303
fffd00fbfd00fc0402
fffbfcfdfa00feff03
00ff00fffcfcfdfeff
fffd0100ff0102feff
fdfcfdfeffff00ff03
030002050003fe0304
020300000202080603
0003ff00fffdfe0000
03fe00020304040002
0503070002030307ff
fbfe01fdf9fdfffbf9
fd0103fd0005fafe03
ff0301ffff01feff02
02fcfffdfafcfff7f6
fdff00fffc000000fe
010102ff0003ff0301
00000101ff04050203
fdfefefd00000300fe
00fbfefe0002fe0004
02000001feff0301fc
01fffe020300020000
fd0000000000000000
01feffff0000000301
fffd01fefbfc030000
fe0203fefb0002fdf9
fdfafafcf8fafdf9f8
fcf8fcfffefbfdfbfc
fcfc0700ff05fd0502
fe0503000002000001
02000203000101fe00
000404000000000000
faf7fefef8fcfff9fc
00ff00fefb0000fdfc
fffe02ff0000ff0100
03feff0300fe00fefa
fefffefefefffeffff
fefe04fafcfffbf9fc
ff0203fe000200ff00
fcfc00fafc01fbfcfe
fbfe00fcffff00ff00
fbf8fe00f8fe00fcf9
030302050402010404
0209fc020902000201
0004fbff00fafdfbff
0803010000fafe00fb
0bfff6ff01fbfd0001
ff0003fcfb07f8f200
fe02fe00000200fc03
fcfb0afbf400fdf8fb
04fafa0600fe0200ff
01fdf906050003ff07
00fffd01ffff020000
03fbf9030000000305
fa0109fffe0500f906
05ff0403fa0002f5ff
fc0308fcfb05fdf6ff
0a07fd0307fe0001fc
04fc0900fc02f6f3ff
010900ff0306f9fa08
fcfff9fc00fdfffdff
030c06fd0809f5f60b
fe05030001020000fe
00030400fe02fcfd00
010600040303f90004
ff0102fafa03fcf4fe
0804f90407fb010b0a
04fffc0000ff0100ff
fefa03fdfefcff02f9
06fbf60b05f4060e00
020b00000200000101
fafd02fcf700fefcfa
0202f90001fcfd0003
00f7f5070ef60008f9
01fffefffffefcf901
fefefffefffffeff00
fe010000fffc0202ff
ff0803030504000102
fe0002000002fefefe
0400030400fa0501fc
03050100fef8fdfefa
02fffa00f7f20200f8
ff0002fcfe03f90002
fefffcfc00fb00fefb
fa02000006ff010100
fe0000fe0201010306
03030b00f801fcfbff
ff0002ff00fe000203
ff00fd00ff00020000
fd0306000303ff0300
fafdfcfaff02fb0000
0305fd040400040700
04fffc0300fc0100ff
fff9f500fbf9fefdfb
030400fc0000000505
040202060601040705
fcff0000fe01ff0001
fffb00fdf8fe010201
0201fe0200000300ff
fef9ff0502000301fa
040703050408030400
01fcff00fefd00fffe
fd0001fffffdfdff00
030803030500000405
000105010300ff00fd
020000fef9fafaf9fa
02fffcfd00ffffff00
fefe00fcf5fbfdfeff
00ff01010a08fe0afd
fdfffdfffbff0000fd
00fe00000001000200
ff0200fffdfd000001
0000fcfefffafeff02
000502020301000202
0408fb0602f200fa00
020102fc0302ff0000
fdfb01fcff02000101
fcf6f8fdf6f603fb00
0003fc0005ff0000fe
0301fc0201fe0000ff
fdfd00fcfa0000fd01
fe040900010000fcfc
fd01fb0203fd0400fc
fef8fe01fbfe010302
0102030202ff0003ff
feff02ff01000003ff
00fcfffefd00fffefa
0002030201000000ff
00fefc00fbfb00fdfa
01fff500fdfbff0100
fcfbfefefa00000104
00ffff020002030204
0003000007fe000000
fffbfefdfbff00fa01
00000302fe0b000400
03000102fdff0001ff
fefbfbfeff00000000
fefbff00ff00000006
0001010101fafffefd
f90201f70504f70103
ff0101fc0503ff04fe
00ff01020003000201
04fcf504fefbfefbfe
01ffff04fd0202f9ff
01fd02fcfb01f7fd07
f60209f3020ef7ff0b
00fffd00fe03f8fd03
fcfc00fbfbfd00fd00
fb0005f1000befff07
ff0003ff000000ffff
02010006fdfa08faf7
0004f60208f40505f6
03fd0003fe0000fe00
ff00ffff0207fd0005
02fc0003000201fcfe
0001ff02ff00000101
03feff02fdff01fffb
0003fe0204ff00feff
ffff0400fc00000202
020204010200010303
fdfefd00fffffdffff
f70106f3000cf7f804
00fc0103000005fe00
00fffd04fbfd00fdfe
feff04ff0003000204
020102010104fe0100
0000ff020003fbf905
00fdfa0000fa0200ff
02fc00fffb0302ff02
06f9fd07fefd07fcfb
00f70100f103fefa08
040701fbf7fc01f9ff
fd00000106ff00fd01
0d0fff040901f5f302
fafef7fdf20202f900
01f1f603f8ff041108
fffffafefefffffb00
00ecf502fefc03120b
0002fdfb00ff00fc00
010607fafe01fdfafc
fdfcfd00fffe010001
000000fdfefafafdfc
f0ecfb02fcff080cff
fff9fc00fdfe030909
fffffffd0101020200
030bfe0104fefffe01
f9ecfc00fd00030703
05080a01fe00fcf4f8
000502fd000000f800
01000104fffa04fffd
010507fbff0000fcf8
000203fdffff00fdfb
0106010000fffafafe
f8f4040602ff050e00
0204fdfefefe01fa01
0000fefbfbfffbf9fd
0302fe00fcfefcfd00
000702000402fdf9fe
01000600fe00ff03fd
fffc00ff0300040509
ff0502fd040201fcff
f700faf901ff000003
01fb00020004000502
00030000fdfbfefbff
ff09080502fc06fcfc
01fff8fff7fdfdfe00
00fc02fffd02fcfa00
fffcfcf8f800f7fe05
fbfe010204020403fd
f9fafffafe04fd020a
0107040000fefefffd
090bff0802000800ff
fdf900ffff06ff0103
02fefc05f8fc02fc00
fdfd01fbfb04fe0305
fff4fafbf900fb0208
f7fc00fa0000fd0405
0000030203fe00fffc
fffd01f7f600fbfe00
010300fffdfa01fdfa
ff07fe02fefe00fd00
fdf8fafaf7fcfcfcfc
02fefd00fffc000003
fefbfe000101040102
0504fcfcfdfcfefdfe
fdfe02000203030302
07020002fd0003fdff
000b04030502000101
00060000fb00fe0004
040e090a010203ffff
00fff901fe0002fdfd
05000000fe00feff00
01fcffff00fe010202
fd0605010200fffe00
000002060300060402
ff0fffff0609f7f1fa
0204fdfcfafcf8f9fc
fd000000fefd030000
fffd010102fd0000fc
020a0afdf60200f8fd
fafcf50003f8020201
041903ff0407ebdbef
00fcf6040000fefc06
0100f90300ff000100
0004fb000903fcf4fd
02fe03fef700f9f1fb
0006fd010701fafdfd
faf4f3f5f4f5020d07
fdfe01fefaff00fe01
010b0004060b010003
fcf8fc0303ff0206fc
05080b040300fff8f6
04010200fafafe02fc
fef9fbfdfffcfdff01
01fdf900000004ff08
0202fa050500fa0008
00010200ff0000ffff
0104fcfbf803f7f504
0a0a0802fc00f6f5f6
fdf8ff0200ff000502
0305fe01fcfdfe02fd
020206030004faf6fd
fbfd0200ff04040000
fdf501fefd00030900
000308fdf9fffdfcf6
00000201f6fbfefdfb
fb000402000106fcff
04000405ff00070004
00fefdfffffffffe00
010001fbfe00fc0100
00fe01fdfd03fc0004
fdff00fa00fdfdfcf8
0100ff02fffbfffcf9
fffbfe00fbfc00f9fb
00020403fbfe05fbff
050200020000000101
0100ff010002ff0204
fb00fc0006000003fd
f9fdfffbfffdfbfbfa
ff0408000507fe0200
0201010301000202ff
fd0202010903040706
fc00f90109ff040dfc
fd0100000100000000
fe0000fe00fdff0200
ff01020404020505fd
03000000ff00fefe00
fd0000fe000200ff00
010300000201000000
f8f8fff7f7fcf6f8ff
00fffd00feff00ff00
000000fe0201ff0100
00fffeff0001010001
0000fe020000010200
fefe03ff0105ff01fe
0004030007030102ff
00010203fd00060002
00060003fdff01fd00
00fdfd020000000000
