030003fb
00fefcf1
ff00fff7
00050000
fdfafdf3
010005f7
fc06fe03
fe03fffe
03040000
00fefbfc
f8fffbfc
f701fbfc
fd0200fa
f401fdfb
f700fcfe
ff0000fe
f90600f5
f6020200
0401fd00
fc03fd02
01030206
03070003
0400fdff
00000300
0301ff00
0403fb00
040201fb
f90400fa
f805fa01
00020100
f90004fb
fafcfc00
ff00fcfc
00010600
f8f50403
fdff01fe
f90200fc
f30002f8
f4010600
000200fd
f100f8f7
f50100fc
03050301
fdfcfdfd
fefefeff
fbfb06fd
f400f9f9
f900f800
fafe05fb
f2fefaf6
fa00f8fe
040207fe
fd03fcfb
0003f6fd
fdfcfffd
01000102
fd00020c
faffffff
fd0afe05
ff04ff08
fcfb03fa
00060200
00060102
0203fbf7
fcfe0700
01fb0202
0204fdf6
fdff06fc
fff903fd
fe01fa04
000002fe
fffe07fe
00fd0805
fbfc0807
ff03ffff
06fe0708
fffd0007
01060202
00f6fdfb
fdfa00f5
fe010401
fcfff304
fd03f30a
fdfd0000
fffcfe02
fffd0302
ff0004fe
00fe09fe
00f90df9
00fefef9
00fcfdfd
0303fd0a
00030601
000000ff
fc02fcfe
fe040501
f8000401
f3fefef7
fffd01fa
ff00fb04
03fdf907
fe00fefe
fa000106
0000ff06
02010001
00000300
00fe00fe
ff0002fc
fffbf9fc
fef8f6fc
fffc00fc
00fc0000
fdfa0003
04fb0202
02000a00
01fd06fc
01fdfeff
03fc0303
0000f3fe
ff00f800
0100f5fe
ff00f4fa
fd04fcfe
fe0200ff
ff00070f
01fe0403
00fcffff
00fc0202
00ff0001
00fc0100
f800fd02
ff000300
fd00fe00
fd04fefe
01fc0000
f906fc00
ff08fa00
ff03feff
000a0300
000204fd
00fc01fd
fff60200
00f107fd
01f8fcfd
00fe0101
f9000600
fffe00fd
fbff05ff
ff0104f9
ff000100
fb01fc04
01020304
03ff0300
f9fe0000
f5fefc00
f8fefdff
ecf702fc
f1f303fe
f7fcfd00
edfb01f8
f3f90000
f8fa0000
00fd00fa
fa0306fe
fe0107fe
fb0003fe
fe000afc
fefe0900
fb020400
fcff08fe
fcff0400
f4f80000
f9fc03fd
00fe05fe
fa0000fe
fa01fc00
00ff02fc
f4f900ff
fbfd00ff
ff00fffd
fef5fe01
f9f40405
fe010003
f6fdfef9
f5fc00fc
fb010100
f9f8fdfe
fdfbff01
02fd0000
02fbfc01
04ff00ff
00fd0002
f4010600
f7020306
fd0005ff
f8010300
fc000302
01ff02fe
09fbf901
0601fa03
0200fe02
000300ff
02fdfc02
00fefeff
00030003
0306fc0d
00fbfa00
fb01fd00
050001fd
0300fbfe
0200fff7
00fe08fd
0400fbfa
0002fdfa
fe020afe
0204fefb
f9f903fa
fcf7fffe
fdfe0000
f9fa01f8
fe01fffd
fa01ff03
f803fffd
fe050001
fd080507
fff80101
fcf9fefe
04f901fc
fef903fe
fbf800fd
03f800f9
fefa0200
f5f5ff00
04f90000
fbf6ff02
fbf80004
fe000202
02f50001
00f80002
02fb0003
0002fffe
01fbfdff
fefa02fe
02030103
0203fb00
01fe00fd
0202fcfa
0300faf8
0200fbf7
ffff0301
fcfdffff
02000304
00fa0005
f900ff00
ff030101
fffe0104
fd000102
fdff0300
fcfe0100
f9fdff00
fafb0201
01fe00f7
f8f7fd00
fffa00fd
fd0201fb
f9000000
fafb00fe
010903f9
fc050401
ff0302fd
05fdfd02
03fd0304
fd02070a
05fbff01
02fb0203
00ff0806
f8f90000
f8fc0000
f9020104
fa00f6fc
f3ffeffe
fd05f403
f7fff2fd
f100ebfd
fd01f2ff
f8020301
f302f5fd
ff04fd02
