fb0005fd
f1fe07fc
f700ff03
000508fe
f3fa07fd
f7000206
0306fbf6
fe03f5fa
00040101
fcfe04ff
fcff0a03
fc0100fd
fa0202fc
fb0102fd
fe00fe00
fe00fefe
f506f9f9
0002f9fe
0001fdfc
02030a03
06030103
0307ff00
ff00fe02
00000104
00010100
0003f7fe
fb02fafd
fa040400
010507fd
0002fe00
fb000600
00fc0600
fc000101
00010000
03f5fefe
fefffc00
fc02fcfb
f800fcf8
0001fcfc
fd0200fc
f70003fa
fc0102fb
01050000
fdfcfcfd
fffefffd
fdfb03fc
f900fe00
00000000
fbfefe00
f6fefa00
fe00fe04
fe02ff02
fb030f00
fd0303fe
fdfcfffc
020002fc
0c0001ff
ffff00fc
050a0200
08040000
fafb0000
0006fe04
020600fc
f7030006
00fe0008
02fbff03
f604000a
fcfffd02
fdf9fdfc
040100f6
fe00fdf1
fefefdf8
03030800
fc0008fb
ffffffff
00000706
fdfd00ff
05010201
fefcfd00
fffe00fd
000304fe
fb00f3fc
fbf8f3fd
fbf700fd
00fdfeff
fdf403ff
fcf704ff
00ff0900
00f90d00
02f6fe00
fd04fd00
fdfcfd03
02010600
00030000
fd04fcfc
030005fe
ff0304f8
fb04fef3
010401ff
00f9fbff
faf8f903
0100fefe
04f901fa
fcfaff00
fcff0002
06000300
04f80000
01fd02ff
00f9f9ff
02f3f6fe
06f400ff
00000000
f8f100fd
00f50204
03030a02
fdfd0601
fefefe01
06fb0303
f9f4f300
f8f9f8ff
05faf501
faf2f4ff
f8fafcfd
070400fe
fcfd07ff
f6000401
fffdff00
01010200
02fd0000
fffa0100
fefdfdf8
ffff03ff
03fcfefd
0200fefd
01000001
fb02fcf9
07fcfaff
0201feff
fd020300
06fd0400
03ff0100
fafe02ff
02000700
07fffc01
01fefaf9
0000fef7
fdfe00fe
fffff8fa
f901fd01
00000301
0401fd03
04020105
00ff0708
00fe01f8
00fefef9
fffefcf9
fcf7fef9
fef3fdf8
00fcf9f8
f8fb00fa
00f900f5
00fa00f9
fafd02f6
fe0304f8
fe010200
fe0001f5
fc0002f8
00fe03fb
0002fe02
fefffffb
00fffefa
00f80303
fdfc0003
fefefdfe
fe00fa02
0001f800
fcfff700
fff901ff
fffdfffd
fd000400
01f505fa
05f40000
03010103
f9fd04fe
fcfc0200
000100ff
fef800fe
01fb00fd
00fd01fb
01fbf7fe
ffff00f7
02fdfdfa
0001fb02
06020000
ff00fefb
0001f909
02000105
fefffd03
01fb02fd
030104fd
02000a02
ff0301fb
02fd03fb
fffe06ff
030300f9
0d0600fc
00fb0402
0001fc00
fd00feff
fe000305
f700fdff
fdfefd00
fa00ff01
fa020102
fe02fd02
fb040204
010003f9
06f9fffc
00ff00fd
05fb01f9
04fffffe
01fffffa
fcfbfff8
030100fe
030305fd
00f901ff
fcf5fefc
fdf80104
02ec03fe
03f100fb
fdf70003
01ed02fe
00f3fff5
00f80004
0000fffb
06fa00fb
07fe02fe
03fb0002
0afe0000
09fe0002
04fbff00
08fcfd01
04fc02fe
00f40102
03f9fb02
05000001
00fafc02
fcfafa03
0200fb02
00f403ff
00fbfffc
ffff0302
fefe0000
04f9fff9
00fe01ff
fef601ff
00f501fd
01fb03fd
fdf901fc
fffdfff9
000202fa
fc020001
0004fdf8
000000ff
06f401fd
03f700f9
05fd00fa
03f80301
03fc04fc
020102ff
f909fd05
fa060303
fe0207fd
0000ff05
fc020202
fe000800
000000f8
fc0300f8
fa0001f9
fdfbf6fa
0105eff3
fb03f4fd
ff02f2f7
0800ebf1
fb04f2fd
fd0003f8
0afef5f3
fe02fdff
00fb0002
00030002
fb00fd01
faf7ff00
00fb0402
ffff0002
f9f9fc00
fdfe0101
00fffdff
0503fefd
fc030bfc
fe0405ff
04050003
03020400
0806fa00
fe01ff01
0003f500
fffdf8ff
fc030a01
f4010201
000205fd
f90004fe
fd02fcfd
f7ff03f7
0005f9fe
00fc00fd
fdfffaf8
04eafb01
01ec0200
06ee07ff
03f3fd03
03f10101
03f1fc00
fc0204f4
fe0901f9
0000f8f8
05edfa02
04f5f202
01f6fbfc
fff5f9ff
06f9f9fb
05fa0500
fa0000fc
f9000efc
fe000b04
01ffff04
01020201
0a000400
fcfbfffd
fd0300fd
fdfe00fe
07fe01fd
06040000
fb010001
0506f400
0002eff8
fffcf7f1
000000f9
0406fdf1
050a04fa
fdfa0c01
01ff1301
0706130d
0401f6fe
0000f700
05020503
000201fe
fffd0501
01030104
fe0002fe
00000602
fd02fbfd
f2fb0000
f7fcff00
f20406fe
f5f40200
f8fb00f8
f40003ff
fcfb0003
0102fb00
ff01fd03
00f80004
01f400fa
02f40104
01f50103
fef90000
04f3ff00
fdf701fb
00fb060a
00fa0302
f7000601
fa000a03
fb00ff02
f9000305
00fe0100
ff000002
0201fe04
04fdfaff
05fefdf9
fff00203
03f3fc06
03f1fb00
02f50002
fef1fefa
02f703ff
050101fa
03f904f5
03fa0701
000109ff
0002fffd
0201fff5
0101fbfc
02fff8fb
0801fcfb
03fbfdff
00fa01fb
03fc0600
01040607
00fd0211
00fcf9fd
ff02fd00
0000fa00
0202f9f4
fef7fbfa
0100fae8
fbfd0300
0503fffd
fffe01ff
06000000
02fe0300
00ff0305
01fefeff
01fd0004
fffc00fd
00fcfcf9
fdf4fdfd
fef6f8f5
fef7f3fe
00fb00fe
03fdfb01
03f40100
fe000000
02040305
01000800
fb02f800
00fbffff
fef9ff03
01ff03fe
03f81001
fffaff04
0201fe00
00fe0301
fefefc03
060004ff
00030b01
f9030500
06030203
00ff0c01
f6010002
0500fbfe
0500fe02
ff01fefe
000002fa
00fe03f6
00000100
020200fc
00fd00f2
000000fe
03010100
030000f8
010300fc
010200fe
fd01fe01
0000fefd
030005f8
fdfe07ff
00ff0001
0502fefd
000104ff
0300fd05
fc020500
03fd0003
03fe0200
fe000503
00ff0000
00000203
ffff0102
fd00ffff
fe02fe04
f500fd00
0600f900
fdfa01fc
f103f800
1201f200
08fffe00
f9000101
00000004
fefe0100
f8fdfefb
0602fcfd
000800fc
fb00fefe
02000000
fa000500
fdffff00
00fd0004
fbfefb00
ff09faff
03fef300
00fafefe
fe060bfc
02fb0401
fef802ff
ff0901fd
ff00fe00
0200fc00
000200fd
0000fcfd
fe000200
ff03faff
fffef5fa
fdfe01fd
0000fd00
00fffa00
01ff01fd
fa01fd04
0efeff09
feff0003
f800ff01
0d00ff05
05ff0508
00fffc02
f7ffff05
f3020000
0804feff
fbfb00fb
fff6fefc
050300f9
f6fd00fb
fbf801fd
040302fd
00ff04fe
01fdfffb
00fefe05
00fd0200
fdfbfb00
01fe0303
010002fa
fcfe00fe
0005feff
ff0502fe
fb00f900
fbfdfe02
0bfff500
020202fc
fbfdf703
0dfff205
0703ff02
f7fe0004
f7fffd00
fc000100
f1fd00ff
0303fd05
0603fb00
eefe0104
0600fd08
1204fdfa
f3fb01fa
fbfbfffb
fcfffdfc
00020300
fefc0800
000008fb
fffe0200
fa000904
fd0405ff
0002fb00
fd00fc06
0002fe03
0304fefc
ffff05fc
fbfffc03
020102fe
000002fa
fdfbfc01
ff00fafe
00fd00fc
00fef5fc
fa00fc03
edfdfe00
fa0001fe
fffe0201
f6fd0400
f7ff03f9
0000ff00
06ff0000
ff01fdfd
0103fefb
0509f9f5
020102f7
ff0001f9
fcfe04f3
fe020bfd
fe0006fe
fe010bfd
00010900
01fdff00
02f900fa
fefff9f9
fefc00fe
03f5fff7
03fcfefa
fdfe04fa
fbfb04f5
fafe01ff
02f90002
fcf80800
fdfa0508
00ff07fd
000001fe
fbfefdfe
00000003
fffefc05
fe03f809
fffff7fe
f5fd00f8
03fd06fc
0300fdfc
ff0003f8
03000700
0003fbfc
0a0004ff
04010506
02ffff00
00fd0100
00fc0000
fdff0402
0ffffefd
0100fd00
05fb0500
fdfe03fe
01fc08ff
fb00f3f9
fd01f6fa
0007fcfd
fe0400fd
fbf70301
fe040309
01030100
0b030605
00ff0404
fe00fb04
01fd000b
04fc0207
fd000200
04fd0604
06fd02ff
000000ff
04ff05fe
fd0200fe
fcfe03fe
f3fd0003
fcff0002
fc0200ff
fcfefd02
fdfefd02
ff00fd01
00fefe00
fe01fe00
fffff4fd
0003f9fc
0003fd00
0000fcff
020407ff
00030afe
00fd0104
ffff0705
fc000003
00000407
02fa0003
00fefe00
00010205
fffdfd05
00fffb04
00000107
fffdfe05
fa00fc03
05050100
fbfb01f8
f8f900f5
010101ff
0c0e00fb
fb00fcfd
fcfafe00
030a0002
fbff0100
fd02fb02
fb02fd01
fd00fb01
fa04f7fe
f90200fb
ff030401
04000002
04fa0700
07fc0802
0000fdfd
0407fb03
0400fb05
00fdfcff
f7fbfc05
fa00ff05
00fb00ff
fffa0804
01f90800
030100fc
00f903fc
02fe0301
02010302
05fe0606
fe010102
ff00fe02
fffefdff
fc01fd00
fe000400
01010104
f600f901
00ff0004
0006fb04
fe05f5ff
00030003
fbfdfc03
f5fff900
fefbff00
00f3faf8
080df8fb
fefa0002
16f300ff
0afe0600
ff000201
03f602fd
06fa0000
02fe0001
02fffa02
fdfffa05
0b030000
12fbfc00
09000006
070bfefc
150c02ff
0f020404
020602fb
fc0704f9
f90e0004
0202fbf4
fc08f9fa
01070307
0f0802fa
00fdfcfb
0500fd01
0300ff01
07f10201
090003fe
ff03fb08
fef906ff
03010000
fb050007
06fc00fb
080402fc
0d05f6fb
14f4f9f6
ff0000f5
0703fcfd
09f903f4
fef601f7
f60006fa
e5fb05fa
edfc03fb
fc00fb00
fafffdfc
f5fcfe00
ff000304
f9fa03ff
f8f70102
fd000600
e8ff01fc
f1fc0100
fd03f9ff
f603fbfe
f3fffdfe
f9fdfaff
f1fa00fa
ff0102fd
fdf7ff01
f5ef0407
00020204
000c00ff
02020103
f8ff0702
09fe0000
08ed060d
f8f30609
03f8fd01
0aed0007
03f4fe08
01040304
05010300
0202fdff
00030807
01fb060b
fcf8fefc
fc00050a
fff1fe05
07fef9fe
fe00fef9
040bfd02
0203fd00
0300fafb
0411fe01
000304fc
f9000001
fa0d07fd
fe0907fc
020202ff
03ec0105
00fd050a
f90000fd
f6fa0004
fbf90208
01020200
ee07fdfd
0204fd01
fbf900fe
f40c0104
f3010304
00f903fb
ed0c05fe
f2090000
020600f6
030dfe00
0204fbfc
02fdfffa
06fefefb
0afefff7
f7fbf9fd
f8f1fefc
05f8fefe
fd04fdfb
ecf100ff
ff0000fd
08ff00fd
04fffefe
0005fafd
040701fc
fd10fefe
0000fafd
00090000
fb110002
fc0b0400
01000102
00070107
fe030409
f200fe03
faf9fe09
fdfe0309
ef02fbff
f303fe02
fa0500ff
0302fefa
f304fdff
f4fbfa02
fb00feff
e9f5ff01
f0fcfdfe
fa01fe04
fafffcfb
fa02fefd
fcff0300
fb06fdfd
ff00fc01
f4fe0204
f304fd00
f901fd06
f3000601
f2010000
f904fe06
01040602
0204fb0c
0103ff06
fc0401f9
00fffefe
0501fc00
fa0104f8
0202fdf9
040000fa
0000fffe
01040c02
03040c04
ffff02fe
ff000805
00020502
000000fd
fcfe02fe
fd0002fe
070003ff
02fe04fb
00010200
02ff0600
00fc0c01
00ff0002
01ff0001
ffff0104
ff000204
030000fc
00fffcf9
0201fffe
fdff0101
f8000301
ff020400
ff000104
fafd0003
020003ff
fffefe01
01ff0aff
00ff04fd
07fe0300
08fb0f02
02ff0100
03fdff02
02fdfe02
00fe01fe
fbfc000c
f7f8ff0d
faf7fd00
0006ff09
020dfffd
fdfefbf7
fa02ff01
0010f8fa
f900fbf8
fe070201
01000700
00040200
fd000203
00fb0007
ff00ff06
fd02fb01
00fdfa09
0301ff0b
00070401
0003ff00
fffff8fa
00020004
fcffff01
0101fcfe
fefffdfe
0001fcff
0203fefe
fd0003fc
ff000ded
fe0004f6
05fe00fe
09fe03f8
fffffffe
00fffeff
0400fcff
ff010008
0000f8fd
00fff000
0101fafd
00fc00fe
01fdfb06
01000005
00fe0702
00ff0008
ff020701
00ff05f4
fffc05f4
fd0301f9
00fd00f8
00fffef7
0003fef7
00fffe03
fe00fefc
0001fff8
000104fc
070007fe
03fefb03
f6ff00fe
f5fd0000
0101ff02
f8ff00fe
f200fe01
0102fbff
0001fa00
01ff0900
04020503
00f70001
fdf90600
feff0305
fffbfd00
f7fcf6ff
fa01fb00
fe02ffff
03fefb01
00fc00ff
fefefff8
01f900f8
01fa01fa
fffe0003
fefb0301
fcfe00ff
0000fefe
00fdf9fb
fc0100fb
0300fd00
04fffaf9
0001fdfe
00ff01fe
0100fffc
fe000307
000006fd
0000ff02
02fffcfe
010102ff
0204f8ff
0000fafb
fffffffc
fe02f703
fd000001
0101f9ff
010202ff
03fe00fb
00fefcfc
020002ff
04000001
0002fbfe
00000601
0100fe05
0003fcff
03070000
010600fd
ff03fafe
0303feff
0103ffff
ff05fefe
00020200
03020002
000002f5
02fcfc00
00020000
00ff07f9
01000301
ff0100fc
03fd08fc
0100000b
ff02fd00
fe0005fb
fefef702
0000fffd
00fefdfd
0100f600
000001ff
02fe01fe
0400ff05
03000601
04fcfefc
ff0003fa
fe0004ff
0000fefb
0500fefc
0101fd00
01fdfefe
01fefbff
0000fe02
01fd0707
01fc0101
03fe0501
01000201
fefb00fb
00fb02fe
00feff00
fe00fffa
fefe0400
0200f905
03fcf0ff
fcfb0bff
0200f701
0002ef01
fefe0bff
0100fb00
fc00f4ff
fffe0fff
00fffa00
0801fffd
04000301
0200f7fc
050101fb
040100ff
00000002
02000704
04010100
00fe02fa
01feff01
00fd0004
00ff01fa
0001fe03
00010101
02ff01fe
0103fe08
02010505
0000fef9
0303fe00
ff010600
ff00fffa
07060201
03030503
00feff00
06000103
0100ff01
01040004
01030006
010400fb
00050000
0307ff06
0202fffd
fd000100
00070006
0102fd00
00020dff
0004fafd
fe0304ff
00ff09fe
0006f300
fd060000
00000301
0006f100
01020400
fefd0901
fc02ff01
fb01fd00
feff0800
fe00fbfc
fd00f9fe
ff0408ff
00fffb00
ff01fd00
0001fe09
0003fefc
ff02fcf5
0102fb05
030302fc
01030300
0000ff08
00020401
ff0303fb
f800fcfc
0003fafd
ff040004
f901fdfc
ff02fbff
ff050001
0001fffe
0004fb00
0001fa01
