fd0500fb
fc07fef1
03ff00f7
fe080500
fd07faf3
060200f7
f6fb0603
faf503fe
01010400
ff04fefc
030afffc
fd0001fc
fc0202fa
fd0201fb
00fe00fe
fefe00fe
f9f906f5
fef90200
fcfd0100
030a0302
03010306
00ff0703
02fe00ff
04010000
00010100
fef70300
fdfa02fb
000404fa
fd070501
00fe0200
000600fb
0006fc00
010100fc
00000100
fefef503
00fcfffe
fbfc02fc
f8fc00f8
fcfc0100
fc0002fd
fa0300f7
fb0201fc
00000501
fdfcfcfd
fdfffeff
fc03fbfd
00fe00f9
00000000
00fefefb
00fafef6
04fe00fe
02ff02fe
000f03fb
fe0303fd
fcfffcfd
fc020002
ff01000c
fc00ffff
00020a05
00000408
0000fbfa
04fe0600
fc000602
060003f7
0800fe00
03fffb02
0a0004f6
02fdfffc
fcfdf9fd
f6000104
f1fd00fe
f8fdfefe
00080303
fb0800fc
ffffffff
06070000
ff00fdfd
01020105
00fdfcfe
fd00feff
fe040300
fcf300fb
fdf3f8fb
fd00f7fb
fffefd00
ff03f4fd
ff04f7fc
0009ff00
000df900
00fef602
00fd04fd
03fdfcfd
00060102
00000300
fcfc04fd
fe050003
f80403ff
f3fe04fb
ff010401
fffbf900
03f9f8fa
fefe0001
fa01f904
00fffafc
0200fffc
00030006
0000f804
ff02fd01
fff9f900
fef6f302
ff00f406
00000000
fd00f1f8
0402f500
020a0303
0106fdfd
01fefefe
0303fb06
00f3f4f9
fff8f9f8
01f5fa05
fff4f2fa
fdfcfaf8
fe000407
ff07fdfc
010400f6
00fffdff
00020101
0000fd02
0001faff
f8fdfdfe
ff03ffff
fdfefc03
fdfe0002
01000001
f9fc02fb
fffafc07
fffe0102
000302fd
0004fd06
0001ff03
ff02fefa
00070002
01fcff07
f9fafe01
f7fe0000
fe00fefd
faf8ffff
01fd01f9
01030000
03fd0104
05010204
0807ff00
f801fe00
f9fefe00
f9fcfeff
f9fef7fc
f8fdf3fe
f8f9fc00
fa00fbf8
f500f900
f900fa00
f602fdfa
f80403fe
000201fe
f50100fe
f80200fc
fb03fe00
02fe0200
fbfffffe
fafeff00
0303f800
0300fcfd
fefdfefe
02fa00fe
00f80100
00f7fffc
ff01f9ff
fdfffdff
000400fd
fa05f501
0000f405
03010103
fe04fdf9
0002fcfc
ff000100
fe00f8fe
fd00fb01
fb01fd00
fef7fb01
f700ffff
fafdfd02
02fb0100
00000206
fbfe00ff
09f90100
05010002
03fdfffe
fd02fb01
fd040103
020a0002
fb0103ff
fb03fd02
ff06feff
f9000303
fc00060d
0204fb00
00fc0100
fffe00fd
050300fe
fffd00f7
00fdfefd
01ff00fa
020102fa
02fd02fe
040204fb
f9030001
fcfff906
fd00ff00
f901fb05
feffff04
faffff01
f8fffbfc
fe000103
fd050303
ff01f900
fcfef5fc
0401f8fd
fe03ec02
fb00f103
0300f7fd
fe02ed01
f5fff300
0400f800
fbff0000
fb00fa06
fe02fe07
0200fb03
0000fe0a
0200fe09
00fffb04
01fdfc08
fe02fc04
0201f400
02fbf903
01000005
02fcfa00
03fafafc
02fb0002
ff03f400
fcfffb00
0203ffff
0000fefe
f9fff904
ff01fe00
ff01f6fe
fd01f500
fd03fb01
fc01f9fd
f9fffdff
fa020200
010002fc
f8fd0400
ff000000
fd01f406
f900f703
fa00fd05
0103f803
fc04fc03
ff020102
05fd09f9
030306fa
fd0702fe
05ff0000
020202fc
000800fe
f8000000
f80003fc
f90100fa
faf6fbfd
f3ef0501
fdf403fb
f7f202ff
f1eb0008
fdf204fb
f80300fd
f3f5fe0a
fffd02fe
0200fb00
02000300
01fd00fb
00fff7fa
0204fb00
0200ffff
00fcf9f9
0101fefd
fffdff00
fdfe0305
fc0b03fc
ff0504fe
03000504
00040203
00fa0608
01ff01fe
00f50300
fff8fdff
010a03fc
010201f4
fd050200
fe0400f9
fdfc02fd
f703fff7
fef90500
fd00fc00
f8fafffd
01fbea04
0002ec01
ff07ee06
03fdf303
0101f103
00fcf103
f40402fc
f90109fe
f8f80000
02faed05
02f2f504
fcfbf601
fff9f5ff
fbf9f906
0005fa05
fc0000fa
fc0e00f9
040b00fe
04ffff01
01020201
0004000a
fdfffbfc
fd0003fd
fe00fefd
fd01fe07
00000406
010001fb
00f40605
f8ef0200
f1f7fcff
f9000000
f1fd0604
fa040a05
010cfafd
0113ff01
0d130607
fef60104
00f70000
03050205
fe010200
0105fdff
04010301
fe0200fe
02060000
fdfb02fd
0000fbf2
00fffcf7
fe0604f2
0002f4f5
f800fbf8
ff0300f4
0300fbfc
00fb0201
03fd01ff
0400f800
fa00f401
0401f402
0301f501
0000f9fe
00fff304
fb01f7fd
0a06fb00
0203fa00
010600f7
030a00fa
02ff00fb
050300f9
0001fe00
020000ff
04fe0102
fffafd04
f9fdfe05
0302f0ff
06fcf303
00fbf103
0200f502
fafef1fe
ff03f702
fa010105
f504f903
0107fa03
ff090100
fdff0200
f5ff0102
fcfb0101
fbf8ff02
fbfc0108
fffdfb03
fb01fa00
0006fc03
07060401
1102fd00
fdf9fc00
00fd02ff
00fa0000
f4f90202
fafbf7fe
e8fa0001
0003fdfb
fdff0305
ff01feff
00000006
0003fe02
0503ff00
fffefe01
0400fd01
fd00fcff
f9fcfc00
fdfdf4fd
f5f8f6fe
fef3f7fe
fe00fb00
01fbfd03
0001f403
000000fe
05030402
00080001
00f802fb
fffffb00
03fff9fe
fe03ff01
0110f803
04fffaff
00fe0102
0103fe00
03fcfefe
ff040006
010b0300
000503f9
03020306
010cff00
020001f6
fefb0005
02fe0005
fefe01ff
fa020000
f603fe00
00010000
fc000202
f200fd00
fe000000
00010103
f8000003
fc000301
fe000201
01fe01fd
fdfe0000
f8050003
ff07fefd
0100ff00
fdfe0205
ff040100
05fd0003
000502fc
0300fd03
0002fe03
030500fe
0000ff00
03020000
0201ffff
ffff00fd
04fe02fe
00fd00f5
00f90006
fc01fafd
00f803f1
00f20112
00feff08
010100f9
04000000
0001fefe
fbfefdf8
fdfc0206
fc000800
fefe00fb
00000002
000500fa
00fffffd
0400fd00
00fbfefb
fffa09ff
00f3fe03
fefefa00
fc0b06fe
0104fb02
ff02f8fe
fd0109ff
00fe00ff
00fc0002
fd000200
fdfc0000
000200fe
fffa03ff
faf5feff
fd01fefd
00fd0000
00faff00
fd01ff01
04fd01fa
09fffe0e
0300fffe
01ff00f8
05ff000d
0805ff05
02fcff00
05fffff7
000002f3
fffe0408
fb00fbfb
fcfef6ff
f9000305
fb00fdf6
fd01f8fb
fd020304
fe04ff00
fbfffd01
05fefe00
0002fd00
00fbfbfd
0303fe01
fa020001
fe00fefc
fffe0500
fe0205ff
00f900fb
02fefdfb
00f5ff0b
fc020202
03f7fdfb
05f2ff0d
02ff0307
0400fef7
00fdfff7
000100fc
ff00fdf1
05fd0303
00fb0306
0401feee
08fd0006
fafd0412
fa01fbf3
fbfffbfb
fcfdfffc
00030200
0008fcfe
fb080000
0002feff
040900fa
ff0504fd
00fb0200
06fc00fd
03fe0200
fcfe0403
fc05ffff
03fcfffb
fe020102
fa020000
01fcfbfd
fefa00ff
fc00fd00
fcf5fe00
03fc00fa
00fefded
fe0100fa
0102feff
0004fdf6
f903fff7
00ff0000
0000ff06
fdfd01ff
fbfe0301
f5f90905
f7020102
f90100ff
f304fefc
fd0b02fe
fe0600fe
fd0b01fe
00090100
00fffd01
fa00f902
f9f9fffe
fe00fcfe
f7fff503
fafefc03
fa04fefd
f504fbfb
ff01fefa
0200f902
0008f8fc
0805fafd
fd07ff00
fe010000
fefdfefb
03000000
05fcfeff
09f803fe
fef7ffff
f800fdf5
fc06fd03
fcfd0003
f80300ff
00070003
fcfb0300
ff04000a
06050104
00ffff02
0001fd00
0000fc00
0204fffd
fdfeff0f
00fd0001
0005fb05
fe03fefd
ff08fc01
f9f300fb
faf601fd
fdfc0700
fd0004fe
0103f7fb
090304fe
00010301
0506030b
0404ff00
04fb00fe
0b00fd01
0702fc04
000200fd
0406fd04
ff02fd06
ff000000
fe05ff04
fe0002fd
fe03fefc
0300fdf3
0200fffc
ff0002fc
02fdfefc
02fdfefd
01fd00ff
00fefe00
00fe01fe
fdf4ffff
fcf90300
00fd0300
fffc0000
ff070402
fe0a0300
0401fd00
0507ffff
030000fc
07040000
0300fa02
00fefe00
05020100
05fdfdff
04fbff00
07010000
05fefdff
03fc00fa
00010505
f801fbfb
f500f9f8
ff010101
fb000e0c
fdfc00fb
00fefafc
02000a03
0001fffb
02fb02fd
01fd02fb
01fb00fd
fef704fa
fb0002f9
010403ff
02000004
0007fa04
0208fc07
fdfd0000
03fb0704
05fb0004
fffcfd00
05fcfbf7
05ff00fa
ff00fb00
0408faff
0008f901
fc000103
fc03f900
0103fe02
02030102
0606fe05
020101fe
02fe00ff
fffdfeff
00fd01fc
000400fe
04010101
01f900f6
0400ff00
04fb0600
fff505fe
03000300
03fcfdfb
00f9fff5
00fffbfe
f8faf300
fbf80d08
0200fafe
ff00f316
0006fe0a
010200ff
fd02f603
0000fa06
0100fe02
02faff02
05fafffd
0000030b
00fcfb12
06000009
fcfe0b07
ff020c15
0404020f
fb020602
f90407fc
04000ef9
f4fb0202
faf908fc
07030701
fa02080f
fbfcfd00
01fd0005
01ff0003
0102f107
fe030009
08fb03ff
ff06f9fe
00000103
070005fb
fb00fc06
fc020408
fbf6050d
f6f9f414
f50000ff
fdfc0307
f403f909
f701f6fe
fa0600f6
fa05fbe5
fb03fced
00fb00fc
fcfdfffa
00fefcf5
040300ff
ff03faf9
0201f7f8
000600fd
fc01ffe8
0001fcf1
fff903fd
fefb03f6
fefdfff3
fffafdf9
fa00faf1
fd0201ff
01fff7fd
0704eff5
04020200
ff000c00
03010202
0207fff8
0000fe09
0d06ed08
0906f3f8
01fdf803
0700ed0a
08fef403
04030401
00030105
fffd0202
07080300
0b06fb01
fcfef8fc
0a0500fc
05fef1ff
fef9fe07
f9fe00fe
02fd0b04
00fd0302
fbfa0003
01fe1104
fc040300
010000f9
fd070dfa
fc0709fe
ff020202
0501ec03
0a05fd00
fd0000f9
0400faf6
0802f9fb
00020201
fdfd07ee
01fd0402
fe00f9fb
04010cf4
040301f3
fb03f900
fe050ced
000009f2
f6000602
00fe0d03
fcfb0402
fafffd02
fbfefe06
f7fffe0a
fdf9fbf7
fcfef1f8
fefef805
fbfd04fd
ff00f1ec
fd0000ff
fd00ff08
fefeff04
fdfa0500
fc010704
fefe10fd
fdfa0000
00000900
020011fb
00040bfc
02010001
07010700
090403fe
03fe00f2
09fef9fa
0903fefd
fffb02ef
02fe03f3
ff0005fa
fafe0203
fffd04f3
02fafbf4
fffe00fb
01fff5e9
fefdfcf0
04fe01fa
fbfcfffa
fdfe02fa
0003fffc
fdfd06fb
01fc00ff
0402fef4
00fd04f3
06fd01f9
010600f3
000001f2
06fe04f9
02060401
0cfb0402
06ff0301
f90104fc
fefeff00
00fc0105
f80401fa
f9fd0202
fa000004
feff0000
020c0401
040c0403
fe02ffff
050800ff
02050200
fd000000
fe02fefc
fe0200fd
ff030007
fb04fe02
00020100
0006ff02
010cfc00
0200ff00
0100ff01
0401ffff
040200ff
fc000003
f9fcff00
feff0102
0101fffd
010300f8
000402ff
040100ff
0300fdfa
ff030002
01fefeff
ff0aff01
fd04ff00
0003fe07
020ffb08
0001ff02
02fffd03
02fefd02
fe01fe00
0c00fcfb
0dfff8f7
00fdf7fa
09ff0600
fdff0d02
f7fbfefd
01ff02fa
faf81000
f8fb00f9
010207fe
00070001
00020400
030200fd
0700fb00
06ff00ff
01fb02fd
09fafd00
0bff0103
01040700
00ff0300
faf8ffff
04000200
01fffffc
fefc0101
fefdfffe
fffc0100
fefe0302
fc0300fd
ed0d00ff
f60400fe
fe00fe05
f803fe09
feffffff
fffeff00
fffc0004
080001ff
fdf80000
00f0ff00
fdfa0101
fe00fc00
06fbfd01
05000001
0207fe00
0800ff00
010702ff
f405ff00
f405fcff
f90103fd
f800fd00
f7feff00
f7fe0300
03feff00
fcfe00fe
f8ff0100
fc040100
fe070007
03fbfe03
fe00fff6
0000fdf5
02ff0101
fe00fff8
01fe00f2
fffb0201
00fa0100
0009ff01
03050204
0100f700
0006f9fd
0503fffe
00fdfbff
fff6fcf7
00fb01fa
ffff02fe
01fbfe03
ff00fc00
f8fffefe
f800f901
fa01fa01
0300feff
0103fbfe
ff00fefc
fefe0000
fbf9fd00
fb0001fc
00fd0003
f9faff04
fefd0100
fe01ff00
fcff0001
070300fe
fd060000
02ff0000
fefcff02
ff020101
fff80402
fbfa0000
fcffffff
03f702fe
010000fd
fff90101
ff020201
fb00fe03
fcfcfe00
ff020002
01000004
fefb0200
01060000
05fe0001
fffc0300
00000703
fd000601
fefa03ff
fffe0303
ffff0301
fefe05ff
00020200
02000203
f5020000
00fcfc02
00000200
f907ff00
01030001
fc0001ff
fc08fd03
0b000001
00fd02ff
fb0500fe
02f7fefe
fdff0000
fdfdfe00
00f60001
ff010000
fe01fe02
05ff0004
01060003
fcfefc04
fa0300ff
ff0400fe
fbfe0000
fcfe0005
00fd0101
fefefd01
fffbfe01
02fe0000
0707fd01
0101fc01
0105fe03
01020001
fb00fbfe
fe02fb00
00fffe00
faff00fe
0004fefe
05f90002
fff0fc03
ff0bfbfc
01f70002
01ef0200
ff0bfefe
00fb0001
fff400fc
ff0ffeff
00faff00
fdff0108
01030004
fcf70002
fb010105
ff000104
02000000
04070002
00010104
fa02fe00
01fffe01
0400fd00
fa01ff00
03fe0100
01010100
fe01ff02
08fe0301
05050102
f9fe0000
00fe0303
000601ff
faff00ff
01020607
03050303
00fffe00
03010006
01ff0001
04000401
06000301
fb000401
00000500
06ff0703
fdff0202
000100fd
06000700
00fd0201
ff0d0200
fdfa0400
ff0403fe
fe09ff00
00f30600
000006fd
01030000
00f10600
00040201
0109fdfe
01ff02fc
00fd01fb
0008fffe
fcfb00fe
fef900fd
ff0804ff
00fbff00
00fd01ff
09fe0100
fcfe0300
f5fc02ff
05fb0201
fc020303
00030301
08ff0000
01040200
fb0303ff
fcfc00f8
fdfa0300
040004ff
fcfd01f9
fffb02ff
010005ff
feff0100
00fb0400
01fa0100
