fa0105fb
fe0007f1
00fdfff7
f8ff0800
fdf907f3
030002f7
fd04fb03
0104f5fe
07000100
010004fc
fe000afc
fcff00fc
fefc02fa
fdfe02fb
f900fefe
00f8fefe
0000f9f5
0000f900
02fafd00
04fe0a02
02fe0106
01feff03
02fcfeff
03000100
fe000100
fffef700
fe00fafb
030004fa
00fd0701
fdfefe00
fafe06fb
f8000600
f7fc01fc
01ff0000
fffffe03
04fdfcfe
0501fcfc
0005fcf8
0103fc00
04f900fd
02fc03f7
000002fc
00fe0001
0001fcfd
0100ffff
f70103fd
00fffef9
fd020000
fb00fefb
0006faf6
fefffefe
f900fffe
01020ffb
fdfe03fd
0201fffd
04030202
0a02010c
01ff00ff
03020205
06ff0008
000300fa
000dfe00
04000002
fc0000f7
fefd0000
03feff02
fdf700f6
fdfdfdfc
fffafdfd
01fa0004
fdfefdfe
02fbfdfe
03010803
ff0608fc
0000ffff
01050700
ff0400fd
ff010205
fffcfdfe
000300ff
05030400
0100f3fb
fefcf3fb
01fd00fb
0302fe00
000303fd
00fd04fc
02010900
ff000d00
0000fe02
ff00fdfd
0006fdfd
02070602
00030000
000afcfd
00090503
ff0404ff
fd08fefb
02040101
0100fb00
fb03f9fa
0005fe01
fc000104
fafcfffc
fb0200fc
03000306
ff000004
03ff0201
00fef900
ff04f602
01000006
01fe0000
010000f8
03010200
01fd0a03
ffff06fd
0200fefe
00fc0306
fd00f3f9
0000f8f8
0106f505
0003f4fa
0005fcf8
03030007
040307fc
020204f6
fdf9ffff
03fa0201
07fe0002
ff0001ff
02fcfdfe
08fe03ff
0000fe03
00fcfe02
01fa0001
f6fdfcfb
ef01fa07
f4fbfe02
f2ff03fd
eb080406
f2fb0103
03fd02fa
f50a0702
fdfefc07
f9fefd00
f700fcfe
fefe0300
fafffe05
0101fdfa
01000600
0301f606
0502fa03
08ff0104
f8fefffe
f9fe03ff
f9fefd01
f9f7fc02
f8f3fd01
f8fc0000
fafbfe00
f5f9f906
f9fafe02
f6fdfc01
f8030303
00010303
f5000007
f8000200
fbfe0400
02020001
fbfffe03
fafffd02
03f80004
03fcfd05
fefe0002
02000000
000100fc
00ff0100
fff90001
fdfdfef5
000000ff
faf5fb02
00f4f800
0301fc01
fefdfc02
00fcfa00
ff01fb01
fef80005
fdfbfdfc
fbfdfdfe
fefbfcfb
f7ff0000
fafd0000
020100fe
000200fe
fb000400
09010202
05000003
03fffe03
fdfbfcfc
fd01fc00
0200ff00
fb03fcff
fbfd000a
fffe0004
f90300fb
fc060406
02fbfc06
00010603
ff0008fe
050003fb
ff000a04
00fe02ff
0100fcf9
0202f601
0202f100
0404f8fe
f9000003
fcf9fb00
fdffffff
f9fb0600
fefffffd
faff0101
f8fb00fc
fe01fdfe
fd03fe03
fff9fc00
fcf5fdf8
04f8fdf7
feecfffd
fbf1fff4
03f7fff7
feed00ff
f5f300f9
04f800f6
fb000004
fbfa03fc
fefe0001
02fb0003
00fefc04
02fefe00
00fbf803
01fcf304
fefcff04
02f4fff9
02f903f8
0100fe00
02fafaf9
03fa00fa
020002ff
fff40000
fcfb00f8
02fffffd
00fefff9
f9f9fef3
fffefff4
fff60000
fdf5fdf1
fdfb04f5
fcf90203
f9fd01fd
fa0201fe
010203fb
f80400f4
ff00fff9
fdf401fa
f9f7fff2
fafdfdfa
01f8fe04
fcfcfffd
ff010100
050900fd
03060001
fd0200fd
050000fa
0202f8fd
0000ffff
f800fdfc
f803fd00
f9000100
fafbf902
f305fffc
fd03ff01
f7020002
f10000fd
fd0400ff
f800fffe
f3fe0000
ff0201ff
f8fb0000
ff000000
fffefdfb
0301fffa
10030400
ffff00ff
fe02fcf9
030001fd
fcfefd00
0406fe05
0b000bfc
05f905fe
02060004
0c000403
00f6fa08
fb05fffe
fe05f500
fefff8ff
02000afc
030002f4
01000500
000204f9
0000fcfd
000003f7
0103f900
00030000
0001fafd
0001fb04
fefd0201
fe000706
0503fd03
07fd0103
0000fc03
fe0504fc
040001fe
fd03f800
05fcfa05
0003f204
0203fb01
05fef9ff
0000f906
02000505
01ff00fa
fffd0ef9
fefe0bfe
fdf5ff01
f9060201
01fd040a
f8f1fffc
f21200fd
fe0800fd
01f90107
00000006
01fe00fb
fef8f405
fc06ef00
0000f7ff
fefb0000
0002fd04
05fa0405
fffd0cfd
00001301
fbfb1307
fafff604
f303f700
fe000505
0bfe0100
040205ff
02fe0101
01ff02fe
feff0600
fc02fbfd
000000f2
fc00fff7
02fe06f2
faff02f5
f5ff00f8
01fd03f4
fd0000fc
fa00fb01
0101fdff
fdfa0000
ff0e0001
00fe0102
fff80101
ff0d00fe
0505ff04
fc0001fd
fff70600
00f30300
fe0806f7
00fb0afa
fefffffb
000503f9
00f60100
01fb00ff
0204fe02
0400fa04
ff01fd05
fe0002ff
0200fc03
fbfdfb03
03010002
0201fefe
00fc0302
fe000105
02ff0403
f9fb0703
fefb0900
f50bff00
0202ff02
f7fbfb01
f20df802
ff07fc08
00f7fd03
fdf70100
01fc0603
00f10601
fd030200
fb06f900
01eefdff
fd06fa00
fd12f902
01f3fbfe
fffbfa01
fdfc03fb
0300ff05
08fe01ff
08000006
02ff0302
09fa0300
05fdfe01
fb000001
fcfd00ff
fe00fc00
fe03fdfd
05fff8fe
fcfbf3fe
02020000
0200fb03
fcfd0103
faff00fe
00000302
f5000801
000202fb
fffb0203
03f90100
feff00f7
01f802fb
04fa02ff
000100f9
01fe01fe
03feffff
ff00fd03
0103fc03
0003ff04
03030305
01ff0002
02010006
fe000101
02000003
fe01fffd
fa000103
f6fe0101
0000fd02
fc02fe00
f2fdfd02
fe00f7ff
0001fe05
f800fdfc
fc03f8ff
fe0201ea
010100ec
fd00ffee
f80003f3
fffe01f1
01ff00f1
fd02f402
ff01f909
0500f800
000202ed
03fd02f5
00fefcf6
0300fff5
00fffbf9
030000fa
02fffc00
ff00fc00
04020400
000004ff
00000102
fcfa0000
0003fdfb
0001fd03
00fffefe
0100fdfe
04000004
00fe0101
fbfd0006
fd02f802
fc08f1fc
fe00f900
0000f106
0000fa0a
00ff01fa
04fd01ff
00fe0d06
ff09fe01
00fe0000
fefa0302
fc06fe02
01fb01fd
fff80403
fd09fe00
00000200
0000fd02
fd0200fb
fd0000fc
0000fe04
ff0300f4
fafef8fb
fdfeff00
000003fb
00ff0002
fdff0301
040104f8
09fefaf4
03ff04f4
010003f5
050000f9
08ff00f3
02fffbf7
05ff0afb
000202fa
ff040100
fbfb0300
fcf60200
f9030500
fbfd00fe
fdf80200
fd030401
fefffffd
fbfdf9fe
05fe03f0
00fd06f3
00fb00f1
03fe02f5
fa00faf1
fefefff7
ff05fa01
fe05f5f9
000001fa
02fdff01
00fffd02
fc02f501
03fdfc01
05fffbff
0203fb01
04fefffb
00fffbfa
000000fc
fffd0704
050311fd
0003fdfc
04fe0002
08000000
fa04f402
fafbfaf7
fbfbe800
fcff00fd
0002fd03
00fcfffe
fb000000
00fe00fe
040005ff
ff04fffe
000204fd
0600fdfc
0302f9fc
fc04fdf4
fcfff5f6
03fffef7
fe01fefb
fa0001fd
01fb00f4
fe000000
fcfd0504
fcfe0000
fffefcfa
fa00feed
f80801fa
00fe02ff
001604f6
060a03f7
02ffff00
02030006
0006fdff
0002fe01
fa02f905
fafd0202
000b01ff
fc1204fc
00090bfe
fe0706fe
02150bfe
040f0900
0202ff01
04fc0002
00f9f9fe
fb0200fe
f9fcff03
0301fe03
020f04fd
fc0004fb
fd0501fa
ff030002
020708fc
030905fd
fbff0700
06fe0100
0003fdfb
00fb0000
0006fcff
0208f8fe
f60df7ff
f91400f5
00ff0603
fc07fd03
030903ff
01fe0703
06f6fb00
05e5040a
03ed0504
fbfcff02
fdfa0100
fef50000
03ff04fd
03f9fe0f
01f8fd01
06fd0505
01e803fd
01f10801
f9fdf3fb
fbf6f6fd
fdf3fc00
faf900fe
00f103fb
02ff03fe
fffd0101
04f5060b
02000400
0000fbfe
01020001
07f80204
000902fd
06080604
06f80206
fd030000
000a0504
fe0300fd
030103fc
030500f3
fd0200fc
080000fc
0601fdfc
fefcfdfd
05fcfdff
fefffe00
f907fefe
fefef4ff
fd04f900
fd02fd00
fa03fc00
fe040702
04000a00
00f90100
07fa07ff
07fe00fc
02020400
01030002
0500fe00
00f90200
00f6fdff
02fbfb00
02010100
fdeefeff
fd02fcfa
00fb0105
01f401fb
03f300f8
03000101
05ed000c
00f2fcfb
0002fefc
fe030003
fb0201fb
ff02fbfd
fe06fdfb
ff0afbfd
f9f7f7fa
fef800f9
fe0504ff
fdfd0004
00ec0704
00ff0807
0008fd00
fe04fb04
fa00fb04
0104fc00
fefdfcf7
fa00fffa
00000000
00fb08ff
04fc0801
01010003
01000300
04fe0302
fef20302
fefa0605
03fd01fe
fbeffeff
fef3fdff
00fafdfc
fe0304fe
fdf30101
faf4f9f6
fefb0000
ffe9fb00
fdf0f5fe
fefa0000
fcfafcfb
fefaf9f5
00fb0300
f8f300fd
fb0dfe00
02fa01fe
fff300fd
00fef9ff
01000000
fdf600ff
00fafd01
01fefb03
02fff509
05fff701
0003f900
00fbf3fe
0600fd02
fc0bfe00
ff0cfd01
04020001
fb0600fd
f907faf9
040ef9ff
f402fefc
fa08f7f5
0707fafc
fa08fafe
fbfdf5fb
0100fffe
010002f9
01f100f8
fe0008fa
0803fdff
fff9fe00
0001fefe
07050300
fbfc05fe
fc040903
fb05feff
f6f4f8fd
f500fcfd
fd03fc00
f4f9f800
f7f60000
fa00fc03
fafbff00
fbfc0601
000000ff
fcff00fd
00fc00fc
040002ff
fffafdff
02f70000
000000fb
fcfffefe
00fcfffc
ff03f900
fe03fa01
fefffd07
fffdfd04
fafa01f7
fd010904
01f70003
07ef0503
040204ff
ff0c0400
03020bfd
02ff07fc
00fe0000
0ded04fd
09f3fffd
01f8ff00
07edfeff
08f4fe02
0404fefe
000103fd
ff0202ff
0703ff02
0bfb02fe
fcf802fe
0a000100
05f100fe
fefe0001
f900fdff
020bfc03
00030003
fb00ff00
0111ff04
fc03fe03
010004fd
fd0d05ff
fc090300
ff020700
05ec03fa
0afd00fe
fd000501
04fa05fd
08f904ff
00020700
fd0705fd
01040300
fef90005
040cf8fb
0401f5f9
fbf9ff01
fe0cfb0e
0009fd00
f60600fa
000d020a
fc0400ff
fafd0202
fbfe0102
f7fe0100
fdfbfe04
fcf1fb02
fef80103
fb040200
fff100fa
fd0002fc
fdfffd00
feff0307
fd050500
fc07fffd
fe1005fb
fd000500
0009fffb
021104fa
000b00f9
0200fc01
0707fcf9
090301fe
03000201
09f906fe
09fe0201
ff020200
0203fffe
ff050001
fa020000
ff040401
02fb0100
ff0004ff
01f50406
fefcff05
04010303
fbff03fd
fd0200ff
060003fc
ff00fdfb
fc02fcff
020102f4
f802fdf3
fa00fdf9
ffff06f3
f7fe00f2
00fdfef9
f9010601
0201fb02
0003ff01
fc0001fc
0202fe00
0004fc05
fb0004fa
0600fd02
fe010004
fc00ff00
00030c01
00010c03
faff02ff
fe0308ff
ff010500
feff0000
020002fc
000302fd
02000307
fc020402
00000200
07000602
03010c00
00ff0000
08030001
000101ff
fdff02ff
05fe0003
f7fefc00
ff00ff02
fd0001fd
f60103f8
010004ff
010201ff
ff0400fa
06030302
fe04feff
03ff0a01
04fe0400
fe000307
fe050f08
fd010102
fe01ff03
fb01fe02
fe000100
070100fb
0101fff7
0503fdfa
0201ff00
00feff02
0200fbfd
ff00fffa
fffef800
04fefbf9
f90202fe
f0030701
0bfc0200
f70202fd
ef000000
0bfeffff
fb01fbfd
f4fcfa00
0fffff03
fa000400
ff08ff00
0304f8ff
f7020000
0105fffc
0004fc01
0000fdfe
0702fc00
0104fe02
020003fd
ff010dff
000004fe
01000005
fe000309
0100ffff
0102fe00
fe01fc04
050200ff
fe00f800
fe03f000
06fffa01
ffff0000
0207fb01
05030001
ff000700
01060000
ff0107ff
00010500
000105ff
000101fd
00000000
ff03fe00
ff02fe00
01fdfe00
0000fefe
fd01ff00
0d000400
fa000707
04fefb03
090000f6
f30000f5
00fdff01
030000f8
f100fef2
0401fb01
09fefa00
fffc0901
fdfb0504
08fe0000
fbfe06fd
f9fd03fe
08fffdff
fb00f6f7
fdfffbfa
fe00fffe
fe00fb03
fcff0000
fb01fffe
02030001
03010101
ff0000ff
040003fe
03ff00fc
fcf8fe00
fa00f900
00ff00fc
fdf9fd03
fbfffa04
00fffd00
ff000100
fb00ff01
fa0003fe
fd0000ff
0200fd06
feff0100
ff0104fe
ff040004
fb000601
fcff0100
03020001
01000604
ff010204
ff020c04
fbfe0603
fcfef904
ff00feff
01000001
fe02f801
0100f902
0500fa00
ff03fe00
00070204
fd060404
fe03feff
ff030500
ff030202
fe05fd00
0002fefe
0202fe00
f500ff00
00fcfbfe
00020001
f9ff00ff
010001fc
fc0102ff
fcfd01ff
0b0004ff
00020400
fb00fc00
02fef9ff
fd00fe01
fdfe01ff
00000100
ff000002
fefe0400
050003fd
0100ff00
fcfc01fe
fa00ffff
ff00fdff
fb0000fe
fc0002fb
000100ff
fefd02fd
fffe02fd
0200fefe
07fd0cfc
01fc0df8
01fe00f7
01000906
fbfbfd0d
fefbf7fe
00fe0102
fa00fa10
00fef800
05000107
fffc0000
fffb0004
01000300
010207fb
fffe0600
00000102
ff0009fd
fffe0b01
00ff0107
fd010003
0100faff
fc000402
fb0101ff
ff01fe01
0200feff
0400ff01
0001fe03
fafefc00
01feed00
04fdf600
fafffefe
0301f8fe
0101feff
feffffff
0803ff00
05010801
f900fd00
000300ff
0001fd01
fa00fefc
010606fd
03030500
00fe02fe
030008ff
01000102
0404f4ff
0603f4fc
fb04f903
0005f8fd
0607f7ff
fd02f703
000003ff
0607fc00
0002f801
ff02fc01
fd04fe00
ff0303fe
fefffeff
000600fd
00060201
0100feff
00060100
0002ff02
01fd0001
010200ff
00010302
00ff01f7
fc0000f9
fe0005ff
ff0400fb
00fffffc
00010001
0901ff02
fc0301fe
f502fffc
0502f8fe
fc03f8f9
0003fafa
080003fe
010201fb
fb03fffe
fc00fe00
fd03fbfd
0404fb01
fc010000
ff02f9ff
0105fe01
fe01feff
0004fc00
01010700
fefcff02
fa0000ff
020400fd
00fc0000
fa020101
000301fe
fd020100
f5ff00fd
ffff00fd
00010002
00fffd03
00010004
0503fff9
0006fbfc
fd07ff04
05fb02fb
05f9fff9
fffb0202
0502fa00
0704f801
fd06fd03
fffbfbfd
04fbf9fa
fe01fd01
02fff900
02f8f800
00fcfb02
f802fefe
f904fd00
04fffd00
fe00fdfd
f802feff
fefefe02
0000fefd
fc0401fd
00000000
fdff0001
02fa0501
07fa0202
fc050100
fbfb0302
00f902ff
00090003
fd04fd00
01000100
010001ee
03fbfded
ff02fefa
01010119
04faf900
00fd01fa
ff02ff07
0100080b
000000fb
faf900fe
fff8fe02
04fc0000
0001fffa
fbf700ff
00fd0001
080900f3
000500fb
020203ff
00f700ff
01faff00
00fbfe00
030500fc
010e00fe
ff05fd00
06ff01fb
040100fc
0206ff00
0105fd01
ff03fa00
ff02f900
fcfefffd
01fffafe
00fefb00
fbfafbfe
fffdfbff
0000fc00
fdfe00f1
00feffef
0201fdf2
fd00fe27
02ff0110
03fd00f5
fe02000a
fdfe0208
00fe02f3
fdfffcff
00fcffff
0701fcff
fe03fffd
fd0200fe
0000ffff
01fefe00
fd0102ff
fa0100ff
00fefb00
f8f60000
fdfa0100
0b020001
fdfffdfd
fafeff01
0a010103
020100fd
fffd0002
fffc02ff
04ff0400
00000003
fc000101
00fc00fc
02f902fe
fd05fef5
0006fe00
ff01ffff
fefd00f6
03f900f0
06fc03f8
fd010008
fefb0008
05f902f6
ff0701fa
f8080513
fe0201f8
ff000000
0000ff00
fcfc00ff
fdfa0102
fc000000
fa000000
00fd04ff
fcf90201
fcfd0103
fcf602ff
f8f80301
07f90102
000102ff
f6030301
00020302
08fe02fc
fdfd0501
fdff0700
fe04ff03
0601fffe
060401ff
0002fd04
0003fd03
06030100
fffdff00
00fefe00
02f9ff00
f70000fc
fbf700fc
05f60202
fb020200
f30400ff
fd030001
fe000101
fa050102
f307ff00
0400fd00
04fefc00
0502ff00
03fc00ff
0300fb00
02fefc01
010100fd
05fefe00
0000fb01
0002fa00
f9fdfb00
ff00fd00
fd06fe03
fc03fe00
0005fe00
00fefe03
fdfdfc02
02feffff
02010003
fdff0305
fffa0002
000202fa
02040000
00020101
00040000
080600ff
03070001
0001fc00
0106fc01
0604ff00
fbfffa01
ff02fbfd
0104fe00
fffffd00
fefefd00
03ff0000
0000fffe
fefbfe00
09fefefa
fe020006
faf80100
04fafcfe
01080204
fb00fff7
fcfa04fd
f7030101
02010303
02000005
fa0200f9
fe0300fc
00040004
f90000f8
00fd00fc
fe010005
fcff0000
00020101
03020002
f9fafffe
fcfd0000
fefd0101
0006ff00
fd0200fe
fe010101
02ff0102
fd00ff00
fefbfe00
feff01ff
010201fd
04040200
00000200
ff0400fd
04050102
0104fe01
0007fe02
0308fefd
fefefe00
fffefc00
0003fe00
fdfc0000
fff90002
fc00fe02
fd04fa01
fe00ff01
fc0200fe
fd08ffff
fd03fefc
f9010000
040101ff
0608fdfc
fe0300ff
00fa0300
f9fb0202
00fb0101
03f801f7
fcfb0000
fff90001
03fd00ff
ff00ff01
fcfd0100
0200ff02
00ffff00
f903fd04
04fffffd
0002ff00
fb01fd00
05fc00ff
07f9ff01
fe010003
fdfb00fd
fb000000
0403fd01
f8feff01
f6f8fd00
00fdfdfe
00000001
f900fe01
fc03fd00
fcf80402
00f50101
01fd0100
fdfe0102
fefa05ff
fffc02ff
fcff0005
010002fe
02010300
0202f3fe
01fef0fd
0008f6fe
0100fdf9
fcfbf7f8
ff05f801
00fc04fc
00fa0200
fffdfd02
0203ff03
fe06fd04
fe0400fd
02010300
fb0104fe
fc0000fd
fe0006fc
ff020600
00fe00fb
fffa00ff
fdfa03ff
fff700fe
fdfb06fd
fdff05fe
01fcfcfe
fdfa00fa
0200fffc
04010400
0403fc01
0100f5fd
01fcf4fc
00fefafc
0001fbfd
fe0003fd
fb01fffe
030000fb
010005fe
0307fef2
040001f9
03fdff03
fc0005f2
f9fc0cfe
00fe000a
fbfcfffb
fdfb0305
fdfef50a
0000ff02
fdfefdfd
fafe0100
00fafe00
00f50500
faff0201
fdf6ff04
00f40002
02fbfcff
fe01f801
00fd0b00
0107ff02
fefd00fd
fefa0400
0703f805
01f900fd
01f6ee03
0800f903
fe01fe02
06faf6ff
02f9fa01
05fafafe
fef9fa00
f8f70600
00fbf9fe
f6f9fd03
feff0101
ffff0200
040100fe
fc000301
00fd0101
04fd0400
fcfe06fe
05fd00ff
00fbfd00
02fa00ff
04fb0408
02fc0800
00fafcfc
02fcfd01
0005f3fd
fdfffbfb
02fefd01
0201f7fc
00000afc
00010006
0000f903
fffa0301
00ff0004
fafefb00
fa000400
fe06fd04
f909fc03
fc09feff
00fff6f7
00f7f6f7
00f8f600
02f800f8
fef4f1fe
fbf4f902
01ffff01
00f9fe04
fdfbfe02
fb01f5f6
fd00f7fd
02f9fd03
fb0006f9
feff0bfc
00feff06
fe02fff8
05040700
0400f509
060a05ff
02090ff9
020508fb
010000fa
000004f8
0000fefa
fefd01fa
fcfaf6f9
fefcfafc
00fb00ff
fefc0000
fdfb01ff
fffbfefd
f9fbfcfe
ff00f7ff
fffafd00
00fefa00
ff04fffe
fb00f302
f7fb0005
f9fff7fd
fefcf305
fdfbfe06
fffdeffb
fd00f704
fcf9f601
fdfef7f9
ff03f500
fdfdec02
fd06fb01
00fef802
fb00f8ff
fc03ff00
02fc0001
fff80500
02fa06fe
05000301
09faf402
05fd02fe
04f80103
03f2fe00
03f402fe
01f204fe
fbf506ff
04f8fb05
000002fc
fc02fdff
01020202
00000b01
02000401
0404f902
00fe0502
07000100
0300fdfe
ff0000ff
f806f800
f8020200
fc00ff00
f302fa03
f8000400
fffdf601
fbfff900
fc040001
00ff0200
01fafdff
04fe0001
00fb0502
fffafdff
00fdfb00
00fc0301
05f5fd00
fffaf700
fd06fefd
f903f9fe
fd01fefe
fefff5fd
fbfefdfc
fdfefffe
fefffaff
00fcfffe
01fb07fd
fe0204ff
03000efe
02fd02f7
05fc0806
03f80cf9
00fb00f9
04fc03fd
00fafcf3
fffbfdfe
0206fb00
0102f100
0000ed00
00fd0300
01fe04fb
f70108ff
020013fb
fd0017fc
f90010fd
00030700
03010400
ff000304
01fe0100
09fc0a01
00000704
06fe0303
05fe0d03
0601fe06
040a0000
0500fb01
02fffdfe
030300fe
fdfe0000
fbfd0301
01fc00fd
f7f90bfe
f8fe0000
00fcf400
02fce702
00fdf600
02f9f902
fef9f1fe
f7fb01ff
00010503
f9060001
f8fe0300
fd02f3fd
fe02f5ff
000108fc
f70401fd
f60200fd
000301fd
f80306fe
fc0009ff
000402fc
ff00ff00
fcfef5fd
fcfcfffb
01ff07f8
fbfcfbfa
fc020000
01fe08fc
fdfd0a01
ff020200
04f801fa
03fefefd
fffcfc00
fc0101f7
f50003fc
fc000302
fc0003f9
fe040002
fe00fc05
0200fd01
0005fc00
0300fbfd
fe03f702
fefbfe01
fcf8ffff
fb02fb02
fc000004
fefffe01
fdff0400
02ff00fa
00fefffc
fe00fffd
03fa05ff
00ff05ff
fffcfb00
fef90604
00fe04ff
00ff0101
03fd0101
01fe0603
fefe00fd
fefefd00
00020000
fffcfdfc
fd0003f9
fd0000fe
ff0207ff
fffe0101
01fffd03
00ff0500
01fe0009
02000001
00fdfe00
00fd0200
04fb01fe
0004fefe
ff0305ff
0002fffd
0000ff00
fd030000
ff01fbfe
ff02fe01
00040200
000200ff
feffff00
fdfa0306
ff000102
00ff0400
00fb05f7
00fe0100
fdfa0500
fbf503fd
fdfa05ff
01fd0002
07010204
0301ffff
fdfd0400
00000400
0004fefe
fef80002
00fffe02
fe00fd01
0103fd02
0006f906
0003fd00
ff01fd07
0001fd01
fe02fc00
000300ff
0000ff00
00fd01ff
040100fe
06fffe13
0401f900
ffff00fa
02ff020d
03010001
01fe00f3
0300fdf6
0403fbf9
01ff0603
00ff0505
fe040afd
00fefe00
000202fe
ff0303fa
ffff0900
000005fe
ff010afe
0008fdff
0304fefe
00ff01ff
ff0400ff
0006ff03
0000fd00
00070000
0002fa00
00fefd02
03000300
01fe000d
00ff0100
03040200
02fffe0a
0000fd00
000406fb
03ff00fc
02fe00fc
fefdfbfd
0001f7fe
0001fe00
00fffe00
02fefa00
01fefdff
fffefb00
02fef6ff
00fffb00
fe000200
01fefff8
0300fbf9
fe000002
00fcfffa
01fffa01
ff000301
01fc0000
0001ff02
02ff03f8
0201fff7
00020100
ffff03fc
010200f8
fefefeff
00000001
ff00ff01
fdfffc01
02ff0300
04fb00ff
03ff05fb
01fe01fd
02fffbff
02ff04ff
ff0100ff
0300fc01
04000000
00fc0000
00fb0605
02fe0b00
0300fcfe
02fe0000
03020100
03fb00ff
02fd03fd
03000300
00f90000
01eaf7fb
00f2f600
fef70000
01eafb02
02f1f801
fef909ff
00e8fc00
00effe00
030003fe
0002fdfe
ff010201
000200fe
0004fbfa
0002fc00
0100fdff
0000fbff
0001fe01
fdf90402
fef900fc
ff000101
fdf700fe
fbfafd03
fe02fcfd
fef10801
fcf60000
fdfe0300
03f90200
03fb0101
00ff0701
00fafeff
02fdfc00
0006fa02
00f90501
01f8fe00
00fffb01
02010200
060106ff
03000501
01fefe03
0200ff00
00000100
0200fd00
0000fd00
00020001
020002ff
ff00f9ff
0100f401
00020300
0001f200
fefff201
00070100
fe02f7ff
0000f0fe
00000102
000004fe
00000000
00000100
ff0001fd
000100ff
ff0002ff
00000500
ff000100
fe070001
0300fe11
05ff0104
fc03fff9
00fffd15
0100fc06
fe0101fa
fefdfcfb
ff0000fb
02fe0704
02fd0500
02fd0000
02ff0100
010002fd
0000fbff
01fd02ff
fffd07ff
fdfd0100
00fffd00
fffdfbff
00fdfafe
00fffb00
fdfffcfb
00fdf901
0000f901
fe01f8ff
fffef901
000100fe
00030300
000001fe
fe00feff
ff00f900
000004ff
ff00fefd
0004f1fe
ff02fc00
02fd0400
01fe00fb
00fcf900
0000fe00
000000fc
00fefbfd
0000fd01
ff0103fd
ff04fcfe
fe0700fe
00080002
0405fc00
000200fd
0004faff
0103f600
01040000
0000f6ff
03fef800
00ff08ff
0203fefd
03010000
000003fb
010101fd
000002fe
ff0001fe
0000fdfe
02fefdff
01fd0903
0201f802
0000fd00
fefe0700
00fefb03
000002ff
fcff06ff
ff00fe02
00000203
fd020400
fef90200
fefbfc03
fefc0300
fffa0afe
00fe03ff
00f8fc00
fefa0500
fffd0101
00040704
0000ed00
0205f1f9
0006f605
0002e6fd
0003eafc
0003fa01
ff00e600
0000eb01
f702ff00
f8f80003
01fb0003
fe020400
05000000
0400ff03
fdfd0101
0102feff
f302fbff
ff00fe00
02ff00ff
00fe01fa
02fdfdfb
050300fb
fe03fff9
0201fefd
0203fcfe
fa01fcff
0304fefd
f80601fa
02fc00ff
faff03ff
000105fc
0502fe03
fd03fffe
0afefffe
0600fd01
01f9fe01
01fdfdfb
0400fcfb
fe0001ff
02fd0102
06fdffff
04000200
04000004
03020000
0600fe04
04050401
0201fe02
01000701
03fd0dfe
00fd0100
020103fc
00ff03fa
01fcfdfb
f6fa0001
f50007fe
fb060004
f2fa0100
eef8fc06
f9fcfd00
fafafcff
fcf8ff02
01fc0005
fb00fdfd
fa070100
fa05fc03
fc0002fc
f8010afa
fd02fd01
fdfe0200
fbfe0400
0300fdff
fcfffcfd
fffafbf7
fffbfbfc
fc04f9fc
0004fcfd
04fa0001
fc01fe01
000200fc
01ff00fd
00fe0000
fffdfefe
020000ff
0000fe00
fe0200ff
06010200
ff00ff00
03fc0002
05fd0305
00fd02ff
fffd00ff
fc030000
01fcff00
fbfef3ff
ffff0000
fefdfe04
fbfbfe06
05ff0203
fdfa00f7
fbfefef8
fd06fef6
fbf800f9
faf500fa
00fd01f9
00fe03fc
fbf6fefc
05fefff9
00f9f904
f8fb02ff
f705fc00
02feff01
fbf50a04
fef902ff
05010001
00fe0502
0400fcff
0000ff00
fe03fd02
fb06fd02
000004ff
00fc0300
0200fd02
ff000700
fffb05ff
0200fb00
07000000
fe06f802
f50bfb01
05ff02ff
fcfcf9f9
fbfefa00
03000301
fdfdfcfd
02f7fafe
fe02fc01
0001fc06
04f8fb06
00fefd02
0306f900
04fffb03
fefefeff
010100fe
fb02fefd
0af8ff08
fc00fa07
fc0cfa00
08ff0000
fbf8ffff
04fffbff
07040002
faff0000
0100fffc
f504fdf6
f704fcf6
fb04fffc
f501fbfa
fc01f9fb
fc0500ff
fdfdfdf8
0200fbfa
fc0400fc
02fb00fc
fefbf800
0100fdfe
f901fefb
fafbf8fe
03f9fbfc
0203fffc
fc00f7fb
03fefafc
fe0101f6
fd01fff9
f8020005
ff0302fd
fc04fefb
f60000fc
05000000
fd0000fc
f80200f9
0101fdf7
fc00fdf0
fcffff00
fefefff8
f5fffcf9
fd00ff01
fdfefffb
fcfcfbfa
02fa0006
030000fe
0201fffd
f804fe01
fc000001
f605fbfd
fb00fdfd
01fbfeff
fb02faf9
03ff00fc
02000000
ff05fd00
ff08fefd
00000201
0201fe00
000303ff
0001fffe
05fffd00
000002fe
09000103
fa0a0005
f808fc08
01f9ff00
f10204fe
fc0305ff
fefa0000
f7f90201
03fe0400
fe02fdfd
ff00fbfc
00fefafb
ff01fe01
0600f900
fdfff8fb
04fe0001
0503fe04
ff00fb00
01000006
00020400
020300fa
01fd0001
ff020103
ff0000ff
02fc01fd
06f80201
00ff0000
03030300
020a03fc
0c0302fd
ff0100fc
0406ffff
02050005
020100fd
0bfefc00
0402fe04
fa0401f9
f9fef6f8
fdfffcf7
01ff00f7
04fcf8f9
00fdfffa
0800fef8
09fff7fa
0200fffd
0afa00ff
07fd02f7
fa0504fd
fbff03fc
fbfafcf9
fdfa00fd
fbfb00fc
ff0001fb
01fb0000
01f7fd05
fefcfe04
fa01fc03
00fdff02
fbf70001
f7fdfd00
0002fd00
fdfcfe00
fffdf900
fffffe00
0ef200fe
fcfefefc
09000101
070501ff
f9feff01
0308fd02
010bfafc
fd01fb01
fcff0003
020002fe
0000fff9
fdfd04fe
02fffe00
fb04fffb
fefffdfc
01fefbfe
fbff0000
ff000105
fe0800fe
ff07fdff
fefd00fa
f6fffa00
03030002
f9fe00fc
fbfdfffc
06010303
ff00ff00
01fdfbfc
00010201
00010000
06f9fff8
04ff02fb
fb010308
020000fe
060201fc
00fd0002
03fb0202
fffdfc00
fffcffff
05f90006
00fbff02
fffe00fa
02fc0400
00fe0001
0005fb02
03fefc01
09fa0504
ff00f702
00fefb01
05fa04f9
0000fa00
00fe0002
00fd05fb
fe000a04
fdfcff06
fbfcf203
fffc0c00
fdfafa00
00faf700
fffb0200
fbfdf5fc
fffc02ff
00fd0b02
03f7fe00
ff00f703
00010600
04fafefb
00fef8fd
f9020004
0001fbfd
fe01fafe
0004f9fb
ff0307f4
fe0404f6
fb00fdfa
fe0903f3
000503f9
0000fefc
fa0009f4
f90101f7
fd0201fd
ffff02fc
fb01f8ff
fe0003f9
06fd03fa
0101f8fd
fb0003f7
050101f5
0801fcf9
fbfc07f7
fefbfb02
01fdf500
faff08f9
01fef8fd
09fdf7ff
f80104fd
fc02fc01
0601fd00
00ffed03
fdfa0203
ff020101
fd00f603
f8fafe02
fafe0602
00fff600
f8fa0300
fbfe0b01
000004ff
0003fffd
0400fffb
ff000400
00020301
0100fd00
feff0500
ff01fd04
fe00f902
ff02fb01
0002fd00
03030701
ff04f901
fd03f800
00060502
0003fffe
fe03faff
fe040502
01000600
01030900
ff00feff
01000403
03040100
0101faff
fefd0405
02020100
0400fafc
040106fc
030400fc
03000100
03ff00fa
00fffff9
0500fdfe
00fe0000
000100fa
00fefffe
ff010101
00fd00f7
00fef7fc
feff0201
010003f5
00fffaf7
ffff0504
00fe03f9
fafff7f7
00fd06ff
00fffc04
ff020103
00000600
04fd01ff
0402fbfc
030001fc
fcfefb02
04fd00fd
00fe04fd
fc08030c
fc06f006
09fb06fc
0003ff05
f601f304
03fc04f7
fc05ff02
fb01fc00
0000fe02
00fe01ff
ff0004ff
03fe0200
fefc04fa
fd0005fb
03ff0103
fffe0900
fcff0500
02fc0afb
fffd0001
fbfcf900
05ff0dfd
03fbfcfe
fafcf1ff
02010203
03fefa00
01fefd00
01fdfd00
f9fc0103
fc000407
fffdfb00
fcfafe01
fbfcff00
ff00f702
fbff0102
00fcff01
ffff0101
01fd04fd
fc01feff
fcfcfd00
f9fdf800
fe00fd00
00fe0000
fefc0100
ff020002
0202f803
03fe0100
00fb1100
0401fc04
05000002
01ff0501
0204fd02
02000000
09fd06ff
fc000500
00fd0000
fc00feff
fdff03ff
fefbfafc
fdfdfd01
00000500
00fdff00
ff01fd03
fc000300
fc0108fd
fffdf9fc
0003fe00
fa0006fb
0100fffe
fefeff00
f90006f8
feff01fa
ffff0702
0000fe00
ffff05fe
010006fe
00fefdfa
000005f9
03000804
01fdfafc
00fe08fb
fefdfa05
00f9f808
fcf9f503
01fd0302
fdfa0300
fafe0000
00fd0300
00fb04fe
fdfc0800
05fbf401
03fcfd00
02fcfe01
fffbfe01
fdfdfefd
03fcfe00
02fa00fc
feff0000
02ff0000
0300fe04
fefffb00
fd000200
08fe0006
0000fcfd
feff02fe
07ff0505
03fe01fe
00fe04fd
0000fc02
05fe03ff
01fc0afc
0002f804
06fdf9ff
01fe01ff
0000f100
0200fe01
06ff02fb
02030501
00ff0201
fafff800
01020000
ff0003fe
fc00fdfa
010003ff
fd01fffc
fb0000fa
03ff02ff
060002ff
fd0101fd
00fe00f9
0df900fc
0300fdfc
fa010000
ff00feff
fe0001ff
fffb0700
f9fefe01
fbfaf002
01fb0700
fdfe03fe
fefbec00
00fe0900
f900ff01
ff00f504
0200f600
fd000001
00ff0700
0001fc03
fcfefe00
fc010002
00fefeff
fd0001ff
fcfd06ff
0204ff05
06fffbfe
09f9fffb
00fe0001
00f6f700
04f6fcf9
fafffd01
fbff00ff
f900fd00
02ff0502
00000cfc
feff00fc
fe0005fe
00fcfdff
04fffa03
fe00ff01
04fffc01
0500fe03
00000100
fcfc01fe
02fffe00
fe010200
fffcfc02
01000003
01010100
000100ff
0001ffff
fd00fffa
f7050204
fa020502
f60000fa
f90301fa
f5040305
f9fdfc03
000302fe
fc0201ff
02fb06fb
00f7fc05
00f9ff08
fdfd02f9
fafbf6fc
00fb0002
fa0003ff
fbfffdfa
fe0001fb
fa010100
edfc03fb
f70003fd
f7000102
f4000aff
fc010406
f5ff0001
f7fc04fe
fa0005ff
0afa03f5
08f7fd0c
0ffeff01
01fdfdec
fcf7ea11
00fffb18
f70000ea
fa00f6fb
f803030e
010000f9
01010004
fd010303
0000fcf5
01000300
fcff0104
ff04fdfb
fd0106f9
fffe0003
0505fd02
fb03fcfe
fcfffff8
fe00fe03
f8fff9fc
0102fc00
f900fe01
fa02fa00
0503ff00
00fd07f8
00fcf705
fafe0501
0100f7f6
fcfbe704
00fffe0a
ff0301f8
fe03fafe
01020705
fffdfb02
fefc00fe
ffffff00
feff0003
fbf900fc
fffb00fd
040100fe
ff0002ff
040002ff
03fefff6
fdfbf501
fffbf40a
010000f9
ff02fbf8
fe03f902
00010403
040403fc
0203fcfd
04fffbfc
050302fc
0700fb04
06fc0400
000008fb
02fdfaff
01fcf9ff
fafffc00
00fef600
00fc0b00
f9fdfffd
fe000400
000000f9
ff01eafb
0000f305
0401fff6
0003f1f8
0203fa00
fcfc00ff
00f903ff
02fc05ff
fbfdff00
fbfc0000
fa000000
01000000
ff020402
fc000001
00fdfffb
000503f9
00050302
010000fb
fc0404ff
fd030104
0600fffd
080101fe
06000107
ff060303
fdfd03fe
00fd0404
07000103
02f800fd
03fb0100
07000105
06fe0001
020300fc
fe00fbfe
ff0702f9
ff0501fe
fdff00ff
fb010500
fb000100
03ff0003
00020204
ffff0300
fbfffd00
fe0000fe
01010001
fa02fc02
f702fdfb
f60000fd
fcffff03
fa01fe02
fa00fe00
0005fe02
fe000001
01000000
ff00fe01
fafefc00
0500ffff
f800fd03
fe00fb00
000101fe
f80000fc
f6ff0300
00fe00ff
ff0103ff
f900fffd
fefe0001
fe000301
fa000100
fd0000ff
ff010000
ff060100
00030001
fe000100
00020000
000001fe
0100fffd
0203ff04
01000003
030508f4
020909ff
050302fd
fe0409f0
fd00fe06
05fd0112
f70207f6
ff00fcf8
05010302
0104fb04
fb00fe02
00fd00fd
00fdf801
fcf4f901
fef600fa
00faf905
fffbfc00
0200fffc
03050107
fa040008
000100ff
fd030201
fa010105
0203ff03
fb0103f9
fc0400ff
0102ff01
07000006
02010202
f9fe02fd
00fefd03
01ff0200
fbfe03fc
ff000000
00020501
0000ff00
00030003
03fb0100
00fa00fe
03000001
05fbfc01
01fbfdfc
0500ff01
05020100
0203ff00
00fb0200
0afb01fe
03fefefd
00fe0502
03fa00fc
fdfdfffd
fe000607
fdffff06
fa00fffc
02fe0204
00fc0500
fffcff01
ffff0005
00fc0efc
fdfe03f8
01fefd09
fcfa0400
03fd00f8
03fdff04
04f9ff01
01fdfd01
06fafd00
03fefc01
01fe00ff
0401fe00
0203fe00
ff020100
0400fe03
0502fffe
0301fbff
fa00fb03
fc00fbfc
fdfff9ff
fd00fb02
fefffe00
0100fbff
03000300
fafefeff
fd00fdfc
fc00ff02
f2fd0302
fcff00fb
f7fffe01
f8fc0300
02fdfffd
fdf80100
00f500fd
01ff0300
01fa0000
fff405ff
fffd0306
00fbf800
07fdfdfd
0000fa00
fd00fd05
000201fa
01fb00f8
fc00fc03
fc06ff00
fd0400ff
fdfefa03
fc05fe00
f807fafa
ff00000b
01000302
01ff00ff
05010000
07000400
01fe0400
fd010009
0b0001fd
05fefffd
f90001f4
ff0003fc
fc000004
f40000fe
ff0003fe
00010103
fdfffefe
01020000
00010008
f70101f9
f5fefe00
01fbfeff
f80200fe
f7fffc00
01000003
040403fe
01030001
08010200
05fbfc03
01f60003
02fc0008
fff7fe00
fff40200
fdf803fe
05fbfe00
03f70005
00fa0305
01f7fe00
00fd0109
0bfefffe
fb00fffb
f8060403
fc050102
0104fbfe
fd0a0403
0006fffe
f5fefff4
fd000000
fcfc0003
f90303fa
fcfc0605
03fb0009
0101fff8
ff0102ff
f9fefe00
08fefb08
faf8fd00
f9fbfcff
04fdfa01
00f8fdff
f5fbfb00
08fbfa03
0afdfdfe
f5fffefe
feff00fd
fd020500
05fc0001
ff000300
fd070cff
020000fa
00fffbff
f8060303
0000fb04
fdfef8fe
02fefcff
fcfefd03
f6fefb00
fd00fbfd
f9fdfdfc
f800ff03
ff01fefc
fdfbfe01
ff00fbfa
f4fefb06
f6fdf801
030300fc
f200ff01
fa00fefe
070404fc
f9060202
000201fd
fcfdfdfb
06f6fc06
06fefd00
f5f900ff
fef0fe00
02fc00f6
f3fd0400
f9fa0109
04030001
010006fb
f4f607fd
0af60100
fffe02fc
ebf707fc
fcfafef9
0a00fdfe
f1fe0300
0000fe02
fbfd05fd
09020603
05030100
fa0205fd
070208ff
04030200
f9020001
09010300
ffff0000
fb05fefb
ff09faf6
ff02f6fc
01010206
0108fcfe
0000fb01
06fe01fd
fd0300fc
02ff0000
f900fdfd
f90100f7
fc03ff00
0100fbfd
fb0000f9
f7030100
0700fcfd
0401fdfd
000300ff
0000fdf2
0500fefb
0000fdfd
fb0100f5
04fffef6
010000fc
fd0000fc
040001f6
03ff0202
fefc0001
04f8fdfb
fffdfdff
fffbfd03
04f8ff00
00fcfe06
fffffb03
00fbfb03
00fcfd02
ff00fd03
fffefbfe
fcfefd01
0503fe00
ff01fd00
fc00fb02
04010102
feff06ff
f9010302
00020006
fe04fe03
f5050100
0204fe01
fc04ff02
fb030003
01060106
00020309
04fe00ff
fe020002
fd020001
00fffd06
00020002
fe020005
0001ff04
00ff0204
00020001
00000006
02fffefc
faff0200
01fefc05
010102fd
f7090400
fc040002
07fc0000
00050100
0000fd02
fdfdfd00
0dfdfff8
040000fb
fcfcfb00
0cfdfffc
0300ff00
f7fbfc00
08fbfcfb
03fdfd00
fe00fe01
00fffefc
fa00fcff
f8ffff01
fdfdfcff
fb01fffe
04fffd04
00fdfd00
010100ff
fa0101ff
06050500
06020100
fd03fefb
fd0505fd
fc0203fd
000004fa
000607fd
fd0405f8
f701fc03
0200fcf9
fa0000f6
f8020005
0600fefa
000100fb
f600fe07
0500fbfa
0201fbfa
fe010000
fbfe01fe
fe0000f8
00ff0201
00ff0003
fa00fb00
02ff0501
0dfe0302
03ff03fc
fa0000fc
fbfefcfb
03fc0001
00fc00ff
fffefe00
05fe02ff
fffd0000
fffafd00
03fe0001
fefd0100
f6fa05fe
01fefefa
fbfd05fe
f5fd0701
fb04fbfe
ff0100fc
fa000200
f900faf7
03000001
0bfcfffb
00fd000d
f4000000
06fb00ef
07ff0200
f5fffc07
ff00fcfd
00fffe05
fa0402fa
ff00fef9
ff00fefb
f70000ff
ff01fcf9
02fefaff
fe0000fd
0700fefa
03fefdfa
0000ff00
00fd0001
00fffe00
00000200
f8fcff01
00fffc00
060505ff
fb040700
ff030100
00010200
03030700
00fe04ff
010005fe
fdfbfcfd
02fcf600
fe010000
fd02f500
0006f7ff
00010001
00030001
02fe0001
fe010202
f7000201
fdfcfe01
0000fe01
fb00fd00
fdfffe00
fe0000fd
fe000000
fb000001
fdff0201
f8feff03
fdfeff01
00000001
fdffff00
fe000002
01fdf902
0402fd01
0402fc00
00fffc01
ff020202
000102fe
fffffafe
ff00fbfe
fffff5fe
fffeff00
fefefa02
00fff901
fc00ff01
03ff0f03
fdff09ff
fa01fe01
02000a00
ff000102
f3fefe07
fc000502
02000301
f0000305
edfbfd03
03fefa01
fc020904
f7000104
0101fe00
fffffe00
00fcf800
ff00fb00
f902fe00
f8fffe02
fd0201ff
fa02fefe
fc030900
ff000800
00020000
00000101
fe000301
0300fe01
fdfdfc01
01fffb00
00000202
0000ff02
000000ff
00000400
00f7f600
00fb08ff
fa00f600
fbf6d600
fd00ef00
fe010100
0004e5ff
0202ff00
ff0006ff
03010700
05000600
00010000
f703ee00
0502f800
fd030000
fc00f102
0201fc01
f7fafc02
f20efd04
f40ffe05
fef7fd03
f70a0606
f9090301
03f6f701
04fd0001
fffafd03
0000f301
0007fe03
fb00fa01
02020303
07002a03
f8000601
fcfff401
00fe1203
f5fffc02
030001ff
05fd0500
01fb0bff
0004fe00
02f8fb00
fcf8fa00
fe050000
fc00fe01
fb00f901
0001feff
0000fffd
fdff00fe
ff03fe01
0100f400
0001fb00
fd01ff00
fd03fa02
0000fc00
feff0200
0605f8fe
f902ff00
03020400
0a02faff
00fffd00
fb010200
0801f900
fe00fe00
fb0002ff
fd000400
08040400
f30200ff
f0ff0101
06040500
fb000000
f0000001
02030401
02feff01
03fb0200
01fd0200
02000100
fefb0b00
03fd0500
00000100
fefb0001
00000300
fffe0101
00fd0100
040000ff
01000000
fefdff01
00fdfe01
03000200
fefdfe02
01ffff03
fe010100
fe010102
00040000
01fefe00
fa00fd00
01000200
fe0000ff
fc00fc01
00020000
01020200
0000fffe
01fefdff
020204ff
faff00fe
01fdfcff
0501fffe
ff000000
01000200
fc0100fe
00feff00
fd00fdff
fb00feff
fbfffbff
010200ff
fb000000
fefffb00
00010100
02fbfc00
04fcff02
ff01fd00
06000201
fffd0001
fd000301
04010001
fe03f904
fa00fd02
0400fdfc
ffff06fe
050002ff
fdfefdfe
f00001ff
00ff0300
04fdfc00
f3fe0000
00fcfe00
0000fbfd
01fd0100
01fe0000
00fe03ff
fefe0602
02ff0201
00fe0400
02ff0100
04020101
00000001
04010000
00ff0100
02feff00
02fb0000
fefe0200
00010100
03000100
010000ff
fd0100fd
f700fcff
0000faff
f8fe0000
effff7ff
fd00f901
00fdff00
f9fef901
02fdfa02
ff0202fd
0501fcfe
00fe00ff
fe020000
030002ff
00fefdfd
00010000
00000300
000306ff
ff0001ff
fc060000
fe03fb00
00030200
fd031601
ff020801
0002ffff
00030d00
ff020200
fdf8fdff
02f80100
00fefe00
fbfa0100
fcf40801
00fc0600
fbfdfd00
fcf60001
00fdfeff
010003ff
000301fe
00000200
00fffeff
ff010000
fb000001
ff000000
0001fe00
fe03fe00
fe00fcff
02fffe01
00060000
00fcfa00
0000fc01
020806ff
0000fd02
01030200
05010500
0000ffff
f7000200
00070201
00fcfe00
fbfffa02
fd050101
03fe0000
09000001
fc010506
020bff01
00000008
00f90109
fd09feff
00fffafc
fdf9fc00
ff0200f8
fafd00f7
01fd00f9
060000ff
fffbfe06
02fafc00
00fd00fb
fffb00f9
fef9fc00
fefc00ff
02ff01fa
00fdffff
fc000006
feff00ff
00fc0001
010400ff
f400fc00
fafefd04
0603fffd
0201ffff
03010003
fe0001f8
ff0300fc
fe07fff8
00000003
000b0000
000800fd
04000009
0905fe09
0102ff06
0204ff01
01fe0003
03ff0104
00fcfd02
01fffcff
01fbfdfc
fffdff00
fffe01fc
00fcfffe
05fafbfc
08fdfbfd
06fdfcfd
010000ff
010100fb
02fe02fe
fe060400
fb0000ff
fafd02fd
fd0a0107
04fb00ff
03f90202
fa010004
fc060000
02fd01ff
01000001
f80efb01
05fafd00
0103fefd
04fcfd01
05ff0001
040000f7
010400f1
080bfffa
ff0000f9
fe0802f3
030efef5
06fefffe
0bfb00ff
040001ff
fcfdfe03
04f7fe00
01feff00
fa03fd00
f6fafd01
fa020000
04ff02fc
00fe0404
01030303
02f901fb
00fb03f8
00fe0200
faf80200
fbfe04ff
03000300
00fb0002
fe00fffe
fff9fdfe
00010105
fb030002
fefa0001
00fb0100
03000003
02fd0003
03ff00f7
02fdfbfc
ff0400fa
07fd0002
0704ff03
0002fefe
f8000107
fc000207
feff0002
fffffff6
02fbfcfa
ff07fdfa
fd03fe03
05fefa00
0009fdfd
0002ff06
f8ff0001
fd000001
01fc0408
01010701
fe0404fe
01000004
0affff02
fffb0403
05060002
0cfefe01
00fd0001
f7f70204
fcfd0403
fcfa0101
fafe0104
fe000405
fff90201
fe01fc00
f9030003
03f9fc01
f9fbfffd
f9f802fd
00000202
fcfa00fc
f8fc00fc
fe010100
0ffa00ff
09fd00fe
00000200
fd02020b
fc010601
fd020300
03fb0404
ff000c04
fe050304
08000000
0c00fe02
00020002
fe000003
fa040008
fc070206
0504ff04
fa05ff03
fc050208
06000005
06fd0303
01010002
010000fe
06f1010a
01f50102
fdfa00f2
04ea00f6
02f900fe
00f302f8
edee02f2
fa0002f7
000002ff
04010201
04040000
000001fd
010303fc
fd050200
03000604
fa0003fe
f80002fc
ff0000fe
fbfd0000
fffc0101
ff00fffc
fefa00fd
000100ff
030100ff
02fe00ff
05000000
fd04fffd
01fefefd
00fffefc
fef8fffd
0001fffc
0104fffb
fafbff00
fcfefe01
ffff0000
fff80001
f6fefe00
f7fe0005
00f9fd02
fcf7fb00
fa01fd00
0900fd01
0b00fe02
0007fd00
000306f9
000505fd
fe0702ff
fa0004f5
fafd03f5
fd0903fa
fb0005f9
fe0606f8
020302fa
00010001
ff00fe04
01fa00ff
fc00fdf8
fefc00fc
00fe00fd
fbfaff00
f3fcfbfa
000200fb
fcfc0004
fafafd03
f8ff0003
01f7fe00
06f8fbfe
fdfefdff
f8fcfd00
0afcfefc
08fefdfd
08fc0000
07f1ff04
07fafe03
00fcfefc
00f7fffd
02f90000
fefcfc04
00f5fe00
f8fbffff
fe0001fe
ff0001fe
00fe00fe
fd000101
fe0000fd
00feff00
07000005
fd01fc00
0204fd02
01fe00fc
03f803f9
00fdfefd
fdfffd00
00fefbff
03ff02fd
fd0004fe
f9000200
000402ff
fe020002
00040000
fcff02ff
fe02fe00
08fffffe
fefdfe00
fafffcfd
0a00fbff
0cf9ffff
010900fd
fd020001
0000ff02
01feffff
fffffefa
fb00fcff
fdfcfd01
fffffefc
fd0000ff
f90e0109
fbff0305
ff0002fb
fd02fe08
f9fefeff
fd02fbf8
01050006
fe02fbfc
fb07fff9
0301fafb
fefd00ff
faff0005
05000101
00fcfc04
fdfffe01
03fd0105
01f90204
fdfb06fd
02fe00fb
ffff0202
fefe0001
01fffe00
ff00fffe
fffafcfe
01fdfcfe
03fbfcfe
fffdfe00
f600ff01
f700fe03
ff01fffe
fc010009
fafb05fe
fdfe07ff
fffe0602
fcfb01fd
02ff08fa
fe0303fa
000002fe
000303fe
0001fdfe
fc02fdfd
ff0400fd
000300fc
ff0200fa
fd060000
01000005
03060205
ff060101
03060006
0008fdff
ff04fef9
0203fd04
0100fffc
010100fe
03fc0afe
02f50700
05f80501
04f7fb00
fff1fc00
01f8f7fd
01f8fb00
00f7f801
00fcfaff
fe02fd05
0002fdfd
0303fefa
00030105
00fffff9
fdfffe00
fe0003fd
fe00fefe
fdfd0000
0402fdff
0001ff04
fefffe01
0200f901
0001ff05
fe0000ff
fe00fa00
fb00fc00
000000fe
fcfe00fe
0107ff01
03010000
ff0400fe
feff0101
01fd0100
000002ff
00ff0102
02ff0002
0000fc00
000000fe
02fefe00
000100ff
030200fd
02000000
fe02fd01
ff0000ff
0100ff02
00fcfdfa
00fcfbff
00fffc02
00fdfdff
00fdfefe
00ffff00
00fc05fc
00ff0501
fd000006
01f90100
03fd06ff
00fe0600
00fbffff
00f7fdfe
ff00fc01
fffdfafa
fefefbfb
0101fe02
00fd05fd
00fd0403
03ff0700
fc02fd02
fb00fc00
fefdfb00
0100fefd
fd01fc00
fffff905
f9fc0003
fdfd08f7
02fe04fd
000108fc
fbfd04f8
feff0502
03fc08fb
02fe01fc
fefe0603
f8fe00f8
f900fefe
fdfffe00
faff03fe
f8010303
fc030003
fa0103fe
fa050001
fd030004
fc050106
fb030209
fdfefffe
fbfdfe08
fefe0000
fffffffc
fcfbff06
f8fe0000
fcfbfe03
02fdff07
05fcfdfe
fdfd06fa
05fd0405
fffb06fa
00fd00fd
07fc0602
fcfa00fa
fcfb0000
0101ffff
00f9fef3
00fcffef
02f904fa
00ffffe8
0000faf3
03ff00f4
05ff00f4
fe0001ff
00feff01
fe050002
0100fe00
0101f602
0004f5fe
0302fafc
0207f505
0001fc00
020201fc
00fcfb00
00fefffc
00fefffd
00fffcfa
00fef9fc
00fef9fb
04fffdfc
04fcfb05
00fefd00
fc03fffb
f9030501
ff0000fe
fc000002
f8000500
fe0000fe
fe000000
f70002fe
fa0101fd
fc020600
fd0401fc
00fc02ff
000000ff
fbfdfffd
fefb0000
0000fc00
fffdfff9
00ffff03
0003fb0a
01fffc06
fffe0102
0000010c
00fa04fd
fffd02fc
02fcff07
fefb00f5
ffff03ff
faff05fa
fefe020e
00fdff03
fefc0006
00fc020a
03ff0605
ff000008
feff0408
03000001
ffff00fa
fffeff00
fe02ff02
ff01fafe
feff0201
fe000305
fe010205
fffd0405
feff0600
fc03fe09
f9fffe06
fb0000fb
fffffd09
fcfffbfe
fafefbfd
04fdfc04
fefcfcfc
fefd0000
0004f9fc
ff03f704
00fefb00
0203f4fe
0000f501
fe05fafb
0302fa00
0200fefe
ff03fffe
fe0302fd
fc0603fb
fb080300
010205ff
fc020001
fa000502
00000003
fc030400
fc020200
0000ff01
ff0002fe
00fe0100
fffd09fe
ffff0406
fc0000ff
00ff0500
fe03ff03
fb000003
f9020504
fc00fffe
000404fc
fe04070a
f80302fc
000205fc
fe000406
f8fefefa
fb0302fa
04ff06fe
04070300
01030005
020301ff
0402fa02
0500ff00
0207fefe
0303ff00
030502ff
03ff0001
01feff02
f7fdfe00
04fbff02
05f5ff09
f7fcfe02
0100fffc
02fefe09
f9fefe02
fefdffff
040a02fb
fffe02fd
0308fcfa
050aff00
fc0100ff
010100fb
01ff0104
ff00fe00
01fd02fb
02000100
000000fe
03ff04fa
00fb0500
02ff0300
01fd0301
ffff0803
00fdff08
fe00fe01
fb02fe00
fe00fefd
fb0102fb
fe000001
040000ff
f50002f6
fcfe00ff
0400fe0b
ff01fc00
f90001f2
020005f8
02fdfa07
fdfd00fb
04ff04fc
ff000303
ff020000
01ff04ff
0702fa03
fdfffefc
f7fefd00
01faf802
fbfffe00
fcfe0000
02fc01fe
fd000502
010003fe
0b02f8fb
ff0200f8
f70002fd
0e01f200
0203f7f4
f30200fb
0902fa0a
0205fffb
f60002fc
030002ff
fdfa0000
f800f902
03f203fe
fe02fe00
0006fc06
fdfb02fa
ff0800fa
0004ff04
0000fb07
fd00feff
00ff0003
fd02fb00
fb030005
fbfcfc06
0002fcf9
fc01fffd
fc02fe01
07010000
ff010100
ef000102
0b02ffff
00ff06ff
f1fc0001
050100fd
00fb02ff
fbfdfa00
ff000605
fffb0303
00030100
00f60100
00f60200
fffdfe03
03f800f9
00f600fb
fffcfe03
f7feff06
fa00fbf9
0800fc00
faff0105
fd05f8fe
060000ff
00fc0b09
01030301
020003fa
f6ff03ff
050002f5
05000002
f4fefe00
080100fa
0202ff03
f6fc0204
040100ff
0003ff05
000100ff
fefd00f6
000002fd
00000005
fefafffb
03fc00fc
0000fd08
fdfd0003
03fdfffc
05fc00fc
00fc0301
fd00ff00
070003fe
02010307
ff000003
ff0906fd
00040307
fffefd0a
fefc00ff
fc0000f3
0104fbf6
02fd0202
0003fffc
0302fa00
00fbfc09
fc01fdfc
02fdfa04
01020008
010307fa
000104f9
00fe0006
fffb0403
020104ff
fffefd00
01f80509
00fe0301
fbffffff
ff0300fd
010001ff
fffffcfd
fd020000
020203fc
ff03fcf9
fe02ffff
030104fc
fffffb0b
fe03fdf6
0000fef5
ff00f909
0401fb08
02ff00fd
fe02f506
03fff90c
00feff03
02fa05fe
02fe0500
00ff0000
00000002
fcfd0001
00fefc00
04ff0003
fffc0405
ff0003fe
03ff0500
030007fd
010004fc
00000102
020106fe
01020600
04030204
02020203
02000400
fffa0104
fffd0000
fd00fff9
fffb0103
fffbfe03
00000004
fdfc0000
fefeff06
fd00fc01
040001fe
f80102f4
f7ff01fc
0cfbfe03
00fdf8fa
f300fdfa
06f50002
01fffb01
f701ffff
0004ff0a
fe01000b
05000301
000000fb
00fa0007
03fe0204
01fefef9
fcfb0104
00fc0208
fe04faff
fd020100
00030301
fd0200ff
fb000200
04020500
fdfffffc
fffff9ff
0000fe04
040000f9
02000402
000003ff
03fe08fc
000704fe
ff0005fd
04000303
ff0307fa
fe0004fe
0001fe00
01faff0e
fe000006
04fffdf4
01fbfe05
01fd000b
02fefff6
01fbfcfb
02ff0106
05000001
f904ff01
fb00fd00
030bfd00
00feff02
0202ff00
ff030100
0000000b
0000fd02
ffff05fa
000104fc
020000fe
faff0000
00fd05f7
000203fc
fa010302
fd0008fd
000303fa
0200fd03
ff000000
0200fffd
030000fc
fbff0301
fffe0100
00fb05f9
fcfb0102
02fe0002
fb06faf9
fc00f908
0700fa00
fd00faf6
fefff90e
0700fe07
fdff00f5
f9fb00f7
06fe0200
08fd0001
fafefff9
fefffffc
03fafffe
f10100ff
0001fdff
0101fcfe
f701ffff
00000201
04faffff
00f1fbf9
07f7fe01
0009fbfc
ff06fdf7
05ff00fb
04ff0001
000f0307
04ff0004
00fcfc01
fef9fcfd
fff80600
fffcfcff
fffa0206
fffc0501
fdfd0800
fe040900
0002fffd
00000002
0100fef3
fc03fdf5
00fdfd01
fefef709
fb00ff04
0100f8ff
0000ff0f
01fd010d
04fc0000
0000faf9
fc00fc02
03fd0202
fd02fdf2
fd01fffd
010102f7
fefdfcfe
00ff00fa
f8fd0508
fcf8fe11
fd00f704
fd0200ff
00f6f8f8
fafdf803
000afcf6
ff0afcf1
fd02ff01
f901fd00
fc0203fb
ff0204ff
fbf802ff
ff0304fe
020002fe
fff501fa
00fcfeff
01fafbff
fbef0a0b
f9db0212
00ebfd03
fc0704fc
fb04fefe
00fffa02
fe03fff5
fb19faec
ff04f900
ff06fd00
fbfcfffc
05fefe00
fe00feff
fb000000
030400fb
04f604fd
02fc0702
00000100
0100fffc
010100fa
000008fd
00ff0001
000002fe
020308fa
00f9ff07
02000b06
05010901
04fd0301
02f40100
fffcff01
020306fe
0009ffff
0100ff00
fffb00fd
0004f9fc
0100fdfd
fdfb00fc
03f1fcfd
00f902fa
0000fcfa
06f7f8fe
00fe05fd
fc03fc00
00fefe00
fb020200
fafd05ff
fbfd030c
fbfafe08
fd0104ff
ff07fbfc
fb01fb02
fffd01fb
fd06fdec
f900fdf0
00070809
020d0209
fe02fb03
07f500fe
05f4f9fd
00f5fb00
08f3fafc
04f4f4f9
fffaffff
ff010500
02fe0402
0200fd02
00ff0001
01fa0001
03fefafd
010100ff
01fefcff
02fdf7ff
0603fc01
0700fffe
040100ff
030bfefe
09060304
01040201
020003fe
020b000b
fd010003
fcfc0003
0d06fe07
0402fb03
ffff0000
0903f6fd
0103f700
f9fc01fc
00f8fdec
fcfcfff9
00f6faf8
00f8fdf4
00ff01fc
0000fa00
0103fdfe
0004ff01
000b000a
01080308
fd050105
00fc0000
0202fdf8
fffe0000
fdfafe00
00fafe00
fe0002fd
0002fe02
00010705
fe04ff00
fd01fcfd
05fffcff
05fdfc04
02fcfcfa
04fff7ff
04fdfa04
02fbfa01
01f9f800
fffefd01
000803f8
feff00fc
fe040000
0000fc00
ff00ffff
000000fb
00f9fd07
00fdfe05
03010201
000802fb
ff0001fd
00fa0400
020001ff
000501ff
fe0500fd
00fafe03
0002fb02
fd02fe00
00fffefe
00fffdfa
0000fefa
0100fcff
02fffd00
0000fc00
0002fc01
03010406
01000501
ff040200
f8f5030e
f6f70305
fc0303ff
f7f80202
f7fb0006
fffc0204
f804fef4
f801fdf8
00f6ff01
fff5fdfa
00f60301
ff0000fe
fefcfdfe
000202fe
fd0800fd
ff0a0204
000a0702
000201fd
010501f9
ff0000fb
01ff02ff
020005fb
fe0203fb
00ff04fe
00f80b00
00fd0000
01fd0400
000200fd
01fefefc
01fd00fe
00fcfbfc
ff010000
fefe00fe
ff050602
00030003
00fdfffe
02f6fff9
01fa03fd
00040202
00000104
02030a00
fe060902
00020e07
00020400
fe00fdfd
0100fd03
ff0402ff
05040000
01fffefe
ff000100
0302f906
fefdff00
fefb0001
ff000009
0209ff05
0103fe04
03000000
07fdfe03
00fe00ff
03010000
04f500fc
00fd05ff
02f602ff
00fc02fc
06fd0101
00fffe02
fdf90004
03fdfffd
0208ff02
0103fc05
000001ff
00fb0003
fdfdfe00
01feff00
fffb00ff
fdf60201
030101f9
000205fa
06000600
0000fdf7
00ff0202
00fc0405
00060600
00010004
00000300
02020602
fd040200
fd0000fb
00fb0001
