00fe03f7f300f7f1fb
00f5fefefbfafcfcfc
fb000000ff03060200
fe0300fc00fb0001fa
fffd01fcf7fd00f8fc
fdfbfefef6fb00f9fd
0200fa0805ff0c02fd
fefe04fdfcf60200f7
00fffe05fd00fffc03
020000fcfd00fbfbfb
01fbff03fd0002fdfd
010406fcfc0401fa00
fefd0300f800060200
f6fc07f8fa05f8f906
010203fffeff0201ff
0702fa0306fd0207fb
04030600fa0500fe00
02060000010201fffe
020301000007030301
fff50100fc00020504
fefc05010002010002
03030200fefe0000fb
0606fb040aff0000fc
fe0001f9ff04fbfe03
03fefc01fd00ff0003
f6f9fff7f4fdf7f800
04040300040301fc04
fdf800fffaf900f8f9
fefd03f5f100f4f3f9
00fd04faf2faf9f4fb
0000fcfffdfafd01fd
ff00fefffd0201fc02
01f5fb020708ff0705
f9f9fefe0202000a04
faf70101feff010afd
fcfe00010606fe0704
fffc00020300fcfcfc
030ffffefafe00fe03
00fe000002000102ff
fdfd00fdfd00ff0000
0400fd020007ff0808
fe0d090403fe00f3f3
01fe0405fc0006fdfd
02000300ff01fef9fb
fe060a02000000f6f9
040700fcf4f5f8f303
00fefe03fd010002ff
fc0702010403fefafc
01faf606fdfe03fcfd
fef9fe00fdfcfd03ff
fdfe000402000303fc
00fe0001000000fd00
fdfd00fbfafcfcf8fb
fe00020400000000fc
fc04000000fcfffcfc
f8f1f6fc020a030806
fefd0001ff06fffb00
000000fffffffdfdfc
fff3f8fefc00000300
ff00000200fafe03ff
01010204fd00fffeff
01fffefdff01ff0003
01fdfdfff800000000
0100ff000000fffff9
00040400f9fffd0001
0000f800fefcff0000
00fe0000fcfefefefa
fdfffffc00fefefd00
0001fe00fcf9030501
fe0200ff060002ff01
000d03ff02ff020301
fbfefafafdf7fefd00
0303fc010405000601
000001fd0302fdfc00
040804090a03070600
ff000002fc00050300
00fffd0100fe0004fe
0203030503060000fc
fafc00fefc00fefaf9
fe0afdfb08fffb01fd
ff02010001fffe00fe
faf9fbfcf3f7fefefe
ffff02fe00000103fd
00fdf9ff0100fefcf8
fdfbf801fcfd01f4f5
ff0001000201fdfffb
fb0603fefd030001fb
04020200fe00000001
0301fbfffffbfff900
f8f3edf7f1ecf8f5f9
fcfcfbfefefbfefa00
fffbf400fafa00f9f4
02fdf9fbf5f6fef9fe
01fcf8fdf7f4000402
000300000200020609
02fe000400020305fb
0701fd03fdf800fefa
000000f9fdfefcfe01
fefffe030201020402
04ff01f7f8fafd0003
010000000204010005
fd01f9fe00fbfd00f7
0400000603010a0402
02fd01fffdfd03fefc
0500ffffff0100ff03
00ff0200000301fe01
02fdff0000000200ff
03ff03fbfafc00fb01
02ff0103010101ff00
02040300000100fd00
0100000802ff0703fd
fdf503f2ebf2f4eff6
0805030101fafef7f9
f9f5faf8f8f9f9f9f8
fafb02fbf8f500f8f6
00fdff000002fe0303
fbfdfeff00fe0300fa
030509fb0002faf7fe
02fcf9fffbfb02fdfd
0402020100ff05ff00
fdfef8fafef9fdfcf9
04f5fe03fbfe04fcff
fe0100020002fefbfb
02fcff020302010202
faf9fcfdfdfffff900
fffc01faf9fdfff801
f9f8f8000205fd0305
fff3f8fdf1f7fdf3fa
00fdf9ff00fafb0000
ff00fe080304fefc05
fd0000f7fdf900f4fc
00fefc030303060104
fef9fa0506ff010405
fb0607fdfdfc0a0101
0701fd050400ff0005
fd00fe01ff00050004
ff01fcf4f8f5f2f7f2
0000fd04fe01020100
050402ff00f9fbfaf7
03030502fe020303ff
030003080201020000
fb01fe0200ff000001
00ff0101000206ff05
0102fe030300fefefd
fffef9fffbf70003fb
fd0301060205040303
fffc05ff0200020103
000902f1f1f3eeecea
000000faf9f5f6f5ed
0104fefe03fb0002ff
06fffa0a0600fc0206
02000003fd02020001
0102fb00fbf404fcfb
fafbf7f3f9f5f4f4f8
fefd0100fe00000000
faf901f7f1f5f1f3f0
fcfafb01ff01010201
fd00f7020002fcfd04
fcfcfdfefffe00fe03
000400f4fdfbf7f6f4
fd01fc0004fffd0000
f8f5fffa0400050bfe
fa00f903fc0405020a
f80104fc01fd0702fb
0b0e0005f9f9fbf2fa
0000010000ff0402ff
13130c04fd00f7eff4
fb060201050105f7f6
fdfb0003000206ff00
030601ff0001010000
fdfafe000103ff0a06
07040103fe00fbfc02
0601fdfcf8fbffff09
03fafbf9fafdf90206
fc0000fe03030001ff
08030001fb00f3f8fd
ff0100020200010202
ff0001000003fffcfd
f8fdfef7fdfefd0101
f8f9f4000103ff0001
04fcfc00fbfffc0202
0100fdfefdfd000104
0d0101faf1f9f1f800
fd02fe0401fe0300fe
030003fff800fe0000
020afb00000304fa04
f9ff04020005020301
01f5fafffa02000603
00fbfffbfbfcf5fdff
00e8faf40000fd1107
f9fd04ff050000fffd
0005000001fefef5fd
fe0002ff0301fe00fb
ff0505f60006f90006
010303000002000000
03000500fd0300fd01
fefdff0000fe0303fc
fe00f90812f1fd06f5
fb00fdfa02fb0006f8
02fffffe02fe0003ff
010000fdfffffe0000
f3f700050df8fe0efa
010004fbf605fffb08
fbff00fc0101fd0000
fcf7f7070dfb020bfb
fcfbf31206ee0603f1
00fd00fdfaff00fe00
0000fffd0002fbff03
fefe01faf8fff9fb02
01000001ff03030300
03000100fd0200fe00
000102fffe00000102
0200ff00ff00fefd02
fe0000ff0103fa0000
fefdff0000000802fd
000009f8fb06fafe09
ffff00fefe03000002
02ffffff0000fffe01
fdff03f8fd03f6fb04
000505fe00fefbfdfe
00fffe03fffd02fffd
fffbfb0400fe0303fd
0200020400fe00fc02
fefd00fb0001ffff04
fc03feff1003fffff8
fefefb000c02050b04
000001000000010302
fd04fe000705fefe00
feff01020005020005
010001fef2f801f9fd
fb00ff0500fe00fcfe
fcfe0102040bfef3fa
01fafd01f5fa02fc00
00fffc05ffff00fffd
ff0402010000fe00fe
f902fe000203fb02fe
01fd00fff2f702f5fe
fdff01fdfd01fbfd00
fefcfb050902080803
f500fafc0202fc05fe
0301000401fe03ff00
fe02fe0201030001ff
fcf800fef2fc00f6fa
05fffd01fff8fd01fe
04ff02030003000300
000401000000fc0000
0004000000fefcfdfb
0000fdff01fcfe00ff
fd0000fdfaff00fdfd
000502080501030904
fbfefdfdfbf9fcfbff
00fefffefa03000005
000004020503fc0002
fcfbfafa08040005ff
030600ff0400fb0000
fcfcfe01fafe03fcfc
ff0600f7f6fffaedfa
00fefefefcff020501
fafbfd0303fefe0201
feff00fb0000fdfc02
040a0003ff0303f5ff
01fd05010ffd000002
000b01fefbfe00fdfb
fd04000604fd0401fe
fe00fffdfcfcfcf3fc
fcff000002000000ff
faff0000ff00000200
fb03fcfb0c01f8fb05
070404fff9fafdfbfd
01ff00faf700040400
fcfffffe0502020003
f5fb00fe0000f601fe
01ff00fffdfe00fd00
01010002fe00010903
fefbfefcf5fcfff9fd
03fe00fe00fffaf8f9
010003000000fdfdff
fcfefb00fffffcfdff
ff030304f704070100
02ff00fdfd00fcfd00
01fe00fefe02fffdfe
00fffd0304000303ff
00fd00fffd01fefa00
ff0afa000e01f9fb05
fcfa00030204000202
f9fafb00fbfd000700
01fe0001fe01fef901
fffd030506ff000100
fd00ff03040201fefc
090b060b040102f9fe
010404feff00f900ff
f8fc00fd0107050800
0504fb0703fd0600f7
080305fdfe040001ff
040601030300fcf6f3
0005000206020200fb
fefefdfdfd00000003
0007010a07fcfdf9f4
fcfe01fbfd02fe0004
0100fefc0001000101
0807000400f7fbfdfb
080800fffcfcfbfbfd
fdfdfe010603030300
f9fc00f5fb00f90104
fd0000f90001fe0003
00fdfefdf3f9f7f5fb
fff5fafaf7fef9fa00
090503fefefd080002
06fffc00f8fcfcf8fe
fffe0000fd02000000
0405000901fdfdfaf9
fefeffff0400070b04
0000010202ff0203fe
030504feffff00fcfd
030507040505000307
000200fdfbfff5f800
02000201fbfe010102
0004ff0505ff0503fd
00ff0202060201fcfc
000303ff0404010400
0603ff0a16fe0800fe
0f150709120bfd0202
05000f01fc02f9fc02
0806fb03feff090703
ede5f6fe0907ff140d
f1e8fdf8f9fff5fafc
00f5fdfff1f9f3f6fd
030a03f80809f80200
07fffcfc0100020501
fefaf90004030204fe
02ee01fbf6f9000302
020302f2ed00f3f4fb
ffecfd05f8f70a0602
fcfb0000fd04000408
faf3effdfaf2fe0001
fafafaf0e9fbf4f303
faf600fef3fa0df3fb
020c0b00fb03fffffe
00fd080708020e0706
04fc0501f90300f100
fcfb00f6f90300f405
fcff00f7fa00fcff00
02eff701fafdff0303
f4edf8f3edfeff020c
fef100f8fb03020104
090d00031100030b00
040702f9fa00fdec02
040d06090cf9010cf9
00f104f8f1fbfefefd
0b110900100705ffff
050302fef900030700
02ff01fcf500fb0402
000202060000f8faff
0402fe00fc00fafa00
fdfc0203f9fb000402
0200000006fb0302ff
0305060103fc00f9f6
010106010303fefdfb
0204ff0200fafdfbf9
fe00fd060600070100
f9fe05fe0608fd0303
07070004fefafdfdfe
fdfd02020000050102
fbfe00000503030100
0000fdfefef9fffeff
040000fafe01fafe00
00fefb03fefe040101
fefcfefdfffefafdfe
00fd0100ff02fbf800
04fffc060000050201
01fbfa07faf404f9fb
fcfb0700ff08fe0101
fbfafaf7f4fdf5f6fb
00fc0002ff0400fc00
040701fdfafffefeff
080701090d000203ff
fe050afc0b07ff0004
fcfd01fc01fb0002f9
01fd000804fd0a05ff
fc00f600fefb0404fe
fdfffbfefcfdf7fbfa
000200fdfefcfdfefd
ff02ff090903090702
fdfb04fe01ff02fffa
f9f2f3f9f3f4fffbfc
0402fa0500fc010201
fdfc0000ffff030100
ffff01000002000207
02fafffff8fd020003
0002030208070001ff
f900fafd0200faf7fb
0300fdff00fd0001fe
0200fe01fc00ff0000
ff0400ff0905fefffd
ff0000010100010000
00fe00000000fdff00
01f2f801f5f6030700
faf7fffefd00040100
fcfeff0101fe0003fe
fe0100000403fc0000
0401000104fe0006ff
00020101ff04030404
00fe000200ff040400
00fffffffcff01fe00
00fd000200ff01ff00
fefdfdfffbfefffffe
001002fe0d06f7f8fc
01fd0200fb00040007
0301ff01ff02ff0307
0100fffffefe000000
02fffe00fdfc01ff00
0100ff03fffd03fcff
0200ff01fdfffe0001
01fcfbfff9f702ff01
fefbfefaf9fefcfe02
0000ff01ff0001fd00
fe0006fdfd02fcfd03
00fd04fcfe01fffb06
0202000508020c0cff
020100000c06020403
030001040301fffc00
01feff010f03040afe
fbf8fffbfffffdff00
fffafbff0002020702
fefcfdfcff00f8ff04
00fcfeff0300040d03
07000700fb00faf0f8
fffefefefe00010505
fbfe00ff0000fb0704
fbf6fd0306000509fa
0003000100ff00fbff
03ff01fdfafd00f9fe
06000106000401fd00
faf9f800fef9060c02
fefefd0205fe0402fe
04040102010000fbff
ff0304000101fef9fc
fe0202000200fdff01
f8fa01f7fd09000d0c
0b0901060703000001
fefffefe0104fa0001
08fffffef8fef6edfc
0108020506fefd00fd
f8fc03f7f7f8f9f4f4
ff01fe0200fe03fefc
00ff00050001030000
ff0103faf8f8ff01ff
07fcfefef900fbfbfe
fdfeff000201020000
010000040200030101
0300ff0103ff010300
ff0103ff0100000200
03040200010000fefe
000101010500feff04
fefe0000fe01030101
fffc01fe0002fc0302
040200040502040800
020102000000000100
0106000307ffff0300
0100fd020300010101
010000fd0000fe0000
ff00fffdfefefbfcfe
ff0000010301ff0000
000000fffff9ff00f8
0002ff000401ff0000
0000020000fefe0201
020205030303060703
0200fd0100ff02fc00
0000fe0000fe00fe00
00fefd0100000000fc
fe00fefbfb00fefcfd
fe0000fe0200fbfc00
0100000101000001ff
0103ff0101fffdfefe
0000fe030600010300
020700020705040304
0206000606ff030402
01ff040000ff0102fd
030200030302020301
010401050201040300
00f7fffaf802fcff06
fe06fb0002fc0002f9
0002fefffefa0000fc
fd000800030700fc02
06ff0101f6fdfff705
fefbfefdfefe0403fe
04ffff020002050107
0ff4fb0beff70bf0f9
0107000001f703fffa
05fe0101fe0100ff02
ff01ff0502ff06fefe
fd0001ffff00000000
04f10300f30904fa0d
fdfb08f9fb08fdff09
0304ff0302fbfcfefe
fafbff00fbfd00fafc
0103fcfbfffffe02fd
0501fe01fffcfbffff
0200fefffffefd00ff
000bfcfc01f90000f5
0105feff00fdfd02fb
02fffe00fcfbfffafc
00fa00fefb01010107
ffff00ff0101ffff05
000402fffbfc01fd00
0508fe0103fa0401fa
0103000301fa0000f9
000600fd0600fb0604
0000010000fefffdff
0000fffefc00000101
fb010800fc05f5fc09
0100fe01fffc04fdfc
