13f5fa3defd617feeb
11f4fb30f2e00bfcfd
10f00031efe106fffb
0cf1ef0505ee0602ef
ffff04fff80004fe01
00fc0000fa00060005
00fe03ffff01ff0100
0506ff0601ff0200fd
edf0f5d4fef2e3e9ea
11131afa3e2c0b2427
03060ef8011505ea09
08091110060e140314
fffffffdfbfd0200ff
00fe02fcf9fffefb00
ff0202faf4fc00ff04
00f9fe00f2fc01fb01
00dbe6f7d8e507d7ef
18110c0b1718fc09ff
14fdf8fcf800f4fcfc
15f3effcf1f6fdf6ed
00fe03fafafc02ff03
00000000ffff000101
040204fdf1fb06fafd
fff5f9fff5fcfe0003
f6fe04f7f8f708000a
fff3fcfcfdf7170706
f2f8f700f7f70b0804
19f616f9e009faebf8
fe03fcff00ff030703
fd0001fafa01fc0003
fdf900f6ecfe00f804
030104020101000000
