00fe03f7f300f7f1fb
00f5fefefbfafcfcfc
fb000000ff03060200
fe0300fc00fb0001fa
fffd01fcf7fd00f8fc
fdfbfefef6fb00f9fd
0200fa0805ff0c02fd
fefe04fdfcf60200f7
00fffe05fd00fffc03
020000fcfd00fbfbfb
01fbff03fd0002fdfd
010406fcfc0401fa00
fefd0300f800060200
f6fc07f8fa05f8f906
010203fffeff0201ff
0702fa0306fd0207fb
04030600fa0500fe00
02060000010201fffe
020301000007030301
fff50100fc00020504
fefc05010002010002
03030200fefe0000fb
0606fb040aff0000fc
fe0001f9ff04fbfe03
03fefc01fd00ff0003
f6f9fff7f4fdf7f800
04040300040301fc04
fdf800fffaf900f8f9
fefd03f5f100f4f3f9
00fd04faf2faf9f4fb
0000fcfffdfafd01fd
ff00fefffd0201fc02
01f5fb020708ff0705
f9f9fefe0202000a04
faf70101feff010afd
fcfe00010606fe0704
fffc00020300fcfcfc
030ffffefafe00fe03
00fe000002000102ff
fdfd00fdfd00ff0000
0400fd020007ff0808
fe0d090403fe00f3f3
01fe0405fc0006fdfd
02000300ff01fef9fb
fe060a02000000f6f9
040700fcf4f5f8f303
00fefe03fd010002ff
fc0702010403fefafc
01faf606fdfe03fcfd
fef9fe00fdfcfd03ff
fdfe000402000303fc
00fe0001000000fd00
fdfd00fbfafcfcf8fb
fe00020400000000fc
fc04000000fcfffcfc
f8f1f6fc020a030806
fefd0001ff06fffb00
000000fffffffdfdfc
fff3f8fefc00000300
ff00000200fafe03ff
01010204fd00fffeff
01fffefdff01ff0003
01fdfdfff800000000
0100ff000000fffff9
