fffffff5
000001c4
000000ff
000001e7
fffffdd8
00000111
000005fd
00000436
000003bc
00000078
0000002a
000001c0
000002cf
000002bb
00000717
fffffddc
000002f6
fffffeeb
000004b4
00000331
ffffff4a
00000400
00000457
000002c6
00000380
00000343
000000f0
0000021b
00000221
000002e9
0000009c
fffffc55
0000063a
000001c0
00000012
ffffff39
0000002e
ffffff61
00000257
ffffff05
000004f2
000001b1
00000385
0000030a
000002b7
00000309
00000111
0000059c
00000246
fffffdda
00000299
000005cc
00000248
00000404
0000035c
0000017e
0000077f
fffffea0
0000001d
fffffeca
00000424
00000524
00000005
0000011a
0000021c
000003e2
00000008
00000113
fffffe3f
00000518
000000b8
00000494
fffffe8e
0000016a
00000236
0000012b
000003a8
00000177
fffffff0
fffffefd
fffffc3f
00000039
fffffcd5
fffffe60
00000299
0000001f
00000204
fffffb00
000003d3
fffffffb
000002ec
0000097f
0000041c
000002b3
000001de
0000037f
000006a9
00000133
ffffff16
0000023f
000003ec
000001a1
00000072
0000072c
0000018c
0000016d
000002d5
00000699
fffffc30
000005fd
000000c9
000005a6
0000055a
00000394
fffffe53
00000285
fffffe89
fffffd4b
ffffff5c
0000024b
0000067c
0000040c
00000427
00000037
000000b7
000002d5
ffffff84
0000055c
ffffffe0
000000e6
00000367
ffffffb4
fffffffa
0000042b
000003f8
00000025
00000126
000000e4
000002d5
ffffff44
00000586
fffffbb7
000001dc
000003e0
00000337
fffffbe5
000003fa
ffffff2d
000003e3
000005d0
ffffff90
fffff8d2
00000411
00000516
fffffeb8
fffffbe6
00000196
00000550
00000348
00000185
0000031c
00000036
0000007f
00000165
0000053f
000000a8
00000093
0000006f
ffffffcd
0000032c
00000377
000003da
ffffff9e
ffffff19
000002a5
00000621
0000075a
00000690
000008cd
00000512
00000575
000006aa
00000674
00000246
000000ac
000002d4
00000299
fffffc3d
0000002e
0000048d
000002c8
000001df
000004ce
fffffcff
000004f2
00000075
0000038b
0000010e
000007ab
0000041f
00000321
000004f1
00000364
000003ff
fffffc3e
00000231
0000022d
00000474
fffffe97
ffffff85
ffffffa7
0000007d
000001b1
00000349
00000110
000000c8
00000044
000005ae
fffffda9
00000469
00000028
00000062
00000287
ffffff19
00000940
00000214
0000031e
000000b4
000003fc
00000309
00000050
00000075
000001b1
000004cb
00000596
ffffff39
fffffbcb
00000404
fffffd0e
0000004b
000003a8
00000026
00000531
000006ee
000003bc
000000e4
fffffdf5
0000019c
fffffee9
fffffeff
00000287
0000013f
000004a1
0000027b
0000015d
000002b1
00000464
fffff721
ffffffe4
fffffedd
00000623
000005d4
fffffd9b
000002e4
fffffea5
00000167
00000076
0000033a
fffffe71
00000210
fffffe23
0000098d
0000012f
00000355
000002a7
00000461
fffffe09
fffffca9
000009cc
fffffb75
000004ae
00000033
ffffffd4
000006a3
0000024b
fffffd86
ffffff8c
00000244
000001a5
000000a4
000003dc
0000013c
0000007e
fffffee5
00000298
0000056e
ffffffad
fffffeb5
000003c1
000000ab
fffffff6
000001e3
0000065c
000001d8
000002ca
fffffd6c
00000211
fffffe8c
00000305
00000003
00000176
000000b9
0000038b
fffffdeb
00000519
fffffb50
00000200
fffffcbe
ffffff44
0000022a
000003b4
fffffd38
0000014b
ffffff39
fffffeef
00000002
000004c9
000002c3
0000011e
ffffff4f
00000258
fffffd27
00000106
00000205
fffffb7f
0000008a
ffffff84
00000143
00000372
00000187
00000240
ffffff9c
000001ff
fffffec9
000000cb
000002f5
00000567
0000033f
0000017b
00000111
00000525
0000072d
000001a5
00000377
00000520
ffffffb8
ffffff6d
fffffba5
00000338
000003b5
ffffffcd
fffffb6e
000004a4
fffffad6
000002a6
00000312
fffffbf7
00000206
00000086
000000f7
fffffa9f
ffffffc5
000001db
fffffdc8
000005ce
00000364
00000516
fffffc78
00000048
00000170
00000244
fffff901
0000076c
00000340
fffffcc2
000002f3
00000017
000001f2
000000d1
00000374
fffffee6
000002c6
fffffe03
0000080f
0000031f
000003aa
000003ea
0000036f
fffffef3
00000399
00000263
ffffff86
fffffefb
0000036d
000001e2
fffffffc
000004f2
00000195
fffffd31
00000439
000001bb
0000007f
0000020b
fffffea2
ffffffb6
fffffb56
00000392
ffffffa4
0000029f
0000001c
00000462
0000008e
00000839
000009ae
00000031
0000000c
fffffce7
fffffb8e
00000061
00000163
000004df
fffffef3
00000346
00000050
fffffe0a
00000426
ffffff23
ffffffc4
fffffd28
000000d9
0000025a
000000b5
00000215
000003ee
0000033e
00000336
00000101
fffffee0
00000359
fffffa1f
ffffffc2
0000038c
00000312
00000495
0000035a
000000f3
00000313
fffffe96
0000025b
00000082
000003c6
000002c9
00000249
000000cb
000002be
0000033b
00000257
000001dd
fffffcfe
00000169
0000067a
00000109
000008d0
ffffff6b
00000093
000007bc
000002dd
fffffe6f
0000021c
ffffffbd
0000045c
000001b9
00000154
000005ff
ffffffab
fffffdc3
00000598
00000377
000000ce
0000065e
000002ec
fffffce4
0000021c
fffffea1
ffffff2c
fffffeaa
000000bf
0000044b
00000373
fffffdaa
00000179
0000022e
00000135
000002ab
0000003d
00000680
00000280
00000114
00000415
fffffefe
00000155
fffffde6
