00000a72
0000023a
000008b4
00000a68
0000054a
00000422
000001a5
0000023b
000004de
ffffff1a
fffffcc7
0000005b
0000048d
fffffd2c
fffffb2b
0000040b
000001e2
00000493
000002e3
00000518
000007ca
000005d1
00000cc4
00000430
000001a2
000000f4
00000877
ffffff61
000008f3
000008a6
00000349
00000571
000008ce
000001ff
00000868
0000024b
00000259
00000398
0000046f
000005c4
000004d4
000003c5
000004e9
00000821
fffffc82
0000029c
0000023b
000009a5
000004c8
000001c1
0000036a
00000155
0000023b
0000003e
00000437
0000090e
ffffff9f
00000048
000003dd
000002e3
0000034e
000003de
000007b2
ffffff0c
