fffffffb
fffffff1
fffffff7
00000000
fffffff3
fffffff7
00000003
fffffffe
00000000
fffffffc
fffffffc
fffffffc
fffffffa
fffffffb
fffffffe
fffffffe
fffffff5
00000000
00000000
00000002
00000006
00000003
ffffffff
00000000
00000000
00000000
fffffffb
fffffffa
00000001
00000000
fffffffb
00000000
fffffffc
00000000
00000003
fffffffe
fffffffc
fffffff8
00000000
fffffffd
fffffff7
fffffffc
00000001
fffffffd
ffffffff
fffffffd
fffffff9
00000000
fffffffb
fffffff6
fffffffe
fffffffe
fffffffb
fffffffd
fffffffd
00000002
0000000c
ffffffff
00000005
00000008
fffffffa
00000000
00000002
fffffff7
00000000
00000002
fffffff6
fffffffc
fffffffd
00000004
fffffffe
fffffffe
00000003
fffffffc
ffffffff
00000000
fffffffd
00000005
fffffffe
ffffffff
00000000
fffffffb
fffffffb
fffffffb
00000000
fffffffd
fffffffc
00000000
00000000
00000002
fffffffd
fffffffd
00000002
00000000
fffffffd
00000003
ffffffff
fffffffb
00000001
00000000
fffffffa
00000001
00000004
fffffffc
fffffffc
00000006
00000004
00000001
00000000
00000002
00000006
00000000
fffffff8
00000000
00000003
fffffffd
fffffffe
00000006
fffffff9
fffffff8
00000005
fffffffa
fffffff8
00000007
fffffffc
fffffff6
ffffffff
00000001
00000002
ffffffff
fffffffe
ffffffff
00000003
00000002
00000001
fffffffb
00000007
00000002
fffffffd
00000006
00000003
fffffffa
00000002
00000007
00000000
fffffffe
00000000
00000005
fffffffa
00000000
00000006
00000003
00000004
fffffffe
ffffffff
00000001
00000002
00000001
00000000
00000000
00000006
00000002
00000001
00000003
00000003
00000007
00000000
00000000
00000001
00000003
00000002
00000004
00000005
00000002
00000000
fffffffc
00000000
00000001
fffffff5
ffffffff
00000002
00000000
00000001
00000002
00000000
00000001
00000005
fffffffc
fffffffe
fffffffb
00000000
00000000
fffffffe
fffffffe
00000000
00000002
00000003
00000003
fffffffc
00000000
00000000
ffffffff
0000000a
00000004
fffffffb
00000006
00000006
00000003
fffffffe
fffffffb
00000004
ffffffff
fffffff9
00000001
00000000
fffffffe
00000003
00000000
ffffffff
00000000
fffffffd
00000001
fffffffc
fffffffe
00000003
00000000
fffffff8
fffffff7
fffffffd
fffffff4
fffffff7
ffffffff
fffffff9
fffffff6
00000004
fffffffc
00000001
00000003
00000004
00000000
00000003
00000004
00000004
fffffff9
fffffff8
00000000
fffffff9
fffffffa
ffffffff
00000000
fffffff8
fffffffd
fffffff9
fffffff3
fffffff4
00000000
fffffff1
fffffff5
00000003
fffffffd
fffffffe
fffffffb
fffffff4
fffffff9
fffffffa
fffffff2
fffffffa
00000004
fffffffd
00000000
fffffffd
00000001
fffffffd
fffffffa
fffffffd
ffffffff
fffffffc
00000000
00000000
00000002
fffffffc
00000001
00000002
fffffffd
ffffffff
fffffffe
00000000
ffffffff
00000005
00000007
ffffffff
00000008
00000007
00000002
fffffffb
fffffff5
00000001
00000004
0000000a
00000000
00000002
00000002
fffffffe
fffffffe
fffffff9
fffffff9
fffffffd
0000000a
00000001
ffffffff
fffffffe
00000001
00000001
fffffff7
fffffffa
00000004
00000007
fffffffe
00000006
00000006
00000001
00000000
fffffffe
fffffffc
fffffffc
fffffffc
fffffffc
00000000
00000003
00000002
00000000
fffffffc
ffffffff
00000003
fffffffe
00000000
fffffffe
fffffffa
fffffffe
ffffffff
0000000f
00000003
ffffffff
00000002
00000001
00000000
00000002
00000000
00000000
fffffffe
00000000
00000000
00000000
ffffffff
00000000
fffffffd
fffffffd
00000000
fffffffd
fffffffd
00000008
00000008
ffffffff
00000007
00000000
00000002
fffffffd
00000000
00000004
fffffff3
fffffff3
00000000
fffffffe
00000003
00000004
00000009
0000000d
fffffffe
fffffffd
fffffffd
00000006
00000000
fffffffc
00000005
00000004
fffffffe
00000001
fffffffb
fffffff9
fffffffe
00000001
ffffffff
00000000
00000003
00000000
00000002
fffffff9
fffffff6
00000000
00000000
00000000
00000002
0000000a
00000006
fffffffe
00000003
fffffff3
fffffff8
fffffff5
fffffff4
fffffffc
00000000
00000007
00000004
ffffffff
00000002
00000000
00000001
fffffffd
00000003
fffffffe
fffffffe
00000000
fffffffc
fffffffa
fffffffe
00000003
00000004
00000001
00000002
00000007
fffffffc
fffffffd
fffffffc
00000003
fffffffe
fffffffd
00000006
fffffff6
fffffffa
00000001
ffffffff
00000003
fffffffd
fffffffc
fffffffd
00000000
fffffffe
fffffff9
fffffffe
fffffffc
00000003
00000003
00000000
00000002
00000004
00000000
fffffffe
fffffffd
00000000
fffffffd
00000000
00000000
00000000
00000001
00000000
fffffffe
00000000
fffffffb
fffffff8
fffffffc
fffffffc
fffffffa
fffffffb
00000000
fffffffd
fffffffd
fffffffc
00000000
00000000
00000000
00000000
00000004
00000002
00000000
fffffffe
fffffffc
fffffffc
ffffffff
fffffffc
00000000
00000000
00000000
00000004
fffffffc
00000006
00000008
00000003
0000000a
00000002
fffffffc
fffffff6
fffffff1
fffffff8
00000000
fffffffb
ffffffff
00000006
ffffffff
00000001
00000000
fffffffd
fffffffe
fffffffc
fffffffd
fffffffd
ffffffff
ffffffff
ffffffff
00000000
00000000
00000000
00000000
00000003
00000000
00000000
fffffffc
fffffffe
fffffff8
fffffff3
ffffffff
ffffffff
00000003
fffffffe
fffffffa
00000000
00000002
00000000
00000000
ffffffff
ffffffff
fffffffe
ffffffff
00000000
fffffffd
00000004
00000002
00000001
00000001
00000003
00000000
ffffffff
00000001
ffffffff
fffffffd
fffffffe
ffffffff
00000001
00000000
00000000
00000000
00000000
fffffff8
ffffffff
fffffffd
fffffffd
00000001
fffffff9
ffffffff
ffffffff
00000000
00000000
00000000
ffffffff
00000000
00000001
00000001
00000000
fffffffd
ffffffff
fffffff9
00000000
00000004
00000004
00000000
00000000
00000000
ffffffff
fffffffc
fffffffe
00000000
fffffff8
00000000
00000000
fffffffa
fffffffe
fffffffe
fffffffe
fffffffc
00000000
00000000
fffffffe
00000000
00000000
fffffffd
fffffffe
fffffffe
00000000
fffffffc
ffffffff
ffffffff
fffffffd
00000001
00000005
00000003
fffffff9
fffffffc
00000000
fffffffe
00000001
00000000
00000001
ffffffff
00000002
00000000
00000006
ffffffff
00000000
00000002
fffffffe
00000001
00000003
00000002
ffffffff
00000002
ffffffff
00000003
0000000d
00000000
00000000
fffffffd
fffffffe
fffffff7
fffffffd
fffffffa
fffffffa
fffffffe
fffffffb
00000001
00000006
00000000
00000005
00000004
00000001
fffffffc
00000003
00000003
00000000
fffffffc
fffffffd
00000002
00000003
fffffffd
00000001
00000000
00000000
00000000
00000006
00000007
00000003
0000000a
00000009
00000004
00000008
00000004
00000000
00000003
00000005
00000000
fffffffc
00000002
00000000
00000000
ffffffff
fffffffe
00000004
00000000
fffffffe
00000000
00000001
fffffffd
ffffffff
00000000
fffffffc
00000000
00000000
00000006
00000003
00000005
00000003
00000003
00000002
fffffff9
fffffffa
fffffffe
00000000
fffffffc
fffffffe
00000000
fffffffc
fffffffa
fffffffd
00000001
fffffffb
ffffffff
00000008
fffffffb
fffffffd
0000000a
fffffffe
fffffffe
00000000
fffffffe
ffffffff
00000001
00000000
00000001
00000002
ffffffff
fffffffe
fffffffe
fffffffe
fffffff7
fffffff3
fffffffc
fffffffb
fffffff9
fffffffa
fffffffd
00000003
00000001
00000000
00000000
fffffffe
00000002
ffffffff
ffffffff
fffffff8
fffffffc
fffffffe
00000000
00000001
ffffffff
fffffff9
fffffffd
00000000
fffffff5
fffffff4
00000001
fffffffd
fffffffc
00000001
fffffff8
fffffffb
fffffffd
fffffffb
ffffffff
fffffffd
00000001
00000002
00000000
00000001
00000000
ffffffff
fffffffb
00000001
00000000
00000003
fffffffd
fffffffe
00000003
00000006
fffffffb
00000001
00000000
00000000
00000000
fffffffe
00000000
00000002
00000002
00000004
00000000
fffffff9
ffffffff
fffffffb
ffffffff
ffffffff
fffffffb
00000001
00000003
fffffff9
fffffff5
fffffff8
ffffffec
fffffff1
fffffff7
ffffffed
fffffff3
fffffff8
00000000
fffffffa
fffffffe
fffffffb
fffffffe
fffffffe
fffffffb
fffffffc
fffffffc
fffffff4
fffffff9
00000000
fffffffa
fffffffa
00000000
fffffff4
fffffffb
ffffffff
fffffffe
fffffff9
fffffffe
fffffff6
fffffff5
fffffffb
fffffff9
fffffffd
00000002
00000002
00000004
00000000
fffffff4
fffffff7
fffffffd
fffffff8
fffffffc
00000001
00000009
00000006
00000002
00000000
00000002
00000000
00000000
00000003
00000000
fffffffb
00000005
00000003
00000002
00000000
00000004
00000000
fffffffe
00000002
fffffffa
fffffffe
00000000
fffffff8
fffffffd
00000003
fffffffd
00000001
00000007
00000001
fffffffe
fffffffc
fffffffe
fffffffd
fffffff9
00000000
00000000
00000000
00000002
00000004
00000002
00000001
00000002
00000003
fffffffe
ffffffff
fffffffe
00000003
00000000
fffffffd
fffffffa
fffffff8
fffffff7
00000001
ffffffff
00000004
00000005
00000000
00000001
00000004
00000002
00000000
00000000
00000000
00000001
fffffff7
00000000
fffffffd
fffffffb
00000000
fffffffe
fffffff9
00000001
fffffffd
00000002
00000004
0000000a
00000001
00000003
00000006
00000000
00000000
00000004
fffffffc
fffffffe
00000003
fffffffd
fffffffd
ffffffff
00000001
fffffffd
00000002
00000003
ffffffff
00000000
00000001
ffffffff
ffffffff
ffffffff
00000000
00000005
00000001
fffffffe
00000001
00000003
00000000
00000000
00000002
ffffffff
00000000
ffffffff
00000000
00000002
00000000
00000000
00000000
ffffffff
fffffffd
00000002
00000001
fffffffb
00000000
fffffffc
fffffffa
fffffffb
00000003
ffffffff
00000003
00000000
ffffffff
00000001
00000001
00000001
00000003
00000001
ffffffff
00000002
00000000
fffffffd
00000000
00000001
00000000
00000000
00000003
00000004
00000002
fffffffd
00000003
00000007
ffffffff
00000002
00000008
00000000
00000000
00000001
fffffff6
ffffffef
fffffff4
fffffff2
ffffffeb
fffffff2
00000003
fffffff5
fffffffd
fffffff9
fffffff7
fffffffe
fffffffa
00000001
00000001
00000003
00000005
00000008
fffffff8
fffffff9
fffffff9
fffffff9
fffffff8
fffffff8
fffffffa
fffffff5
fffffff9
fffffff6
fffffff8
00000000
fffffff5
fffffff8
fffffffb
00000002
fffffffb
fffffffa
00000003
00000003
fffffffe
00000002
00000000
00000000
ffffffff
fffffffd
00000000
fffffffa
00000000
00000003
fffffffe
00000000
ffffffff
fffffffe
fffffffd
fffffffb
fffffffe
fffffff7
fffffffa
00000002
00000000
fffffffb
00000009
00000005
00000003
fffffffd
fffffffd
00000002
fffffffb
fffffffb
ffffffff
fffffff9
fffffffc
00000002
00000000
ffffffff
00000005
ffffffff
00000000
00000001
00000002
00000002
00000004
fffffff9
fffffffc
fffffffd
fffffff9
fffffffe
fffffffa
fffffff8
fffffffe
fffffffd
ffffffff
fffffffc
00000004
fffffffe
fffffffb
00000003
fffffffe
fffffff5
00000004
fffffffb
fffffffb
fffffffe
00000002
00000000
00000002
00000000
00000001
fffffffe
00000002
00000002
00000001
00000002
00000003
00000002
ffffffff
fffffffc
00000002
00000000
fffffff9
ffffffff
ffffffff
fffffffd
fffffffd
fffffffc
fffffff9
fffffffa
00000001
fffffff8
ffffffff
fffffffd
fffffff9
fffffffa
00000001
fffffffc
ffffffff
00000005
00000003
fffffffd
00000005
00000002
00000000
fffffff8
fffffff8
fffffff9
fffffffa
fffffff3
fffffffd
fffffff7
fffffff1
fffffffd
fffffff8
fffffff3
ffffffff
00000000
00000000
fffffffb
fffffffa
00000000
ffffffff
fffffff9
fffffffd
00000000
00000005
fffffffc
fffffffe
00000004
00000003
00000008
fffffffe
00000000
ffffffff
fffffffc
fffffff4
00000000
fffffff9
fffffffd
fffffff7
00000000
00000000
fffffffd
00000004
00000001
00000006
00000003
00000003
00000003
fffffffc
fffffffe
00000000
00000005
00000004
00000001
ffffffff
00000006
00000005
fffffffa
fffffff9
fffffffe
00000001
00000001
0000000a
fffffffc
fffffffd
fffffffd
00000007
00000006
fffffffb
00000005
00000000
ffffffff
00000000
00000004
00000005
fffffffd
00000001
00000007
00000004
00000000
00000005
00000000
ffffffff
00000001
fffffffe
00000000
fffffffd
fffffff2
fffffff7
fffffff2
fffffff5
fffffff8
fffffff4
fffffffc
00000001
ffffffff
00000000
00000001
00000002
00000001
fffffffe
00000004
fffffffd
00000000
00000000
fffffff7
fffffffa
fffffffb
fffffff9
00000000
ffffffff
00000002
00000004
00000005
ffffffff
00000003
00000003
00000002
fffffffe
00000002
00000005
00000003
00000003
00000000
00000000
00000002
00000001
00000002
00000008
00000003
00000000
00000003
00000001
00000000
00000000
ffffffff
00000000
00000002
fffffffe
00000001
fffffffb
00000005
ffffffff
00000006
00000002
00000000
00000001
00000001
ffffffff
00000000
fffffffd
fffffffe
fffffffe
00000000
00000003
00000003
fffffffe
00000002
00000001
fffffffb
00000003
00000000
fffffff7
fffffffb
ffffffff
fffffff9
fffffffe
ffffffff
00000003
00000003
00000004
00000005
00000002
00000006
00000001
00000003
fffffffd
00000003
00000001
00000002
00000000
00000002
ffffffff
00000005
fffffffc
ffffffff
ffffffea
ffffffec
ffffffee
fffffff3
fffffff1
fffffff1
00000002
00000009
00000000
ffffffed
fffffff5
fffffff6
fffffff5
fffffff9
fffffffa
00000000
00000000
00000000
ffffffff
00000002
00000000
fffffffb
00000003
fffffffe
fffffffe
00000004
00000001
00000006
00000002
fffffffc
00000000
00000006
0000000a
fffffffa
ffffffff
00000006
00000001
00000000
00000002
00000002
fffffffd
00000003
00000000
00000000
00000002
fffffffb
fffffffc
00000004
fffffff4
fffffffb
00000000
fffffffb
00000002
00000001
fffffff8
fffffff4
fffffff4
fffffff5
fffffff9
fffffff3
fffffff7
fffffffb
fffffffa
00000000
00000000
00000000
00000000
fffffffe
00000000
00000001
fffffffd
fffffffe
fffffff0
fffffff3
fffffff1
fffffff5
fffffff1
fffffff7
00000001
fffffff9
fffffffa
00000001
00000002
00000001
00000001
ffffffff
00000001
fffffffb
fffffffa
fffffffc
00000004
fffffffd
fffffffc
00000002
00000000
00000002
fffffff7
00000000
fffffffd
00000003
fffffffe
00000000
fffffffe
ffffffff
fffffffe
fffffffd
fffffffc
fffffffc
fffffff4
fffffff6
fffffff7
fffffffb
fffffffd
fffffff4
00000000
00000004
00000000
00000000
00000000
fffffffd
ffffffff
00000004
00000000
fffffffc
00000001
fffffffd
fffffffe
0000000b
00000005
00000000
00000004
fffffffa
ffffffff
fffffff5
fffffff8
0000000a
00000002
00000005
00000004
fffffffc
00000003
fffffff9
00000000
fffffffa
fffffffb
00000002
00000007
fffffffd
00000001
fffffffc
00000004
00000001
fffffff8
fffffffa
fffffff2
fffffffb
fffffff9
fffffff9
00000005
00000000
0000000e
0000000b
ffffffff
00000002
00000004
ffffffff
00000000
00000000
00000001
00000000
00000000
fffffff4
ffffffef
fffffff7
00000000
fffffffd
00000004
0000000c
00000013
00000013
fffffff6
fffffff7
00000005
00000001
00000005
00000001
00000002
00000006
fffffffb
00000000
ffffffff
00000006
00000002
00000000
00000003
00000000
fffffffb
fffffffd
00000000
00000000
00000001
00000001
00000000
ffffffff
00000001
00000006
00000003
00000006
0000000a
ffffffff
00000003
00000001
00000000
fffffffe
fffffffa
fffffffd
00000002
fffffffc
fffffffb
00000000
fffffffe
00000003
00000001
00000004
00000007
00000009
ffffffff
ffffffff
fffffffb
fffffff8
fffffffc
fffffffd
00000001
00000006
00000006
00000002
fffffff9
fffffffd
fffffffa
fffffff9
fffffffb
fffffffa
00000003
ffffffff
00000001
00000000
00000003
00000003
fffffffe
00000000
00000000
fffffffc
fffffffd
fffffff8
fffffff3
00000000
fffffffb
00000001
00000000
00000003
00000008
00000002
00000002
00000001
00000000
00000002
00000002
00000000
00000001
ffffffff
fffffffd
fffffffc
ffffffff
00000003
00000000
00000000
00000001
00000000
ffffffff
00000001
00000001
fffffffd
fffffffe
fffffffd
fffffff7
fffffffe
fffffffd
fffffff8
00000001
00000000
ffffffff
00000003
00000001
00000000
fffffff4
fffffff9
fffffff8
00000002
00000002
fffffffc
ffffffff
fffffffb
00000000
fffffffc
fffffffc
00000004
00000004
00000001
00000000
fffffffd
fffffffd
fffffffe
fffffffd
00000000
00000001
00000000
fffffff8
fffffff1
fffffff9
fffffff1
fffffffa
00000001
00000001
0000000d
fffffffe
00000000
00000003
fffffffe
00000001
00000004
fffffffe
00000002
fffffffd
00000000
00000000
fffffffe
00000000
fffffff8
ffffffff
00000003
00000000
00000003
00000004
fffffffa
00000004
00000003
00000000
00000000
fffffffb
0000000a
00000002
00000001
00000003
00000002
00000005
00000000
00000002
00000004
ffffffff
fffffff9
00000003
00000006
00000000
00000002
fffffffa
ffffffff
fffffffa
fffffff5
00000001
ffffffff
fffffffd
fffffff5
fffffffc
fffffffb
fffffffb
ffffffff
fffffffb
00000000
00000007
00000011
fffffffd
00000000
00000000
fffffff4
fffffffa
ffffffe8
00000000
fffffffd
ffffffff
00000000
00000000
00000005
ffffffff
00000004
fffffffd
fffffff9
fffffffd
fffffff5
fffffffe
fffffffe
00000001
00000000
00000000
00000005
00000000
fffffffb
00000000
fffffffe
00000001
00000003
ffffffff
00000002
00000000
fffffffe
00000006
00000000
fffffff9
00000006
00000000
fffffff6
00000005
00000005
ffffffff
00000000
00000000
00000000
00000002
00000000
00000000
00000003
00000003
00000001
00000001
fffffffd
00000000
00000003
fffffffd
00000000
00000005
00000000
00000003
fffffffc
00000003
00000003
fffffffe
00000000
00000000
ffffffff
fffffffd
fffffffe
fffffff5
00000006
fffffffd
fffffff1
00000012
00000008
fffffff9
00000000
fffffffe
fffffff8
00000006
00000000
fffffffb
00000002
fffffffa
fffffffd
00000000
fffffffb
ffffffff
00000003
00000000
fffffffe
00000002
fffffffe
ffffffff
ffffffff
00000002
00000000
00000000
fffffffe
ffffffff
ffffffff
fffffffd
00000000
00000000
00000001
fffffffa
0000000e
fffffffe
fffffff8
0000000d
00000005
00000000
fffffff7
fffffff3
00000008
fffffffb
ffffffff
00000005
fffffff6
fffffffb
00000004
00000000
00000001
00000000
00000000
fffffffd
00000001
00000001
fffffffc
00000000
ffffffff
fffffffb
fffffffb
0000000b
00000002
fffffffb
0000000d
00000007
fffffff7
fffffff7
fffffffc
fffffff1
00000003
00000006
ffffffee
00000006
00000012
fffffff3
fffffffb
fffffffc
00000000
fffffffe
00000000
ffffffff
fffffffa
fffffffd
00000000
fffffffd
00000000
00000003
ffffffff
fffffffb
00000002
00000000
fffffffd
ffffffff
00000000
00000000
00000002
fffffffb
fffffff9
ffffffff
fffffff8
fffffffa
00000001
fffffffe
fffffffe
00000000
00000003
00000003
00000003
ffffffff
00000001
00000000
00000000
00000001
00000000
fffffffe
00000000
00000002
fffffffd
00000000
00000001
00000000
00000003
00000002
00000001
00000000
00000000
fffffffe
ffffffff
00000002
00000001
00000000
00000002
fffffffd
fffffffe
00000000
ffffffff
00000000
ffffffff
00000000
00000002
00000000
00000000
fffffffa
00000003
00000001
ffffffff
00000000
00000000
fffffffe
fffffffd
00000002
00000008
00000000
00000000
00000000
ffffffff
fffffffd
fffffffe
00000009
fffffffe
fffffffa
00000006
fffffffb
fffffff8
00000009
00000000
00000000
00000002
00000000
00000000
00000003
fffffffe
fffffffe
00000000
ffffffff
ffffffff
00000001
fffffffe
ffffffff
00000000
00000000
ffffffff
ffffffff
ffffffff
00000002
00000004
fffffffb
fffffff6
00000003
fffffffd
fffffff8
00000003
ffffffff
fffffffd
fffffffe
fffffffd
fffffffb
fffffffe
00000000
fffffffe
00000005
00000005
00000000
fffffffd
ffffffff
00000002
fffffffd
ffffffff
00000003
fffffffe
ffffffff
00000000
fffffffd
00000003
00000003
fffffffe
00000000
00000004
fffffffb
fffffffb
ffffffff
00000002
fffffffc
00000000
fffffffe
00000000
00000004
00000002
00000000
00000002
00000004
ffffffff
ffffffff
00000001
00000000
fffffffb
00000000
fffffffd
fffffffe
fffffff8
ffffffff
ffffffff
00000003
00000010
ffffffff
fffffffe
00000003
fffffffc
00000004
0000000b
00000005
00000002
0000000c
00000000
fffffffb
fffffffe
fffffffe
00000002
00000003
00000001
00000000
00000000
00000000
00000001
00000000
00000000
00000000
fffffffe
fffffffe
00000005
00000007
00000000
fffffffe
00000004
fffffffd
00000005
00000000
00000002
00000005
00000000
00000002
00000001
ffffffff
fffffffe
fffffffd
fffffff9
00000001
fffffff8
fffffff2
fffffffe
00000001
00000000
00000001
fffffffe
fffffffc
00000000
fffffffe
00000000
00000005
ffffffff
00000000
fffffffb
fffffffa
fffffff3
fffffffe
0000000b
00000004
00000002
00000001
fffffffe
fffffffc
00000000
fffffffc
00000002
fffffffa
fffffff5
00000001
fffffffd
fffffffa
00000001
fffffffd
ffffffff
00000000
ffffffff
ffffffff
00000005
fffffffc
ffffffff
00000000
fffffffe
00000000
fffffffe
00000000
00000000
00000001
00000002
00000004
ffffffff
fffffffe
00000002
fffffffb
00000003
00000002
00000000
fffffffe
00000002
fffffff9
fffffffe
fffffff5
00000002
fffffff7
fffffff2
ffffffff
00000000
fffffffd
00000001
00000000
fffffffd
fffffffb
00000001
fffffffd
fffffffd
00000001
ffffffff
fffffffd
00000003
00000008
00000008
00000002
00000009
00000005
fffffffb
fffffffc
fffffffe
fffffffe
00000005
fffffffc
00000002
00000002
fffffffc
fffffffa
00000000
fffffff5
00000000
ffffffff
00000003
fffffffe
00000001
00000004
00000000
00000001
00000003
ffffffff
00000001
00000000
00000003
00000001
00000002
fffffffe
00000002
fffffffe
fffffffa
fffffff6
00000000
fffffffc
fffffff2
fffffffe
00000000
fffffff8
fffffffc
fffffffe
00000001
fffffffd
fffffff8
ffffffff
00000001
fffffffd
ffffffff
00000005
00000000
00000003
00000000
00000003
00000000
00000003
00000002
ffffffff
00000004
00000000
00000000
fffffffc
00000000
00000000
00000000
00000001
00000004
00000000
fffffffb
fffffffd
fffffffc
fffffffe
00000000
00000000
00000000
00000004
00000000
ffffffff
00000000
fffffffe
fffffffc
00000001
ffffffff
fffffffd
00000000
00000000
fffffffd
fffffffd
00000000
ffffffff
fffffffa
fffffffd
00000000
00000000
fffffffd
00000004
00000009
00000003
00000001
00000005
00000008
00000002
00000005
00000000
ffffffff
fffffffb
fffffffc
fffffff9
fffffffb
fffffffd
fffffffd
fffffffe
fffffffb
00000005
00000000
00000000
00000003
fffffffa
fffffffe
ffffffff
fffffffe
00000000
00000002
00000000
fffffffc
00000003
00000005
00000002
00000004
00000000
00000000
ffffffff
00000005
00000000
00000004
00000008
fffffffa
fffffffa
fffffffb
fffffffc
00000000
00000000
fffffffb
00000000
00000004
ffffffff
00000000
00000006
00000003
fffffffc
fffffffc
00000003
fffffffe
fffffffa
00000001
fffffffe
fffffffc
fffffffc
fffffffa
ffffffed
fffffffa
ffffffff
fffffff6
fffffff7
00000000
00000006
ffffffff
00000001
00000005
00000002
ffffffff
fffffffc
fffffffe
fffffffe
fffffffe
00000000
00000001
00000002
fffffffe
fffffffe
00000003
00000003
fffffffd
fffffffb
fffffffa
00000002
fffffffc
fffffffd
00000000
00000000
fffffffb
00000000
ffffffff
fffffffe
ffffffff
fffffff5
00000003
00000003
ffffffff
00000003
00000000
0000000a
00000004
00000002
00000000
00000000
fffffffd
0000000f
00000001
00000005
fffffffd
00000001
fffffffb
fffffffd
00000000
fffffffe
fffffffb
fffffffe
00000001
0000000b
00000000
fffffffe
00000001
00000004
fffffffd
00000004
00000006
00000000
00000004
fffffffd
fffffffc
fffffff3
fffffffc
fffffffc
fffffffc
fffffffd
ffffffff
00000000
fffffffe
ffffffff
00000000
00000000
00000000
00000002
00000000
00000000
ffffffff
fffffffc
00000000
00000002
00000000
00000000
ffffffff
00000000
00000000
ffffffff
fffffffa
00000005
fffffffb
fffffff8
00000001
0000000c
fffffffb
fffffffc
00000003
fffffffb
fffffffd
fffffffb
fffffffd
fffffffa
fffffff9
ffffffff
00000004
00000004
00000007
00000000
00000004
00000004
00000000
fffffff7
fffffffa
00000000
ffffffff
00000001
00000003
00000000
00000002
00000002
00000005
fffffffe
ffffffff
ffffffff
fffffffc
fffffffe
00000001
fffffff6
00000000
00000000
fffffffe
00000000
fffffffb
fffffff5
00000000
fffffffd
00000000
fffffffe
fffffffd
ffffffff
00000000
ffffffff
00000001
00000003
00000009
00000001
00000000
fffffffe
00000002
00000000
00000001
00000001
fffffffd
fffffff9
ffffffff
fffffffc
fffffff5
fffffffc
fffffffe
fffffffb
fffffffe
fffffff9
fffffff8
fffffffa
ffffffff
00000000
fffffffe
00000000
fffffffe
00000003
ffffffff
fffffffd
fffffffd
00000000
00000000
00000000
00000003
00000000
00000001
ffffffff
fffffffd
fffffffc
ffffffff
ffffffff
00000000
fffffffb
fffffffe
fffffffc
00000000
00000001
00000007
00000004
fffffff7
00000004
00000003
00000003
ffffffff
00000000
fffffffd
fffffffc
00000000
fffffffd
fffffffd
00000000
ffffffff
00000002
fffffffe
fffffffd
ffffffff
00000002
fffffffe
fffffffe
00000000
fffffffe
00000001
ffffffff
00000003
00000003
00000000
00000004
00000003
fffffffd
ffffffff
00000000
00000000
fffffffa
fffffffe
00000001
fffffffd
ffffffff
00000000
fffffffd
00000000
00000005
fffffffb
fffffff9
00000001
0000000e
00000000
fffffffa
0000000a
ffffffff
00000002
00000002
00000000
00000004
00000002
00000003
00000000
fffffffa
fffffffc
00000000
00000007
00000000
fffffffd
fffffffb
00000000
fffffffb
fffffffa
fffffff9
00000001
fffffff9
fffffffe
00000001
fffffffe
00000001
00000000
fffffffe
00000001
00000000
00000001
00000000
ffffffff
00000006
00000005
00000003
fffffffd
ffffffff
fffffffc
fffffffe
00000001
00000002
00000004
00000003
ffffffff
00000000
fffffffd
fffffffe
fffffff9
00000002
00000001
00000004
0000000b
00000006
0000000b
00000009
ffffffff
00000000
fffffff9
00000000
ffffffff
fffffffe
00000004
00000004
00000001
00000000
00000008
00000005
00000007
00000001
fffffffd
00000000
fffffffc
fffffff8
fffffff7
00000000
00000006
fffffffd
00000003
00000007
fffffffb
00000004
00000005
ffffffff
00000001
00000000
00000004
fffffffe
fffffffd
00000005
00000003
00000008
fffffff3
fffffff6
fffffffc
00000000
00000003
00000003
00000001
00000006
00000004
fffffffb
00000000
00000002
00000002
00000006
00000002
00000000
00000005
00000000
00000003
00000000
00000000
00000000
fffffffd
fffffffd
fffffffd
fffffffe
fffffffe
fffffff4
fffffff9
fffffffd
fffffffc
00000007
0000000a
00000001
00000007
00000000
00000004
00000000
fffffffe
00000002
fffffffd
fffffffb
00000001
fffffffe
fffffffc
00000001
00000001
00000000
00000001
00000000
fffffffc
fffffffe
00000000
00000001
fffffffb
fffffffd
fffffffb
fffffff7
00000000
00000004
00000000
00000007
00000008
fffffffd
fffffffb
fffffffb
fffffffc
fffffffc
ffffffff
00000000
00000008
00000008
00000000
00000003
00000003
00000003
00000006
00000001
fffffffe
fffffffd
fffffffd
00000004
00000001
fffffff9
00000000
fffffffb
fffffff5
00000000
fffffffc
fffffff9
00000003
00000000
fffffffe
00000001
00000000
fffffff9
00000000
00000000
fffffffd
fffffffb
fffffff5
fffffff7
fffffff9
fffffff3
fffffffd
fffffffe
fffffffd
00000000
00000000
fffffffa
fffffff9
fffffffe
fffffff7
fffffffa
fffffffa
fffffff5
ffffffff
00000002
00000000
00000008
fffffffd
fffffffe
fffffffe
00000003
00000005
00000009
fffffffe
fffffff8
fffffffc
fffffffc
fffffff8
00000000
fffffffc
ffffffff
00000006
00000000
00000000
00000000
00000002
fffffffd
00000000
00000000
fffffffe
ffffffff
fffffff9
fffffffa
fffffffd
fffffffd
00000001
00000009
00000000
00000005
00000004
00000004
0000000b
00000007
00000000
00000004
ffffffff
ffffffff
fffffffe
fffffffe
fffffffe
00000003
00000002
ffffffff
00000002
00000002
00000001
00000000
00000000
fffffffd
fffffffc
00000000
ffffffff
ffffffff
fffffffe
00000004
00000005
00000003
00000007
00000003
00000000
00000005
00000005
00000004
00000007
00000005
00000003
00000000
fffffff8
fffffff5
ffffffff
fffffffb
fffffffd
00000000
00000002
00000000
00000002
00000001
00000001
fffffffe
fffffffb
00000001
00000002
00000000
00000002
fffffffd
00000003
00000005
ffffffff
00000005
00000005
ffffffff
00000004
00000000
fffffffc
fffffffc
00000001
00000002
00000006
00000002
00000002
ffffffff
00000000
00000000
00000004
00000001
00000004
00000004
ffffffff
00000003
00000003
00000000
fffffffe
00000000
00000008
fffffffe
00000016
0000000a
ffffffff
00000003
00000006
00000002
00000002
fffffffd
0000000b
00000012
00000009
00000007
00000015
0000000f
00000002
fffffffc
fffffff9
00000002
fffffffc
00000001
0000000f
00000000
00000005
00000003
00000007
00000009
ffffffff
fffffffe
00000003
fffffffb
00000006
00000008
0000000d
00000014
ffffffff
00000007
00000009
fffffffe
fffffff6
ffffffe5
ffffffed
fffffffc
fffffffa
fffffff5
ffffffff
fffffff9
fffffff8
fffffffd
ffffffe8
fffffff1
fffffffd
fffffff6
fffffff3
fffffff9
fffffff1
ffffffff
fffffffd
fffffff5
00000000
00000000
00000002
fffffff8
00000009
00000008
fffffff8
00000003
0000000a
00000003
00000001
00000005
00000002
00000000
00000001
fffffffc
fffffffc
ffffffff
00000007
fffffffe
00000004
00000002
00000003
00000004
00000000
fffffff9
fffffffa
fffffffe
00000002
00000003
00000000
fffffff9
fffffff6
fffffffb
00000001
ffffffee
00000002
fffffffb
fffffff4
fffffff3
00000000
ffffffed
fffffff2
00000002
00000003
00000002
00000002
00000006
0000000a
fffffff7
fffffff8
00000005
fffffffd
ffffffec
ffffffff
00000008
00000004
00000000
00000004
fffffffd
00000000
00000000
fffffffb
fffffffc
00000001
00000000
fffffffe
fffffff2
fffffffa
fffffffd
ffffffef
fffffff3
fffffffa
00000003
fffffff3
fffffff4
fffffffb
ffffffe9
fffffff0
fffffffa
fffffffa
fffffffa
fffffffb
fffffff3
0000000d
fffffffa
fffffff3
fffffffe
00000000
fffffff6
fffffffa
fffffffe
ffffffff
ffffffff
00000003
fffffffb
00000000
0000000b
0000000c
00000002
00000006
00000007
0000000e
00000002
00000008
00000007
00000008
fffffffd
00000000
00000000
fffffff1
00000000
00000003
fffffff9
00000001
00000005
fffffffc
00000004
00000005
fffffff4
00000000
00000003
fffffff9
fffffff6
00000000
fffffffb
fffffffc
00000000
ffffffff
fffffffc
00000000
fffffffa
fffffff7
00000000
ffffffff
fffffffc
00000003
00000003
ffffffff
fffffffd
fffffffa
00000001
fffffff7
ffffffef
00000002
0000000c
00000002
ffffffff
fffffffe
ffffffed
fffffff3
fffffff8
ffffffed
fffffff4
00000004
00000001
00000002
00000003
fffffffb
fffffff8
00000000
fffffff1
fffffffe
00000000
0000000b
00000003
00000000
00000011
00000003
00000000
0000000d
00000009
00000002
ffffffec
fffffffd
00000000
fffffffa
fffffff9
00000002
00000007
00000004
fffffff9
0000000c
00000001
fffffff9
0000000c
00000009
00000006
0000000d
00000004
fffffffd
fffffffe
fffffffe
fffffffb
fffffff1
fffffff8
00000004
fffffff1
00000000
ffffffff
ffffffff
00000005
00000007
00000010
00000000
00000009
00000011
0000000b
00000000
00000007
00000003
00000000
fffffff9
fffffffe
00000002
00000003
00000005
00000002
00000004
fffffffb
00000000
fffffff5
fffffffc
00000001
ffffffff
00000002
ffffffff
fffffffa
fffffff8
00000000
00000000
00000006
00000002
00000002
00000000
00000000
fffffffa
fffffffa
00000000
fffffffc
00000000
fffffffe
00000002
00000004
00000002
00000004
00000000
fffffffb
fffffff9
00000003
00000002
fffffffc
fffffffd
ffffffff
00000002
00000003
fffffffb
00000006
00000000
00000000
00000000
00000002
fffffff6
fffffff9
00000000
fffffffc
00000003
00000001
00000006
00000005
00000003
fffffffb
fffffffd
fffffffe
00000003
00000003
00000001
00000006
00000001
00000001
fffffff9
fffffffb
fffffffd
fffffffa
00000000
00000002
ffffffff
00000004
00000002
00000000
00000001
00000007
00000000
00000006
00000006
fffffffd
00000000
fffffffe
00000003
00000003
fffffffd
00000008
00000006
fffffffe
00000005
fffffffe
fffffff9
fffffffe
fffffffd
fffffffd
fffffffa
fffffffe
00000004
00000000
00000007
00000007
00000002
00000001
00000005
00000000
00000000
00000002
00000002
fffffffd
fffffffd
00000000
00000001
00000003
00000003
00000005
00000000
00000000
fffffffe
fffffffb
ffffffff
fffffffe
ffffffff
fffffff9
fffffffe
fffffffe
fffffffd
00000000
00000000
00000000
fffffffe
fffffffa
00000001
fffffffe
fffffffa
00000000
00000000
00000004
00000001
00000001
00000004
fffffffe
fffffffe
00000003
fffffffb
fffffffe
00000000
fffffffe
fffffffd
fffffffa
fffffffe
ffffffff
fffffffd
fffffffe
fffffffc
fffffffe
00000000
fffffff8
fffffffb
00000002
ffffffff
00000000
00000001
fffffffd
00000000
00000001
00000002
00000005
00000000
00000000
00000006
fffffffc
ffffffff
00000004
fffffffb
fffffff9
00000004
fffffff4
fffffffa
00000007
fffffffa
fffffffb
00000001
00000001
00000001
fffffffe
00000008
ffffffff
00000000
00000007
fffffffb
fffffffc
fffffffb
fffffff6
fffffff5
fffffffd
fffffff4
fffffff7
fffffffa
fffffffa
fffffffb
00000000
fffffffc
00000000
00000004
ffffffff
00000002
00000000
fffffffc
00000000
ffffffff
fffffffe
fffffffe
ffffffff
fffffffa
fffffffd
00000001
00000007
00000004
ffffffff
00000003
00000002
00000000
0000000d
00000009
00000001
00000007
00000008
00000004
00000000
ffffffff
00000007
0000000b
fffffffc
0000000a
00000005
fffffffe
fffffff9
00000002
00000000
fffffffb
00000001
fffffffc
00000001
fffffffd
fffffffc
ffffffff
00000005
0000000a
fffffffd
00000004
00000008
00000000
fffffffd
00000001
fffffffe
00000004
00000004
fffffffb
fffffffe
00000000
fffffff6
00000000
fffffffc
fffffffa
fffffffb
fffffff7
fffffffd
fffffffc
fffffffe
fffffffb
ffffffff
fffffffd
fffffffd
fffffffe
fffffffd
fffffffc
fffffffe
fffffffd
00000000
00000002
00000000
00000002
00000007
00000009
00000003
00000009
00000009
ffffffff
00000002
ffffffff
fffffffa
ffffffff
00000002
ffffffff
00000001
fffffffe
00000004
fffffffb
fffffffd
fffffffc
fffffffb
ffffffff
fffffff4
fffffff3
fffffff9
fffffff3
fffffff2
fffffff9
00000001
00000002
00000001
fffffffc
00000000
00000005
fffffffa
00000002
00000004
00000000
00000001
00000003
ffffffff
ffffffff
00000000
00000000
fffffffc
fffffffd
00000007
00000002
00000000
00000002
00000000
00000000
00000001
ffffffff
ffffffff
00000003
00000000
00000002
fffffffd
fffffff8
ffffffff
ffffffff
fffffffa
00000002
ffffffff
00000001
00000000
00000007
00000008
00000002
00000003
00000002
00000000
fffffffb
fffffff7
fffffffa
00000000
00000002
fffffffd
fffffffa
00000000
fffffff9
fffffffe
00000001
00000000
fffffffd
00000000
ffffffff
fffffffd
00000000
00000003
00000000
00000000
ffffffff
00000000
fffffffc
00000001
fffffffe
00000000
00000002
fffffffd
ffffffff
fffffffe
00000005
00000009
ffffffff
00000000
00000004
ffffffff
00000000
00000000
00000001
00000000
00000001
00000001
00000000
00000000
ffffffff
00000000
ffffffff
fffffffd
00000000
00000000
00000000
00000000
fffffffe
00000000
00000000
00000007
00000003
fffffff6
fffffff5
00000001
fffffff8
fffffff2
00000001
00000000
00000001
00000004
00000000
fffffffd
fffffffe
ffffffff
fffffff7
fffffffa
fffffffe
00000003
00000000
fffffffe
00000001
00000001
ffffffff
fffffffe
fffffffc
00000000
00000000
fffffffc
00000003
00000004
00000000
00000000
00000001
fffffffe
ffffffff
00000006
00000000
fffffffe
00000004
00000001
00000000
00000001
00000004
00000004
00000004
00000003
00000004
ffffffff
00000001
00000001
00000002
00000000
00000000
00000004
00000004
ffffffff
00000000
00000002
00000000
fffffffe
00000000
00000000
fffffffe
00000001
ffffffff
fffffffc
ffffffff
ffffffff
ffffffff
00000000
00000000
ffffffff
00000001
ffffffff
00000000
00000002
00000000
fffffffd
00000000
fffffffe
ffffffff
ffffffff
fffffffe
fffffffb
ffffffff
fffffffd
fffffffd
fffffffe
fffffffc
fffffff8
fffffff7
00000006
0000000d
fffffffe
00000002
00000010
00000000
00000007
00000000
00000004
00000000
fffffffb
00000000
00000002
fffffffd
00000001
00000007
00000003
ffffffff
00000002
ffffffff
00000001
ffffffff
00000001
00000003
00000000
00000000
00000000
fffffffe
fffffffe
ffffffff
ffffffff
00000000
00000001
00000000
ffffffff
00000001
fffffffc
fffffffd
00000000
fffffffe
ffffffff
00000002
ffffffff
fffffffc
00000003
fffffffd
ffffffff
00000003
ffffffff
00000000
00000001
00000001
00000000
fffffffe
ffffffff
fffffffd
00000001
ffffffff
00000000
00000002
00000001
ffffffff
00000002
fffffff7
fffffff9
ffffffff
fffffffb
fffffffc
00000001
00000002
fffffffe
fffffffc
fffffffe
fffffff9
fffffffa
fffffffe
fffffffb
fffffffe
00000000
fffffffd
00000001
00000000
ffffffff
00000001
ffffffff
00000000
00000000
00000003
fffffffd
fffffffc
00000002
fffffffd
fffffffd
00000006
00000000
fffffffe
00000006
fffffffb
ffffffff
00000001
fffffffe
fffffffc
00000004
fffffffd
00000000
ffffffff
0000000c
0000000c
00000002
00000008
00000005
00000000
00000002
00000002
00000003
00000004
00000002
00000006
0000000c
00000000
00000000
00000001
00000002
00000000
fffffffc
ffffffff
00000001
00000003
00000004
00000001
00000000
00000003
fffffffe
0000000a
00000004
00000003
0000000f
00000001
ffffffff
fffffffe
00000001
00000000
ffffffff
fffffffd
ffffffff
ffffffff
fffffffb
ffffffff
fffffff8
fffffffb
00000002
00000007
00000002
00000002
00000000
ffffffff
fffffffb
fffffffa
ffffffff
00000004
ffffffff
fffffff8
00000000
ffffffff
fffffffc
fffffffd
fffffffc
fffffffe
00000003
0000000d
00000004
00000000
00000003
ffffffff
fffffffe
fffffffc
00000000
fffffff8
fffffff0
fffffffa
00000000
fffffffb
00000000
00000007
00000000
00000007
00000005
00000005
00000001
00000000
fffffffe
fffffffe
fffffffe
fffffffe
ffffffff
00000004
00000007
fffffffb
00000000
00000000
ffffffff
00000000
fffffffe
fffffffb
fffffffa
00000009
00000005
00000000
00000006
00000003
fffffffd
fffffff6
fffffffb
ffffffff
fffffffb
00000000
ffffffff
00000000
00000001
00000000
00000003
00000000
fffffffe
fffffff9
00000000
fffffffd
fffffffa
fffffffd
00000001
ffffffff
00000003
00000000
fffffffd
00000001
00000004
00000000
00000006
00000001
00000000
00000006
00000002
0000000c
00000006
fffffff9
fffffffe
00000000
fffffff8
fffffff9
fffffffa
fffffffe
00000002
00000004
fffffffe
00000005
00000002
fffffffd
fffffffe
fffffffe
ffffffff
fffffffb
00000000
00000000
00000001
00000002
00000001
00000004
00000004
fffffffc
fffffff9
fffffffe
00000001
00000001
00000000
00000004
00000003
ffffffff
00000001
ffffffff
fffffffd
00000000
00000002
00000000
00000002
00000002
fffffffe
0000000c
0000000d
00000000
00000009
fffffffd
fffffff7
00000001
fffffffa
fffffff8
00000001
00000000
00000000
00000003
00000007
00000006
00000001
00000009
0000000b
00000001
00000000
fffffffa
00000004
00000001
fffffffe
fffffffe
ffffffff
fffffffe
fffffffc
ffffffed
fffffff6
fffffffe
fffffff8
fffffffe
ffffffff
ffffffff
00000008
fffffffd
00000000
fffffffd
fffffffe
00000006
00000005
00000002
00000008
00000001
fffffff4
fffffff4
fffffff9
fffffff8
fffffff7
fffffff7
00000003
fffffffc
fffffff8
fffffffc
fffffffe
00000003
fffffffe
00000000
00000002
fffffffe
00000001
ffffffff
00000000
00000000
00000003
00000001
00000000
00000005
00000000
ffffffff
00000000
ffffffff
00000001
ffffffff
fffffff8
fffffff8
fffffffa
00000003
00000001
ffffffff
fffffffe
fffffffb
fffffffb
00000000
fffffff9
fffffffe
fffffffe
fffffffc
00000007
00000000
00000000
00000002
00000001
00000002
00000000
ffffffff
fffffffe
fffffffd
00000001
00000001
00000003
00000000
00000002
00000004
00000000
00000000
00000001
00000000
00000003
00000001
ffffffff
00000003
00000001
ffffffff
00000000
00000003
00000000
00000002
00000000
00000000
00000001
ffffffff
00000003
00000001
ffffffff
fffffffe
fffffffe
00000000
00000000
00000001
00000000
00000002
00000004
00000003
00000004
ffffffff
fffffffe
00000000
00000005
00000001
00000001
00000001
00000000
00000001
00000001
00000003
00000001
fffffffe
00000000
00000000
fffffffe
fffffffe
00000002
00000003
fffffffc
00000002
00000000
fffffffe
00000001
fffffffc
ffffffff
00000000
00000008
00000004
00000002
00000005
00000004
00000000
00000002
00000004
00000000
00000001
00000000
00000000
00000000
00000000
00000002
00000001
00000002
00000000
00000003
ffffffff
ffffffff
00000007
00000003
00000000
00000006
00000001
00000001
00000001
00000001
00000000
00000003
00000002
fffffffd
00000000
00000001
00000000
00000000
fffffffe
00000000
00000000
fffffffd
00000000
00000000
00000001
fffffffe
fffffffc
fffffffb
fffffffe
fffffffe
fffffffd
ffffffff
00000000
ffffffff
00000000
00000000
ffffffff
00000001
00000003
00000001
00000000
00000000
ffffffff
fffffff8
00000000
ffffffff
fffffff9
ffffffff
ffffffff
00000000
00000000
00000000
00000000
00000000
ffffffff
00000001
00000004
00000000
ffffffff
00000002
00000000
00000001
00000002
fffffffe
fffffffe
00000000
00000000
00000002
00000000
00000000
00000003
00000007
00000006
00000003
00000003
00000003
00000005
00000002
00000002
00000000
fffffffc
00000002
ffffffff
00000000
00000001
fffffffd
00000000
00000002
00000000
fffffffe
00000000
fffffffe
00000000
00000000
fffffffe
00000000
00000000
fffffffc
00000000
00000000
00000000
00000000
00000001
fffffffd
fffffffe
00000000
fffffffd
fffffffc
fffffffe
00000000
fffffffb
fffffffb
fffffffe
00000000
fffffffe
00000000
fffffffc
fffffffb
00000000
00000002
fffffffe
00000000
00000000
fffffffe
ffffffff
00000001
00000000
00000000
00000001
00000001
00000000
00000000
00000001
fffffffe
fffffffe
fffffffd
ffffffff
00000001
00000001
ffffffff
00000003
00000001
00000000
00000003
00000001
00000000
00000006
00000003
fffffffe
00000000
00000000
00000004
00000003
00000004
00000005
00000007
00000002
00000000
00000007
00000002
00000002
00000004
00000003
ffffffff
00000006
00000006
00000000
00000006
00000002
fffffffd
00000002
00000001
ffffffff
00000000
00000000
00000004
ffffffff
00000001
00000001
00000003
00000002
00000002
00000003
00000003
00000000
00000002
00000003
00000000
00000003
00000004
00000001
00000002
00000005
00000001
00000004
00000001
00000006
ffffffff
fffffffc
00000002
fffffff8
fffffffa
ffffffff
fffffff7
00000000
fffffff9
00000002
00000000
fffffffc
00000002
00000000
fffffffb
00000006
fffffffe
fffffffc
00000000
00000000
fffffffa
fffffffe
ffffffff
fffffffe
00000002
00000000
00000002
fffffffc
00000000
00000007
00000003
00000000
00000008
00000000
fffffffd
00000005
fffffff7
ffffffff
fffffffd
fffffff6
00000001
00000001
ffffffff
00000006
fffffffe
00000003
00000004
fffffffe
fffffffe
fffffffd
fffffffe
fffffffb
fffffffe
00000007
00000001
00000005
00000002
00000000
00000002
ffffffff
ffffffff
00000004
fffffff9
fffffff0
0000000b
fffffff7
ffffffef
0000000b
fffffffb
fffffff4
0000000f
fffffffa
ffffffff
00000003
fffffff7
00000001
00000000
00000000
00000007
00000001
00000002
ffffffff
00000000
00000001
fffffffe
00000001
00000001
fffffffe
00000005
fffffffe
fffffffe
00000006
ffffffff
00000002
00000005
ffffffff
00000001
ffffffff
00000000
00000000
00000000
00000000
ffffffff
ffffffff
00000001
00000000
fffffffd
0000000d
fffffffa
00000004
00000009
fffffff3
00000000
00000003
fffffff1
00000004
00000009
ffffffff
fffffffd
00000008
fffffffb
fffffff9
00000008
fffffffb
fffffffd
fffffffe
fffffffe
fffffffc
fffffffb
00000002
00000003
ffffffff
00000004
00000003
fffffffc
fffffffa
00000000
fffffffd
fffffffb
00000000
ffffffff
fffffffb
fffffffa
fffffffd
00000002
fffffffe
ffffffff
ffffffff
fffffffb
fffffffc
00000003
00000001
ffffffff
ffffffff
fffffffb
fffffffc
ffffffff
00000001
fffffffe
00000001
00000005
ffffffff
00000000
fffffffd
fffffffe
ffffffff
ffffffff
fffffffe
00000000
00000002
fffffff5
00000000
00000000
fffffff9
00000001
fffffffc
fffffffc
0000000b
00000000
fffffffb
00000002
fffffffd
fffffffd
00000000
ffffffff
fffffffe
00000005
00000001
fffffffc
fffffffa
ffffffff
fffffffb
fffffffc
00000000
fffffffe
ffffffff
00000002
00000007
00000001
00000001
00000001
fffffffb
fffffffe
00000000
fffffffa
00000000
00000005
ffffffff
ffffffff
00000001
00000001
ffffffff
00000000
ffffffff
ffffffff
00000000
fffffffd
00000001
fffffffc
fffffffb
ffffffff
00000002
00000004
00000000
fffffffa
00000001
00000004
fffffffa
00000003
00000001
fffffffe
00000008
00000005
fffffff9
00000000
00000000
fffffffa
00000001
00000003
00000000
00000003
00000001
00000004
00000006
fffffffb
00000000
00000006
fffffffd
00000000
00000006
00000000
ffffffff
fffffffd
ffffffff
fffffffe
00000000
00000000
00000001
00000000
00000000
00000001
00000001
00000000
00000000
fffffffc
fffffffe
ffffffff
00000000
00000000
00000009
fffffffc
fffffff5
00000005
fffffffc
00000000
00000008
00000001
fffffffb
fffffffc
fffffffd
00000004
fffffffc
ffffffff
00000001
fffffffe
00000000
00000001
00000002
ffffffff
fffffffd
00000000
00000001
fffffffe
00000000
fffffffd
fffffffd
00000002
00000003
00000004
fffffff9
fffffffc
00000004
fffffffb
fffffff9
00000002
00000000
00000001
00000003
fffffffd
fffffffa
00000001
00000000
00000000
00000002
fffffffe
00000000
00000000
fffffffd
ffffffff
00000002
fffffffd
fffffffd
00000000
00000001
00000001
00000002
00000000
00000002
ffffffff
00000003
00000000
00000000
ffffffee
ffffffed
fffffffa
00000019
00000000
fffffffa
00000007
0000000b
fffffffb
fffffffe
00000002
00000000
fffffffa
ffffffff
00000001
fffffff3
fffffffb
ffffffff
ffffffff
00000000
00000000
fffffffc
fffffffe
00000000
fffffffb
fffffffc
00000000
00000001
00000000
00000000
fffffffd
fffffffe
00000000
fffffffe
ffffffff
00000000
fffffff1
ffffffef
fffffff2
00000027
00000010
fffffff5
0000000a
00000008
fffffff3
ffffffff
ffffffff
ffffffff
fffffffd
fffffffe
ffffffff
00000000
ffffffff
ffffffff
00000000
00000000
00000000
00000001
fffffffd
00000001
00000003
fffffffd
00000002
ffffffff
00000000
00000003
00000001
fffffffc
fffffffe
fffffff5
00000000
ffffffff
fffffff6
fffffff0
fffffff8
00000008
00000008
fffffff6
fffffffa
00000013
fffffff8
00000000
00000000
ffffffff
00000002
00000000
00000000
ffffffff
00000001
00000003
ffffffff
00000001
00000002
ffffffff
00000001
00000002
fffffffc
00000001
00000000
00000003
fffffffe
ffffffff
00000004
00000003
00000000
00000000
00000000
00000000
fffffffc
fffffffc
00000002
00000000
ffffffff
00000001
00000001
00000002
00000000
00000000
00000000
00000000
ffffffff
00000000
00000001
fffffffd
00000000
00000001
00000000
00000000
00000000
00000003
00000000
00000000
00000003
00000002
ffffffff
00000003
00000005
00000002
fffffffa
00000000
00000001
00000000
ffffffff
00000001
00000000
00000001
00000000
00000001
fffffffd
00000000
00000000
00000000
00000000
fffffffe
00000000
fffffffa
00000006
00000000
fffffffe
00000004
fffffff7
fffffffd
00000001
00000003
00000005
fffffff9
fffffffc
00000004
fffffff8
fffffffc
00000005
00000000
00000001
00000002
fffffffe
00000000
00000001
00000000
fffffffe
00000001
00000002
00000000
00000000
ffffffff
fffffffd
00000000
00000000
fffffffd
00000002
00000001
00000002
fffffffd
00000000
00000000
00000000
00000000
00000002
00000002
00000001
00000001
fffffffe
ffffffff
fffffffc
00000000
ffffffff
fffffffc
ffffffff
00000000
00000002
00000001
fffffff7
00000000
00000001
ffffffff
00000001
00000000
00000002
00000000
00000004
fffffffd
00000000
00000000
ffffffff
00000001
00000003
fffffffd
00000000
00000001
00000001
00000000
fffffffe
00000001
00000001
00000000
00000002
00000001
00000000
00000002
ffffffff
ffffffff
00000005
fffffffe
00000000
ffffffff
00000000
00000000
00000000
00000001
00000001
00000001
00000000
00000000
00000000
fffffffd
00000000
ffffffff
fffffffb
ffffffff
00000002
ffffffff
00000002
fffffffa
fffffff8
fffffffd
fffffffb
fffffff9
fffffffd
fffffff9
fffffff8
fffffffb
fffffffe
fffffffd
fffffffd
fffffffd
fffffffe
fffffffe
fffffffe
00000001
00000000
00000000
00000005
00000002
00000001
00000003
00000002
00000000
fffffffd
00000001
00000001
fffffffd
fffffffe
00000001
fffffff9
00000001
ffffffff
00000008
00000000
00000000
fffffffe
00000000
ffffffff
00000000
00000000
00000000
00000000
00000003
00000000
ffffffff
fffffffe
00000000
00000000
fffffffd
00000001
00000000
ffffffff
fffffffd
fffffffa
fffffff9
ffffffff
fffffffa
fffffffb
fffffffb
fffffffb
fffffffc
00000000
ffffffff
fffffffd
fffffffe
00000001
00000000
00000000
00000002
00000002
fffffffc
ffffffff
fffffffc
ffffffff
00000000
ffffffff
fffffffe
00000002
00000000
fffffffb
00000000
00000001
00000000
fffffffd
ffffffff
00000001
00000000
00000000
00000002
00000004
00000000
00000001
00000000
00000002
fffffffe
fffffffe
ffffffff
00000000
00000000
00000003
00000000
00000000
00000002
00000001
00000005
00000001
00000000
ffffffff
00000000
00000001
00000000
00000000
00000004
00000002
00000001
00000002
00000003
00000001
00000002
00000003
00000003
00000002
00000005
00000007
ffffffff
ffffffff
00000001
fffffffd
fffffffd
00000001
ffffffff
fffffffe
ffffffff
00000000
00000000
00000002
00000002
00000000
00000000
00000001
00000001
ffffffff
fffffffd
fffffffc
ffffffff
00000000
fffffffb
fffffffc
00000000
fffffffe
fffffffb
fffffffa
fffffffb
fffffffd
fffffffe
fffffffe
fffffffe
fffffffe
fffffffc
ffffffff
00000000
00000003
00000000
00000002
00000000
00000001
00000000
00000000
00000000
fffffffc
fffffffc
ffffffff
fffffffa
fffffffb
fffffffe
fffffffd
fffffffd
00000000
ffffffff
fffffffe
fffffffe
00000000
00000001
fffffffc
00000002
ffffffff
00000004
00000001
00000003
00000000
00000000
00000000
00000000
00000000
00000000
00000000
00000000
00000001
00000000
ffffffff
00000000
00000001
ffffffff
00000000
00000001
00000001
ffffffff
fffffffe
00000001
00000001
00000002
00000002
00000000
00000001
fffffffe
fffffffe
fffffffe
fffffffe
fffffffc
fffffffe
00000000
00000000
fffffffe
fffffffa
ffffffff
00000000
ffffffff
fffffffe
00000000
00000001
fffffffd
00000000
00000003
00000002
00000001
00000001
00000000
00000000
00000000
ffffffff
00000001
ffffffff
ffffffff
fffffffd
ffffffff
ffffffff
fffffffd
00000000
ffffffff
00000000
00000000
00000000
fffffffd
ffffffff
fffffffd
fffffffd
00000000
fffffffe
fffffffd
00000004
00000001
00000001
00000001
00000005
00000002
00000000
00000002
00000003
fffffffc
00000000
00000004
fffffffc
00000002
00000003
00000002
ffffffff
ffffffff
00000001
ffffffff
00000001
00000003
00000006
00000007
fffffffb
fffffff9
fffffffb
00000002
00000004
00000006
fffffffb
fffffffb
00000001
ffffffff
fffffff8
fffffffc
00000002
00000004
ffffffff
00000000
00000002
fffffffe
00000000
00000004
00000000
ffffffff
fffffffa
fffffffa
00000005
fffffffb
fffffff9
00000009
00000004
00000000
00000000
fffffffb
00000002
00000001
fffffffa
fffffffd
00000002
00000000
00000000
fffffff9
fffffff8
fffffffc
00000001
fffffff7
fffffffd
00000009
00000005
00000002
fffffff7
fffffffa
fffffffb
00000005
0000000e
00000005
ffffffff
00000001
00000006
00000005
00000003
00000002
fffffffe
ffffffff
fffffffe
fffffffa
fffffffd
00000000
fffffffe
fffffffe
00000001
00000000
ffffffff
fffffffd
00000002
fffffffe
fffffffe
ffffffff
fffffffc
00000001
00000003
00000002
00000000
fffffffe
00000001
00000001
fffffffe
fffffff6
fffffffa
00000002
ffffffff
fffffffe
00000001
00000001
fffffffd
fffffffc
ffffffff
00000000
00000000
fffffffc
fffffff9
00000005
00000006
00000001
fffffffd
fffffff9
fffffffc
00000001
fffffffb
fffffff9
00000007
00000008
00000002
00000000
00000000
fffffffc
fffffffa
00000000
00000000
fffffffd
fffffff9
fffffffd
fffffff6
fffffff8
fffffff9
00000001
00000003
00000002
fffffffe
fffffffd
ffffffff
00000004
00000001
00000004
00000002
00000003
00000003
fffffffd
fffffffe
fffffff9
00000000
fffffff7
fffffff6
00000002
00000004
00000003
00000000
00000005
00000007
00000000
fffffffe
00000002
fffffffc
00000000
fffffffe
00000001
fffffffe
00000000
00000002
fffffffd
00000000
00000006
00000003
00000005
fffffffe
fffffffd
fffffffe
00000001
ffffffff
fffffffa
00000002
00000004
00000002
00000004
00000006
00000007
00000001
00000006
00000004
ffffffff
00000002
00000004
ffffffff
fffffffe
ffffffff
00000000
fffffffb
fffffffe
00000002
fffffff8
fffffffa
00000008
00000000
fffffffa
00000003
00000001
00000000
00000002
00000003
00000004
00000000
fffffffd
00000001
ffffffff
00000002
00000002
fffffffa
fffffffd
fffffffd
00000006
00000002
00000001
ffffffff
00000000
fffffffb
ffffffff
00000002
00000004
00000000
00000004
00000005
00000004
00000007
00000008
fffffffe
fffffffe
00000003
fffffffc
fffffff9
00000000
00000004
00000000
00000002
00000008
00000003
00000001
00000001
00000008
00000003
fffffffa
fffffffb
fffffffb
fffffff8
fffffffb
fffffff9
fffffffd
00000000
fffffffd
00000000
ffffffff
00000003
ffffffff
00000002
00000001
fffffffc
fffffff9
00000001
fffffffb
00000000
00000003
fffffffe
fffffff8
fffffffd
00000000
00000000
00000003
fffffff8
fffffff5
fffffffd
fffffffe
fffffffa
fffffffc
ffffffff
00000000
00000001
fffffffe
fffffffa
00000002
00000000
fffffffa
00000000
fffffffd
fffffff5
ffffffff
00000000
00000000
00000000
00000005
00000000
fffffffd
00000005
00000005
ffffffff
00000005
00000007
fffffffd
ffffffff
00000004
fffffffe
00000002
00000002
00000000
fffffff8
fffffff9
00000004
fffffffe
fffffff8
fffffffe
00000000
fffffffc
00000000
fffffffd
00000002
00000007
fffffffc
fffffffb
00000000
00000000
fffffffd
00000001
00000001
00000003
ffffffff
00000001
00000004
00000000
ffffffff
00000001
00000000
fffffffa
ffffffff
00000004
00000000
fffffffb
00000000
00000008
00000000
00000002
00000000
00000001
00000000
00000003
00000001
ffffffff
00000006
00000004
00000002
00000001
ffffffff
ffffffff
fffffffc
00000001
00000000
fffffffb
ffffffff
00000000
fffffffd
00000000
00000002
fffffffd
00000002
00000003
fffffffe
fffffffd
00000000
fffffffd
00000000
00000007
fffffffe
fffffffd
00000000
00000001
fffffffd
fffffffa
00000000
fffffff8
fffffffd
0000000b
fffffffd
fffffffa
0000000a
00000002
ffffffff
ffffffff
00000004
00000000
fffffffc
00000000
00000002
fffffffd
00000000
ffffffff
fffffffe
00000003
00000006
fffffffd
fffffffe
00000005
ffffffff
fffffff8
fffffffe
ffffffff
00000000
fffffffc
fffffffd
fffffffc
fffffffa
00000000
fffffffc
fffffffc
fffffffc
fffffff8
00000007
00000000
fffffff6
00000000
00000008
fffffffd
fffffffd
fffffffe
00000006
00000006
00000000
00000000
00000006
ffffffff
00000000
00000002
fffffff7
fffffffb
00000005
fffffffb
fffffff3
fffffffd
fffffffe
fffffffa
fffffff3
00000004
00000004
00000005
00000003
00000003
00000002
00000001
00000005
00000000
00000000
fffffff9
ffffffff
fffffffd
fffffffc
00000000
00000000
fffffffd
00000002
00000002
fffffffd
ffffffff
00000000
00000002
00000000
00000000
00000008
00000003
00000000
00000001
00000006
fffffffb
ffffffff
00000001
ffffffff
fffffffe
00000003
00000000
fffffffe
00000009
fffffffe
fffffffa
00000004
00000001
fffffffb
fffffffc
fffffff7
00000002
00000002
fffffffa
fffffffe
00000000
fffffff9
00000000
fffffffe
fffffffc
00000000
00000003
fffffff9
fffffffc
fffffffe
00000000
fffffffd
fffffffe
00000002
fffffffd
fffffffe
fffffffe
00000001
00000004
00000000
ffffffff
00000004
00000001
00000000
00000003
fffffffe
ffffffff
00000000
fffffffd
ffffffff
fffffffc
fffffffd
fffffffe
fffffffc
fffffffd
fffffffd
fffffff9
00000004
00000006
fffffffe
00000000
fffffff9
00000000
00000003
fffffffc
ffffffff
00000003
ffffffff
fffffffc
00000002
00000000
fffffff9
00000004
00000000
fffffffb
00000005
00000007
fffffffe
fffffffd
fffffffb
00000004
fffffff8
fffffff6
00000000
00000000
fffffff9
fffffffc
fffffffc
00000000
00000001
fffffffd
fffffffe
ffffffff
fffffffc
00000001
00000002
fffffffe
fffffffd
fffffffe
fffffff9
fffffff8
00000001
fffffffc
00000000
00000002
00000003
00000004
fffffffd
00000000
fffffffe
fffffffd
fffffffc
00000000
fffffffb
ffffffff
ffffffff
fffffffe
fffffffd
fffffffe
fffffffe
fffffffa
fffffffc
00000000
00000001
fffffffd
fffffffc
fffffffc
fffffffd
fffffffd
fffffffe
fffffffb
fffffffe
fffffff2
fffffff9
00000003
fffffff2
fffffffe
0000000a
fffffffb
00000005
0000000a
00000002
fffffffd
00000000
00000000
00000000
00000001
00000004
00000002
ffffffff
00000001
00000000
00000002
fffffffd
00000000
00000005
fffffffd
00000003
00000003
00000002
ffffffff
00000001
fffffffe
00000000
00000000
fffffffe
00000003
00000001
00000000
fffffffe
00000001
00000001
00000000
fffffffe
ffffffff
00000000
ffffffff
00000008
00000000
fffffffc
00000001
fffffffd
fffffffb
00000001
fffffffc
fffffffc
00000006
00000003
00000001
00000004
00000000
00000000
00000004
00000003
ffffffff
fffffff7
fffffff7
00000000
fffffff8
fffffffe
00000002
00000001
00000004
00000002
fffffff6
fffffffd
00000003
fffffff9
fffffffc
00000006
fffffff8
00000000
00000009
ffffffff
fffffff9
fffffffb
fffffffa
fffffff8
fffffffa
fffffffa
fffffff9
fffffffc
ffffffff
00000000
ffffffff
fffffffd
fffffffe
ffffffff
00000000
00000000
fffffffe
00000002
00000005
fffffffd
00000005
00000006
fffffffb
00000004
00000001
fffffff9
00000000
00000002
00000001
00000002
ffffffff
00000000
00000001
00000000
fffffffe
00000001
00000002
fffffffe
00000003
00000000
fffffffe
fffffffe
ffffffff
00000005
fffffffc
ffffffff
00000002
00000001
00000001
00000002
00000002
00000000
fffffffe
ffffffff
00000000
00000000
00000000
00000003
00000000
00000001
00000000
00000001
00000000
ffffffff
00000001
00000002
ffffffff
00000000
00000001
00000000
00000000
fffffffd
fffffffe
fffffffe
fffffffd
fffffffc
fffffffe
ffffffff
fffffffe
fffffffd
ffffffff
fffffffe
fffffff7
00000006
fffffff9
fffffff9
fffffffd
fffffff3
fffffffe
00000000
00000000
00000000
00000000
fffffffb
ffffffff
fffffffb
fffffffc
fffffffd
00000000
00000000
00000004
00000000
00000001
00000004
00000003
00000003
00000006
00000000
00000001
fffffffe
fffffffe
00000000
00000001
fffffffd
fffffffe
00000000
00000000
00000002
00000000
00000002
fffffffe
ffffffff
00000003
00000001
00000000
fffffffd
ffffffff
fffffffc
fffffffd
fffffffd
fffffffd
fffffffe
ffffffff
fffffffc
00000000
fffffffd
fffffffb
fffffff8
fffffffa
00000000
fffffffc
00000001
00000000
fffffffa
fffffffd
00000000
fffffff7
fffffffc
00000002
fffffff9
00000002
00000005
00000001
00000000
fffffffd
00000002
00000001
ffffffff
00000002
00000004
00000001
00000000
fffffffa
fffffffc
fffffffd
ffffffff
ffffffff
00000000
00000004
ffffffff
fffffff3
fffffff0
fffffff6
fffffffd
fffffff7
fffffff8
00000004
00000002
fffffffd
ffffffff
fffffffd
00000000
00000003
00000004
00000000
00000006
00000006
00000000
00000000
00000003
00000000
00000006
00000005
fffffffc
00000000
ffffffff
00000004
fffffffc
fffffff5
fffffff4
fffffffa
fffffffb
00000003
ffffffff
00000000
00000005
fffffffe
00000001
ffffffff
00000005
0000000c
00000000
ffffffff
00000003
fffffff5
ffffffff
fffffffd
00000001
fffffffe
00000005
00000002
ffffffff
00000000
fffffffc
fffffff8
0000000b
ffffffff
00000000
00000004
fffffff8
00000000
ffffffee
fffffff9
fffffffe
fffffff6
fffffffa
fffffffa
fffffffa
00000006
fffffff9
fffffffd
00000001
00000002
00000000
00000003
00000001
00000004
00000006
00000000
fffffffd
00000000
00000004
00000008
fffffffc
fffffffd
fffffff3
fffffffb
fffffffd
fffffff7
0000000a
00000000
fffffff9
00000003
00000000
fffffffb
00000004
fffffffd
fffffffc
fffffffe
fffffff6
fffffff6
fffffff6
00000000
fffffff1
fffffff9
ffffffff
fffffffe
fffffffe
fffffff5
fffffff7
fffffffd
00000006
0000000b
ffffffff
ffffffff
00000007
fffffff5
00000005
0000000f
00000008
00000000
00000004
fffffffe
00000001
fffffff6
fffffffa
00000000
00000000
00000001
fffffffe
fffffffc
fffffff7
fffffffd
fffffffa
ffffffff
fffffff3
00000000
fffffff7
fffffff3
fffffffe
ffffffef
fffffff7
fffffff6
fffffff7
fffffff5
ffffffec
fffffffb
fffffff8
fffffff8
ffffffff
00000000
00000005
00000006
00000003
fffffff4
00000002
00000001
fffffffe
00000002
00000004
00000006
fffffffb
00000002
fffffffd
00000002
0000000b
00000004
fffffff9
00000005
00000001
fffffffd
00000000
fffffff8
00000002
ffffffff
fffffffa
00000004
fffffff6
fffffff9
00000000
00000002
fffffffd
00000000
00000005
fffffffd
fffffffb
00000003
fffffffd
fffffff7
fffffffe
fffffff9
fffffffe
fffffff5
fffffffd
ffffffff
fffffffa
ffffffff
00000007
00000004
0000000e
00000002
00000008
0000000c
00000000
00000003
fffffffc
fffffffd
fffffffb
fffffff1
ffffffed
00000003
00000004
00000008
00000013
00000017
00000010
00000007
00000004
00000003
00000001
0000000a
00000007
00000003
0000000d
fffffffe
00000000
fffffffb
fffffffd
00000000
00000000
00000003
00000000
0000000b
00000000
fffffff4
ffffffe7
fffffff6
fffffff9
fffffff1
00000001
00000005
00000000
00000003
fffffff3
fffffff5
00000008
00000001
00000000
00000001
00000006
00000009
00000002
ffffffff
fffffff5
ffffffff
00000007
fffffffb
00000000
00000008
0000000a
00000002
00000001
fffffffe
fffffffc
00000001
00000003
00000003
00000003
00000000
fffffffc
fffffffd
fffffffc
fffffffb
fffffff7
fffffffe
ffffffff
fffffffb
00000000
fffffffe
00000004
00000000
ffffffff
ffffffff
00000005
00000005
fffffffb
00000006
00000004
00000002
fffffffe
00000008
00000000
fffffffb
00000005
fffffffc
fffffffa
fffffffd
00000003
00000006
00000004
00000001
00000001
00000000
00000000
00000002
fffffffe
fffffffa
fffffffa
fffffff7
fffffffb
ffffffff
fffffffc
fffffffa
00000000
00000001
00000003
00000000
fffffffc
fffffffe
00000001
00000000
00000001
00000000
00000000
00000007
00000000
fffffffd
00000000
fffffffc
fffffffe
fffffffc
fffffffb
fffffffe
00000000
fffffffe
fffffffe
fffffffa
fffffff5
ffffffff
fffffff6
fffffff4
fffffffb
00000001
fffffffd
00000007
fffffffd
fffffffa
00000003
fffffff9
fffffff6
00000000
00000001
fffffffa
fffffff9
fffffffa
fffffff9
fffffff7
fffffffb
fffffff9
ffffffff
ffffffff
00000001
00000000
fffffffd
fffffffd
fffffffe
fffffffd
fffffffb
fffffffa
fffffffb
fffffffc
fffffffa
fffffffc
00000005
ffffffff
fffffffe
00000001
00000000
00000001
00000000
fffffffa
ffffffff
fffffffe
00000000
00000006
00000009
00000009
ffffffff
fffffff7
fffffff8
fffffff8
fffffff4
fffffff4
ffffffff
fffffff9
fffffffb
00000001
00000000
fffffff9
00000000
ffffffff
fffffffe
00000002
00000004
00000000
0000000a
00000009
00000005
00000000
00000000
00000000
fffffffd
fffffffa
fffffffc
fffffffb
fffffffc
fffffffb
fffffffb
fffffffb
00000000
fffffffa
fffffffe
00000004
00000000
fffffffb
ffffffff
fffffffc
fffffffb
fffffffd
00000000
fffffff9
fffffffe
00000003
fffffffd
00000006
fffffffe
00000000
00000003
fffffffc
fffffff8
fffffffa
00000000
fffffffa
fffffffd
fffffff8
fffffff2
fffffff4
fffffff2
fffffff5
fffffff8
00000000
00000002
00000002
00000000
00000000
00000004
fffffffe
00000000
00000000
00000000
00000006
00000002
00000000
00000002
00000000
fffffffd
ffffffff
00000004
ffffffff
fffffffa
fffffffe
fffffffb
fffffffa
fffffffd
fffffffc
fffffff5
fffffffa
00000006
00000003
00000001
ffffffff
fffffffe
fffffffe
ffffffff
fffffffc
fffffffb
00000002
00000000
fffffffd
fffffffc
fffffff8
fffffffb
fffffffc
fffffffa
fffffffb
00000006
00000002
00000000
fffffffd
fffffffe
00000001
00000000
00000000
00000000
00000003
00000001
00000000
fffffffe
fffffffc
00000000
fffffffe
fffffffe
00000001
0000000a
00000000
ffffffff
00000003
fffffffe
fffffffd
fffffffc
fffffff9
fffffffe
fffffffc
fffffffc
fffffffd
fffffff9
fffffff9
fffffffb
00000001
00000006
fffffffe
00000002
00000002
00000001
00000004
00000002
00000003
00000003
00000000
00000004
00000000
fffffffe
fffffffc
ffffffff
fffffffc
00000002
fffffffe
fffffffd
00000002
fffffff8
fffffffe
fffffffc
00000001
00000000
00000000
00000000
00000004
00000000
00000000
00000005
00000000
00000003
fffffffb
fffffff8
00000002
00000000
ffffffff
ffffffff
ffffffff
fffffffe
00000000
fffffffa
ffffffff
fffffffc
fffffff9
fffffffe
00000002
00000001
00000000
00000001
fffffffc
ffffffff
00000000
00000000
ffffffff
00000002
fffffffe
fffffffe
00000002
fffffffb
fffffffc
fffffffe
ffffffff
00000000
ffffffff
fffffffd
ffffffff
fffffffd
fffffffd
00000001
fffffffd
00000002
00000004
00000004
00000001
00000001
00000000
00000000
fffffffe
fffffffb
00000003
00000001
00000003
00000004
00000003
fffffffc
fffffff9
00000000
fffffffb
fffffffd
fffffffd
00000000
fffffffd
fffffffa
00000000
00000000
fffffffa
fffffffd
00000000
00000002
fffffffe
00000000
00000001
fffffffe
fffffffe
00000007
00000001
00000001
00000008
fffffffe
00000006
00000002
00000005
fffffffe
fffffff8
00000000
fffffff6
fffffffe
ffffffff
00000004
fffffffc
00000000
00000004
fffffffc
00000005
00000000
00000002
00000004
00000002
00000000
00000002
00000000
fffffffd
00000002
00000002
00000000
00000000
00000000
ffffffff
00000000
fffffffa
fffffffa
fffffffe
fffffff9
fffffffc
00000000
00000000
00000000
00000002
fffffffe
fffffffb
00000001
00000000
fffffffd
fffffffb
fffffffd
00000002
fffffffb
fffffffe
00000000
fffffffe
00000005
00000004
00000006
00000002
00000002
00000001
00000000
00000000
fffffffe
fffffffc
fffffffe
00000000
fffffffe
fffffffd
ffffffff
fffffff9
ffffffff
ffffffff
00000000
ffffffff
fffffffb
fffffff7
fffffff9
fffffffe
fffffffd
ffffffff
fffffffd
fffffffc
fffffffd
ffffffff
fffffffd
fffffffd
00000000
fffffffb
fffffffc
00000002
ffffffff
00000002
00000005
00000009
00000005
00000004
00000003
00000003
00000001
fffffffb
00000004
00000000
fffffffc
00000001
00000000
00000002
00000004
00000000
00000007
00000003
ffffffff
fffffff8
fffffff8
fffffffc
fffffff3
fffffff8
ffffffff
fffffffb
fffffffc
00000000
00000001
00000004
00000000
ffffffff
00000000
00000000
00000005
ffffffff
fffffffd
fffffff9
fffffffd
fffffffe
fffffffb
fffffffd
fffffffe
00000000
00000001
fffffffe
00000003
00000002
00000005
00000003
00000000
00000004
00000000
ffffffff
00000002
00000001
00000000
00000000
00000001
fffffff7
00000002
fffffffd
fffffff9
00000000
00000003
ffffffff
00000001
00000009
00000000
00000006
00000005
00000006
00000004
00000005
00000002
00000003
fffffffd
fffffffb
00000001
fffffff7
fffffff8
00000000
00000002
00000000
00000002
fffffffe
fffffff7
00000000
fffffff9
fffffff8
fffffffd
fffffffe
00000000
fffffff7
fffffff6
00000000
fffffff8
fffffffc
00000000
ffffffff
fffffffc
fffffffc
00000001
fffffffb
fffffffc
00000001
fffffffd
ffffffff
00000004
00000003
ffffffff
fffffffc
fffffff5
fffffffc
fffffffc
fffffffe
fffffffe
00000002
00000000
00000003
fffffffe
fffffffe
fffffffc
fffffffb
fffffffc
fffffffe
fffffffd
00000002
00000000
fffffffe
00000003
00000000
ffffffff
fffffffe
00000000
00000001
00000001
00000003
fffffffd
00000000
00000000
fffffffc
fffffff9
fffffffe
ffffffff
00000001
00000003
00000000
00000009
00000001
00000000
00000000
fffffffe
fffffffe
ffffffff
fffffffd
00000000
00000000
fffffffe
00000001
00000000
ffffffff
00000000
00000006
00000002
00000000
fffffff7
00000000
00000000
fffffffd
ffffffff
00000002
00000004
ffffffff
00000000
00000000
fffffffe
00000002
00000002
00000001
00000002
00000006
00000000
00000007
00000001
00000000
ffffffff
00000000
ffffffff
fffffffe
00000013
00000000
fffffffa
0000000d
00000001
fffffff3
fffffff6
fffffff9
00000003
00000005
fffffffd
00000000
fffffffe
fffffffa
00000000
fffffffe
fffffffe
ffffffff
fffffffe
ffffffff
ffffffff
00000003
00000000
00000000
00000000
00000002
00000000
0000000d
00000000
00000000
0000000a
00000000
fffffffb
fffffffc
fffffffc
fffffffd
fffffffe
00000000
00000000
00000000
ffffffff
00000000
ffffffff
00000000
00000000
fffffff8
fffffff9
00000002
fffffffa
00000001
00000001
00000000
00000002
fffffff8
fffffff7
00000000
fffffffc
fffffff8
ffffffff
00000001
00000001
00000001
00000000
ffffffff
fffffffb
fffffffd
ffffffff
ffffffff
ffffffff
00000001
00000000
00000000
00000005
00000000
fffffffe
00000000
00000000
ffffffff
fffffffd
00000000
00000000
fffffffb
00000000
00000000
00000002
00000001
ffffffff
00000000
00000000
fffffffe
fffffffe
00000001
fffffffe
fffffffa
00000000
ffffffff
ffffffff
00000001
00000002
fffffffc
00000001
fffffffe
00000003
fffffffd
00000001
00000000
00000000
00000000
00000001
00000001
ffffffff
00000000
00000002
00000001
00000000
00000001
00000000
ffffffff
00000001
00000003
00000000
00000000
00000000
00000000
00000001
ffffffff
ffffffff
00000001
00000000
00000000
00000001
00000000
ffffffff
fffffffe
00000002
fffffffe
00000000
00000000
fffffffd
ffffffff
ffffffff
00000000
00000000
00000001
00000011
00000004
fffffff9
00000015
00000006
fffffffa
fffffffb
fffffffb
00000004
00000000
00000000
00000000
fffffffd
ffffffff
ffffffff
ffffffff
00000000
00000000
ffffffff
fffffffe
00000000
fffffffb
00000001
00000001
ffffffff
00000001
fffffffe
00000000
fffffffe
ffffffff
00000000
ffffffff
fffffffd
fffffffe
00000000
00000000
fffffffb
00000000
00000000
fffffffc
fffffffd
00000001
fffffffd
fffffffe
fffffffe
00000002
00000000
fffffffd
ffffffff
00000000
00000000
ffffffff
00000000
ffffffff
fffffffd
00000000
fffffffb
fffffffd
fffffffe
fffffffe
fffffffe
ffffffff
00000003
00000002
00000000
00000000
00000003
ffffffff
ffffffff
00000002
00000003
00000000
00000000
00000003
00000000
fffffffe
ffffffff
00000000
00000000
00000001
00000004
00000000
fffffff9
00000005
fffffffd
fffffffc
00000001
00000000
00000001
00000001
00000001
00000006
00000000
fffffffd
00000000
fffffffd
00000003
00000000
00000007
00000001
fffffffd
00000005
00000000
00000000
fffffffe
00000002
00000001
fffffffe
00000005
ffffffff
ffffffff
00000000
fffffffb
fffffffe
00000002
00000000
ffffffff
00000003
00000001
00000004
00000005
00000001
00000005
00000003
00000005
00000000
00000002
ffffffff
00000004
00000004
fffffffe
00000000
fffffffe
fffffffd
fffffffd
fffffff9
fffffffd
fffffffd
fffffffd
fffffffc
00000000
ffffffff
00000001
00000000
fffffffe
fffffff9
00000000
00000002
00000000
00000000
fffffffd
fffffffb
00000006
00000005
0000000a
fffffffe
00000002
00000003
00000009
00000005
0000000a
fffffffd
fffffffe
00000001
00000000
ffffffff
fffffffd
00000000
fffffffa
fffffffd
00000003
00000000
00000001
00000002
fffffffe
fffffffd
00000006
00000000
00000000
fffffffb
fffffff7
fffffffe
fffffffe
fffffffa
fffffffd
fffffffb
fffffff6
fffffffb
00000002
ffffffff
fffffffb
00000000
ffffffff
fffffffa
00000003
00000000
ffffffff
00000003
ffffffff
00000001
00000003
00000000
fffffffe
00000000
ffffffff
fffffffc
00000003
00000000
00000005
00000001
fffffffb
00000004
00000000
fffffffc
00000000
00000000
00000006
0000000b
fffffffc
00000000
00000001
00000000
00000003
00000003
00000000
fffffff7
fffffff6
00000000
fffffffb
fffffff8
00000009
fffffffc
fffffffe
00000003
fffffffd
00000002
00000000
fffffffb
fffffffc
fffffffd
fffffffb
fffffffe
00000004
00000000
00000001
00000000
fffffffd
fffffffc
00000008
00000000
00000003
00000002
00000001
00000007
fffffffe
fffffffc
fffffffa
00000005
fffffffe
fffffffb
00000002
00000006
00000005
fffffffe
ffffffff
00000001
fffffffd
fffffffd
00000000
00000002
fffffff9
fffffff4
00000003
fffffff2
fffffff2
00000001
fffffff7
fffffff0
00000001
00000004
00000000
00000001
00000001
00000000
00000002
00000005
00000001
00000000
fffffffe
00000001
ffffffff
fffffffd
fffffffc
00000001
fffffffc
00000000
00000007
00000005
00000000
00000001
00000002
fffffffb
00000002
00000007
00000001
fffffffd
fffffffb
fffffffa
fffffffb
fffffffc
fffffff9
fffffff9
fffffff8
fffffff9
00000000
00000003
00000001
fffffffe
fffffff9
00000004
fffffffe
fffffff1
fffffffc
00000004
00000000
fffffff9
fffffffe
00000000
fffffffb
fffffffd
00000003
fffffffc
00000000
00000000
fffffffc
00000000
fffffffa
fffffff6
00000000
fffffff6
fffffff8
00000008
fffffffe
00000000
00000003
00000001
00000002
00000001
fffffffd
fffffffd
00000009
fffffff8
fffffffd
00000007
fffffffb
00000002
00000006
fffffffe
00000002
00000004
00000002
fffffffc
00000003
0000000a
00000003
fffffffc
00000005
00000001
00000007
ffffffed
fffffff1
fffffff6
ffffffe6
ffffffea
fffffffa
ffffffe6
ffffffeb
ffffffff
fffffffd
fffffffe
fffffffe
fffffffe
00000002
fffffffc
00000000
00000000
00000002
fffffffe
ffffffff
ffffffff
fffffffe
00000000
fffffffd
fffffffd
fffffffb
00000004
00000003
00000002
00000000
00000003
00000001
00000002
00000004
00000002
ffffffff
fffffffa
00000000
ffffffff
fffffffb
fffffffe
fffffffa
fffffff5
fffffffa
fffffffd
00000001
00000001
fffffffd
00000000
00000004
fffffff8
ffffffff
00000000
00000003
00000006
00000003
00000001
00000001
00000002
00000003
00000000
fffffffd
00000001
ffffffff
00000001
ffffffff
ffffffff
00000001
fffffffe
00000000
00000003
ffffffff
ffffffff
00000004
fffffffe
00000002
00000003
ffffffff
00000000
00000001
00000008
00000004
ffffffff
00000004
00000006
00000000
00000007
00000002
fffffffe
00000000
fffffffe
ffffffff
00000004
ffffffff
00000000
00000004
ffffffff
fffffffe
fffffffd
00000001
00000001
ffffffff
fffffffe
fffffffe
fffffffe
fffffffe
ffffffff
00000000
fffffffe
00000000
00000000
fffffffc
ffffffff
00000000
fffffffc
00000001
ffffffff
00000001
00000002
ffffffff
00000002
fffffffe
00000000
00000000
ffffffff
ffffffff
fffffffb
ffffffff
fffffffe
ffffffff
ffffffff
00000001
00000000
00000000
fffffffc
fffffffb
fffffffe
00000000
fffffffe
00000002
fffffffb
fffffffd
00000000
fffffff9
ffffffea
fffffff2
fffffff7
ffffffea
fffffff1
fffffff9
ffffffe8
ffffffef
00000000
00000002
00000001
00000002
00000004
00000002
00000000
00000000
00000001
fffffff9
fffffff9
00000000
fffffff7
fffffffa
00000002
fffffff1
fffffff6
fffffffe
fffffff9
fffffffb
ffffffff
fffffffa
fffffffd
00000006
fffffff9
fffffff8
ffffffff
00000001
00000001
00000000
fffffffe
00000000
00000000
00000000
00000000
00000002
00000000
00000000
00000000
00000002
00000001
ffffffff
00000007
00000002
00000000
00000000
00000000
00000000
00000000
00000000
00000001
00000000
00000000
00000000
00000007
00000000
ffffffff
00000003
ffffffff
00000000
00000001
fffffffd
00000000
fffffffe
fffffffd
fffffffd
ffffffff
00000000
00000000
fffffffd
fffffffd
fffffffd
ffffffff
fffffffd
fffffffd
ffffffff
ffffffff
fffffffd
00000000
00000001
fffffffe
00000001
00000003
00000000
00000000
00000000
00000000
00000000
00000004
00000002
fffffffd
fffffffe
fffffffc
00000000
00000000
fffffffe
00000000
00000001
00000004
00000007
00000008
00000005
00000002
00000004
00000003
00000004
00000000
fffffffe
ffffffff
00000003
00000001
00000000
00000001
00000000
00000000
00000000
fffffffe
fffffffd
00000001
00000000
fffffffe
fffffffe
00000000
ffffffff
00000000
00000000
00000002
fffffff9
fffffffb
fffffffc
fffffffa
fffffffe
fffffff8
fffffffa
fffffffd
00000004
00000000
00000005
00000006
00000002
00000003
00000003
00000000
00000000
00000000
00000003
00000001
fffffffe
fffffffe
00000000
ffffffff
fffffffd
fffffffd
ffffffff
ffffffff
00000001
00000000
00000001
00000002
00000000
00000000
00000004
00000000
ffffffff
00000000
00000000
fffffffd
ffffffff
ffffffff
00000000
00000000
fffffffe
fffffffd
ffffffff
00000000
00000000
00000000
fffffffd
fffffffb
fffffffd
00000001
00000007
00000003
fffffffd
00000000
00000000
fffffffe
00000000
fffffffe
00000001
00000000
00000000
ffffffff
00000000
fffffffe
00000000
00000000
00000000
00000004
00000006
00000004
ffffffff
00000002
00000003
00000001
00000003
00000004
00000001
00000000
fffffffe
00000000
00000000
ffffffff
ffffffff
00000000
ffffffff
00000000
00000003
00000000
ffffffff
00000000
00000000
00000000
00000000
00000000
00000003
00000001
00000000
00000003
00000002
00000000
00000000
00000003
00000002
fffffffe
00000000
00000000
00000000
00000002
00000001
ffffffff
00000002
00000000
fffffffe
00000001
00000003
fffffffe
00000000
00000001
ffffffff
00000001
00000000
00000002
00000002
00000000
ffffffff
00000001
fffffffe
00000000
ffffffff
fffffffd
00000002
00000004
00000003
00000001
00000002
00000002
ffffffff
00000003
00000004
00000000
00000000
00000002
00000003
00000002
00000003
00000003
00000002
00000003
00000000
00000001
00000000
fffffffe
00000001
00000002
fffffffe
00000000
00000000
00000003
00000000
ffffffff
00000000
00000000
00000000
00000001
00000000
00000000
fffffffd
fffffffe
ffffffff
fffffffd
fffffffb
fffffffe
fffffffe
fffffffc
fffffffd
00000003
00000003
00000000
00000000
00000002
00000000
00000000
00000001
00000000
00000002
00000006
00000003
00000001
00000002
00000000
00000002
00000000
00000000
00000002
ffffffff
00000001
00000000
00000000
fffffffe
00000000
fffffffe
00000000
00000000
00000000
00000000
00000000
ffffffff
00000000
ffffffff
00000000
ffffffff
fffffffe
00000003
00000005
fffffffc
00000000
00000001
fffffffe
fffffffe
ffffffff
00000002
00000002
00000002
00000002
00000001
00000000
00000001
ffffffff
fffffffd
00000000
ffffffff
00000000
00000000
fffffffd
00000000
00000000
fffffffe
ffffffff
00000000
00000000
00000000
fffffffe
ffffffff
00000000
ffffffff
00000000
ffffffff
00000002
00000001
00000000
00000000
00000000
00000000
00000000
ffffffff
ffffffff
fffffffe
00000000
00000004
00000000
00000000
00000001
00000001
00000000
00000003
00000000
00000002
00000003
00000000
00000001
00000000
ffffffff
00000000
00000002
00000001
00000002
00000000
fffffffe
00000000
00000000
fffffffc
ffffffff
00000000
fffffffd
fffffffe
fffffffe
fffffffe
ffffffff
00000000
00000000
fffffffe
ffffffff
00000000
00000000
00000002
00000000
00000000
00000000
00000000
ffffffff
00000000
00000000
00000003
00000003
00000000
00000000
00000003
00000001
ffffffff
ffffffff
00000000
ffffffff
fffffffa
fffffffb
fffffffb
fffffff9
fffffffd
fffffffe
ffffffff
fffffffd
fffffffa
ffffffff
ffffffff
fffffffc
00000003
fffffffe
fffffffe
00000001
00000001
fffffffb
fffffffb
ffffffff
00000002
ffffffff
00000000
00000004
00000000
00000004
00000001
00000002
00000001
fffffffe
00000000
fffffffc
fffffffa
fffffffb
00000001
fffffffe
00000004
00000000
00000006
00000000
ffffffff
00000002
00000005
fffffffd
00000000
00000003
fffffffc
fffffffa
00000001
00000000
00000000
ffffffff
fffffffd
fffffff7
fffffffc
fffffffc
fffffffd
00000001
00000001
fffffffc
fffffffd
00000000
fffffffe
ffffffff
00000000
ffffffff
00000000
00000000
00000002
00000005
ffffffff
ffffffff
00000000
00000000
ffffffff
00000000
00000004
00000006
00000003
fffffff7
fffffff8
fffffff6
fffffff9
fffffffa
fffffff9
fffffffc
fffffffc
fffffff9
00000004
ffffffff
00000000
00000001
00000004
ffffffff
00000001
00000002
ffffffff
00000000
00000002
00000002
ffffffff
00000000
00000002
00000000
ffffffff
00000000
00000000
00000002
00000001
ffffffff
fffffff9
00000000
00000001
fffffffd
fffffffe
00000001
00000006
00000006
00000002
00000000
00000003
ffffffff
fffffffe
fffffffd
00000008
00000007
00000000
00000000
ffffffff
ffffffff
00000002
00000000
fffffffc
fffffff6
fffffff6
fffffffc
fffffffa
fffffffb
ffffffff
fffffff8
fffffffa
fffffffc
fffffffc
00000000
fffffffe
fffffffb
fffffffe
fffffffc
fffffffc
fffffffb
fffffffc
fffffff6
fffffff9
00000005
fffffffd
fffffffb
fffffffc
00000000
fffffffc
fffffff9
fffffff7
fffffff0
00000000
fffffff8
fffffff9
00000001
fffffffb
fffffffa
00000006
fffffffe
fffffffd
00000001
00000001
fffffffd
fffffffd
ffffffff
fffffff9
fffffffc
00000000
00000000
fffffffd
00000001
00000000
ffffffff
fffffffe
00000000
fffffffe
00000003
00000005
00000008
00000000
fffffffe
ffffffff
00000000
00000001
00000000
fffffffd
fffffffc
fffffffb
00000001
00000000
fffffffb
00000001
00000004
00000000
00000006
00000000
fffffffa
00000001
00000003
ffffffff
fffffffd
00000001
00000000
00000000
fffffffc
fffffffd
fffffffc
ffffffff
00000005
fffffffd
00000000
00000004
fffffff9
fffffff8
fffffff7
fffffff7
fffffff9
fffffffa
fffffff8
fffffffa
fffffffd
ffffffff
fffffff7
fffffffd
fffffffc
fffffff9
fffffffd
fffffffc
fffffffb
00000000
00000005
00000004
00000003
00000002
00000001
00000000
00000000
00000000
00000000
00000000
fffffffe
fffffffc
00000001
ffffffff
00000001
00000002
fffffffc
00000001
00000003
fffffffe
fffffff9
fffffffe
00000000
fffffffb
fffffffc
fffffffe
00000000
00000005
fffffffe
ffffffff
fffffffa
00000000
00000002
fffffffc
fffffffc
00000003
ffffffff
00000000
00000000
00000004
00000000
ffffffff
00000001
fffffffe
fffffffb
fffffffe
00000000
00000001
fffffffd
00000000
ffffffff
fffffffe
fffffffc
fffffffc
fffffffe
00000001
00000000
00000003
00000005
fffffffe
ffffffff
ffffffff
fffffffd
fffffffe
fffffffd
fffffffc
00000001
00000001
ffffffff
00000002
00000000
00000000
fffffffe
00000004
fffffffe
00000007
0000000d
00000001
00000003
00000003
fffffffd
00000000
00000007
00000000
00000001
fffffffc
fffffffd
fffffffc
ffffffff
00000000
fffffffd
00000001
fffffffc
00000002
0000000a
fffffffd
00000002
00000004
fffffffd
fffffffc
fffffffb
fffffffb
fffffff9
fffffffc
00000000
fffffffe
00000000
00000000
00000000
fffffffe
00000000
fffffffe
00000000
00000002
ffffffff
00000000
00000003
00000002
00000000
00000000
ffffffff
fffffff3
00000000
fffffffe
fffffffe
00000002
00000000
fffffffe
fffffffe
00000000
00000000
00000001
00000003
fffffffe
ffffffff
fffffff9
00000002
fffffffc
ffffffff
0000000a
00000002
00000000
00000005
fffffffc
ffffffff
fffffffd
fffffffd
00000004
00000003
fffffffd
00000007
00000005
fffffffb
00000000
fffffff8
fffffffb
00000002
fffffff9
fffffffa
00000003
fffffffc
fffffffa
fffffffc
fffffffc
fffffffb
fffffffd
fffffff9
fffffffb
fffffffe
00000000
fffffffe
ffffffff
fffffffa
fffffffa
00000000
ffffffff
fffffffb
00000000
00000000
ffffffff
fffffffd
fffffffc
ffffffff
fffffffb
fffffff9
00000000
fffffffd
fffffffb
00000000
00000000
fffffff8
fffffffd
fffffffe
fffffff8
fffffffb
ffffffff
fffffff7
fffffffa
00000001
ffffffff
00000000
00000002
fffffffe
00000000
00000000
00000000
00000000
fffffffd
fffffffd
ffffffff
ffffffff
fffffffc
ffffffff
ffffffff
fffffffb
00000000
00000000
ffffffff
fffffffe
00000000
fffffffb
fffffffd
fffffffe
fffffffa
00000000
00000000
fffffffd
fffffffe
00000002
fffffffe
00000003
ffffffff
fffffffd
00000002
00000001
00000000
fffffffc
ffffffff
00000004
00000005
00000000
00000002
00000004
fffffffd
fffffffb
fffffffa
fffffffe
fffffff9
fffffff8
00000000
fffffffe
fffffffb
00000000
00000004
00000000
00000000
00000001
00000000
00000001
00000002
00000000
00000003
00000003
00000002
00000000
ffffffff
00000000
00000000
fffffffc
fffffffe
00000001
fffffff6
fffffffc
00000000
fffffff8
ffffffff
fffffffe
fffffff7
ffffffff
00000000
00000002
00000004
00000003
fffffffc
00000000
00000000
00000001
00000000
fffffffd
fffffffe
fffffffc
ffffffff
00000000
fffffffd
fffffffd
fffffffe
fffffff9
fffffffe
00000000
fffffffe
00000001
00000001
ffffffff
fffffffd
fffffffa
fffffffb
00000000
00000002
ffffffff
00000004
fffffffe
ffffffff
fffffffd
fffffffb
00000000
00000001
00000000
fffffffd
00000000
fffffffa
00000000
00000000
ffffffff
00000003
00000002
fffffff8
fffffffb
00000002
00000000
00000000
fffffffd
00000002
00000002
00000000
ffffffff
fffffffe
fffffffd
00000003
00000003
00000001
00000003
00000001
00000004
00000006
fffffffc
ffffffff
00000001
00000002
00000003
fffffffe
00000000
fffffff9
fffffffd
00000000
00000000
fffffffd
fffffffd
00000000
00000000
00000002
00000000
00000005
00000001
00000000
fffffffd
fffffffd
00000001
ffffffff
fffffffc
fffffffa
00000000
00000006
fffffffa
fffffff8
fffffffc
fffffffa
fffffff8
fffffffc
00000000
00000007
00000005
00000000
00000001
00000002
fffffffe
fffffffe
00000000
ffffffff
fffffffa
fffffffb
00000004
00000004
fffffffa
00000001
00000002
ffffffff
fffffffe
fffffffd
00000000
00000000
00000002
00000001
00000000
fffffffc
fffffffd
fffffffd
fffffffd
00000003
fffffffc
fffffffe
ffffffff
fffffffd
fffffffb
ffffffff
fffffffa
fffffffe
00000006
fffffff8
fffffff5
fffffffd
fffffffe
fffffff6
fffffffe
fffffff9
fffffffb
00000005
fffffffe
fffffff5
fffffff9
00000001
fffffffe
00000000
00000000
00000003
00000006
00000000
fffffffc
00000000
00000000
fffffffb
00000000
00000000
00000006
0000000b
ffffffff
fffffffc
fffffffe
00000000
fffffffd
fffffff7
00000002
00000001
fffffff8
fffffffe
00000006
ffffffff
fffffffe
00000001
00000002
fffffff8
00000000
0000000c
ffffffff
fffffff8
ffffffff
00000004
ffffffff
00000000
00000004
00000004
00000004
00000001
00000001
00000005
fffffffd
00000000
00000004
fffffffb
fffffffb
00000000
00000001
fffffffb
fffffff9
00000003
00000000
fffffffe
00000001
00000001
00000002
00000003
00000004
00000000
00000000
00000000
00000002
00000001
00000000
ffffffff
fffffffe
ffffffff
00000000
fffffffe
fffffffc
fffffffa
00000000
00000001
00000004
00000000
00000005
00000000
fffffffb
00000002
ffffffff
00000000
00000005
00000008
00000000
00000001
00000003
00000001
ffffffff
00000000
00000000
0000000a
00000008
fffffff9
00000002
00000003
fffffffa
fffffff9
fffffffe
00000002
00000000
fffffffe
00000001
00000000
ffffffff
fffffffe
00000003
00000000
00000000
00000002
00000003
fffffffd
00000002
00000000
fffffffc
fffffff8
ffffffff
00000003
0000000a
00000003
00000001
00000006
00000005
00000001
fffffffe
00000002
00000004
fffffffe
ffffffff
ffffffff
fffffffc
fffffffd
00000000
ffffffff
00000000
fffffffa
fffffffd
00000005
ffffffff
fffffffa
fffffffa
fffffffb
00000000
fffffffb
fffffff7
fffffffc
00000001
fffffffd
fffffff7
fffffffd
00000002
fffffffc
fffffffd
ffffffff
fffffff2
fffffffe
00000000
00000005
fffffffe
00000008
0000000b
00000001
ffffffff
00000000
00000000
fffffffd
ffffffff
00000004
ffffffff
fffffffe
ffffffff
00000000
00000008
00000007
fffffffd
ffffffff
00000003
fffffffe
fffffffd
00000001
fffffff7
fffffff8
00000001
fffffffe
00000005
00000004
fffffffd
00000001
fffffff3
ffffffff
00000002
00000000
00000002
00000005
fffffffe
00000002
00000002
fffffffa
00000003
fffffff8
00000002
fffffffa
00000000
00000005
fffffffd
0000000a
00000006
00000001
00000001
00000004
fffffffe
00000002
00000006
00000004
00000004
00000003
00000006
00000004
00000002
00000001
00000003
00000000
00000002
00000000
00000001
fffffff6
fffffff5
fffffffb
fffffff2
ffffffee
fffffff9
fffffffa
fffffffc
00000001
fffffffb
fffffffa
fffffffa
fffffffc
fffffff8
fffffffd
fffffffd
fffffffb
00000003
fffffffc
ffffffff
ffffffff
fffffffc
00000000
00000004
fffffffc
00000000
00000001
00000000
ffffffff
00000002
00000000
fffffffe
00000006
ffffffff
00000003
00000005
00000000
ffffffff
fffffffc
00000001
fffffffb
ffffffff
fffffffe
fffffffb
00000005
fffffffd
fffffffb
fffffffd
fffffffb
fffffffa
00000000
00000000
fffffffb
00000005
00000000
fffffff8
fffffff7
00000002
fffffffb
fffffffe
00000005
00000000
00000004
00000000
fffffffe
fffffffb
00000000
00000000
00000002
ffffffff
ffffffff
00000002
00000007
fffffffe
fffffff5
00000005
fffffffc
fffffffb
00000003
fffffffd
00000002
fffffffe
00000000
00000004
00000000
00000003
00000004
fffffffe
00000001
fffffffb
0000000a
fffffffc
fffffffc
00000008
fffffffb
00000004
00000007
fffffffa
00000001
fffffff5
fffffff7
fffffffb
fffffff5
fffffffc
fffffffc
fffffffd
00000002
fffffffc
00000002
fffffffe
00000001
fffffff9
fffffffa
00000003
00000002
fffffffc
00000003
fffffffe
fffffffd
fffffff8
ffffffff
fffffffc
fffffff6
00000005
fffffffd
fffffff8
00000001
fffffffc
fffffffc
fffffffe
fffffff5
fffffffd
fffffffd
fffffffc
00000002
00000003
00000002
fffffff8
fffffffc
fffffff6
fffffffb
00000001
fffffffb
00000003
00000002
ffffffff
ffffffff
00000000
00000002
00000000
00000000
00000005
00000000
00000009
fffffffa
fffffff8
00000001
fffffff1
fffffffc
fffffffe
fffffff7
00000003
fffffffe
ffffffff
00000000
ffffffff
00000006
fffffffd
00000004
00000005
ffffffff
00000001
00000000
00000002
00000001
ffffffff
ffffffff
00000002
00000006
00000000
00000003
00000002
0000000c
ffffffff
00000004
00000002
00000002
0000000b
00000004
fffffffa
fffffff9
fffffffd
00000001
00000004
00000000
00000008
00000009
00000002
0000000a
00000007
fffffffa
fffffffb
fffffffb
fffffffd
fffffffb
ffffffff
00000001
00000001
fffffffe
fffffffa
00000000
fffffffb
fffffff7
00000000
fffffffd
ffffffff
ffffffff
0000000e
fffffffc
00000009
00000007
fffffff9
00000003
00000001
fffffffd
fffffffc
00000002
00000000
fffffffd
00000002
fffffffb
fffffffe
00000001
fffffffb
ffffffff
fffffffe
ffffffff
fffffffe
fffffff6
00000003
fffffff9
fffffffb
00000006
00000000
fffffffc
00000001
00000000
fffffff8
fffffffb
00000008
fffffffe
fffffffc
00000002
00000002
00000000
ffffffff
00000006
00000002
fffffffa
00000000
00000001
00000002
00000001
00000004
00000002
00000001
fffffff9
00000000
00000002
fffffffb
00000004
00000006
00000003
00000000
00000000
00000000
00000000
fffffffc
ffffffff
00000002
00000000
00000003
00000000
fffffffb
fffffffd
00000004
fffffffd
fffffffe
fffffffb
fffffff4
fffffff6
fffffffa
fffffff3
fffffff9
fffffffc
fffffff4
fffffff7
fffffffd
fffffffc
ffffffff
fffffff9
fffffffa
fffffffd
fffffff7
fffffff5
fffffff9
fffffff7
00000002
00000000
fffffff9
fffffffd
ffffffff
fffffffd
00000001
00000000
00000003
00000003
00000001
00000003
00000002
00000002
00000000
00000000
00000001
ffffffff
fffffffd
fffffffb
00000000
00000001
00000000
00000000
00000004
00000002
00000001
00000000
00000001
00000001
00000000
00000002
fffffffe
ffffffff
00000002
00000000
00000000
ffffffff
00000003
00000000
ffffffff
00000005
00000000
fffffffc
fffffffc
fffffffc
00000000
fffffffa
fffffff9
fffffffe
00000000
fffffffa
fffffffe
00000001
fffffff7
fffffffc
00000001
fffffff5
fffffff7
00000004
fffffff9
fffffff7
ffffffff
00000004
00000003
00000000
ffffffff
fffffffc
fffffffc
00000002
fffffffd
fffffffd
0000000c
00000006
fffffffc
00000005
00000004
fffffff7
00000002
00000000
00000002
ffffffff
ffffffff
00000000
fffffffa
fffffffb
00000003
00000000
00000000
fffffffb
00000001
00000000
fffffffd
fffffffe
ffffffff
00000003
00000000
00000000
00000000
00000003
00000007
00000000
00000001
00000000
00000002
00000002
00000001
00000001
fffffffd
ffffffff
00000000
00000000
00000000
00000000
00000000
00000002
00000003
00000000
00000000
00000004
00000002
00000001
00000002
00000000
ffffffff
00000000
00000000
ffffffff
ffffffff
fffffffc
00000001
00000000
00000000
00000003
00000000
fffffffd
fffffffc
00000000
fffffffb
fffffffe
00000000
fffffff8
fffffffa
00000002
00000000
fffffffe
fffffffe
fffffffa
fffffff9
00000004
fffffffc
fffffffb
00000005
00000008
00000003
00000002
00000000
00000000
00000000
fffffffe
00000000
00000001
00000000
00000001
00000001
fffffffd
00000000
fffffffc
00000000
00000000
00000004
00000000
00000000
00000006
fffffffd
fffffffe
00000005
fffffffe
fffffffd
00000002
ffffffff
fffffffc
00000004
ffffffff
ffffffff
00000000
00000001
fffffffb
00000001
00000001
00000000
00000000
fffffffe
fffffffa
ffffffff
fffffffc
fffffffa
ffffffff
ffffffff
fffffffd
fffffff9
fffffffc
fffffffc
00000000
ffffffff
ffffffff
00000000
00000001
00000002
00000000
fffffffe
00000000
00000000
00000001
00000004
00000000
00000001
00000000
00000003
00000000
00000002
ffffffff
ffffffff
ffffffff
ffffffff
fffffffb
00000002
00000000
ffffffff
00000002
00000003
00000000
00000001
00000000
00000002
fffffffc
ffffffff
00000000
ffffffff
00000000
00000004
00000000
fffffffb
fffffffc
00000005
fffffff7
fffffffb
00000004
fffffffa
00000000
00000005
0000000a
ffffffff
fffffff2
0000000c
fffffffa
fffffff7
00000002
fffffff5
00000002
0000000b
fffffffe
fffffff7
00000006
fffffffe
fffffff8
00000000
fffffffb
fffffffa
fffffff9
00000007
00000004
fffffffd
00000003
00000003
fffffffe
00000009
00000001
00000001
00000002
fffffff8
00000003
00000003
fffffff8
00000003
00000001
fffffffc
00000007
fffffffb
fffffff5
00000008
fffffff8
fffffff7
00000004
fffffffc
fffffffd
ffffffed
00000002
00000001
fffffff6
fffffffe
00000006
fffffff6
00000003
0000000b
00000004
ffffffff
ffffffff
00000004
00000003
fffffffd
00000005
fffffffd
fffffff9
fffffffb
fffffffd
00000007
fffffff9
fffffff8
00000005
ffffffff
fffffffa
00000005
00000006
00000009
fffffffe
00000004
00000001
fffffffa
00000004
00000001
fffffffa
00000006
00000000
00000001
00000000
ffffffff
fffffffd
00000000
00000000
ffffffff
00000001
00000000
fffffff7
00000002
00000003
fffffffa
00000005
00000003
fffffff7
00000006
fffffffc
00000001
00000006
00000001
fffffffb
00000001
fffffffb
00000000
00000004
00000003
fffffff0
00000006
ffffffff
fffffff3
00000004
ffffffff
fffffffc
fffffffe
00000001
00000004
00000002
00000004
00000005
00000001
00000009
00000005
0000000a
00000000
fffffff9
0000000d
fffffffc
fffffff1
00000002
fffffffa
fffffffd
fffffffd
00000001
00000004
fffffffb
fffffffe
ffffffff
fffffff7
00000001
ffffffff
00000001
00000004
fffffffe
fffffffd
fffffff8
fffffffd
00000000
00000001
00000000
fffffff8
00000001
00000011
fffffffc
00000000
00000005
fffffffd
00000000
00000006
00000005
00000000
fffffffe
00000003
fffffffa
fffffffd
00000005
ffffffff
fffffffd
00000003
00000008
fffffff9
fffffffe
00000006
ffffffff
ffffffff
00000006
00000001
00000007
fffffffe
00000005
00000006
fffffffd
00000005
00000008
fffffffa
00000008
fffffffa
fffffff8
fffffff5
00000003
00000003
00000000
00000003
00000004
00000008
fffffff4
fffffffd
fffffffe
fffffffe
fffffffe
fffffffe
00000000
00000000
00000000
fffffffe
fffffffb
00000002
00000000
fffffffc
00000002
00000005
00000001
00000004
fffffffc
00000003
0000000a
fffffff8
fffffff9
00000001
fffffff1
fffffffe
00000002
00000005
00000002
fffffff8
00000000
00000003
fffffffd
00000003
ffffffff
00000000
00000002
00000002
00000001
00000000
00000000
fffffffd
00000000
fffffffe
00000001
00000007
fffffffe
fffffff0
00000007
00000003
ffffffec
00000009
ffffffff
fffffff5
fffffff6
00000000
00000007
fffffffc
fffffffe
00000000
fffffffe
00000001
00000006
00000000
fffffffd
00000001
00000001
fffffff9
ffffffff
00000001
00000000
00000002
fffffffd
fffffffb
fffffffd
fffffffc
fffffff9
fffffffb
fffffffe
fffffffc
fffffffe
00000005
fffffffe
fffffffa
00000000
fffffffe
fffffffa
00000000
fffffffe
fffffffd
00000000
fffffffc
fffffffc
fffffffc
fffffffa
fffffffa
fffffffb
fffffffd
fffffffc
fffffffd
fffffff7
00000000
00000001
fffffffa
fffffffe
00000002
00000001
00000001
00000004
00000003
00000004
00000000
00000009
00000005
00000000
00000000
00000001
00000002
ffffffff
00000001
00000000
fffffffd
00000001
00000000
00000001
00000001
fffffffc
fffffffb
fffffffd
ffffffff
fffffffe
fffffffd
00000001
00000002
00000001
ffffffff
fffffffa
00000002
00000000
fffffffa
fffffffe
ffffffff
fffffffa
fffffffe
00000000
00000003
00000000
00000000
00000002
00000000
ffffffff
00000001
00000000
00000002
00000002
00000003
00000004
00000003
00000006
00000003
00000003
00000004
00000000
00000003
00000000
00000000
00000004
00000001
fffffffd
00000002
00000000
00000001
00000004
00000000
ffffffff
ffffffff
00000000
fffffffe
00000001
fffffffe
00000001
fffffffd
fffffffe
ffffffff
00000000
ffffffff
ffffffff
fffffffe
ffffffff
fffffffd
ffffffff
00000002
00000000
fffffffd
00000002
00000000
fffffffe
fffffffd
fffffffe
00000008
00000006
fffffffb
00000003
00000001
fffffffc
00000005
00000001
00000000
fffffffe
00000000
fffffffe
fffffffc
00000000
ffffffff
fffffffe
ffffffff
fffffffc
fffffffd
fffffffc
ffffffff
fffffffb
fffffffc
00000001
fffffffe
fffffffe
fffffffd
fffffffc
00000000
fffffffd
fffffffa
fffffffc
00000000
ffffffff
fffffffc
ffffffff
fffffffd
00000001
fffffffc
fffffffd
00000000
fffffffe
fffffffc
00000002
00000002
fffffffe
fffffffb
00000001
00000000
ffffffff
00000004
00000000
fffffffd
00000000
fffffffd
00000000
ffffffff
fffffffb
fffffffd
00000000
fffffffd
00000001
00000000
00000001
fffffffd
00000003
00000000
00000000
fffffffe
00000000
ffffffff
ffffffff
00000000
ffffffff
00000000
fffffffe
00000000
00000000
fffffffd
fffffffe
fffffffd
fffffff9
fffffff9
fffffffd
fffffffa
fffffffe
fffffffd
fffffffb
fffffffc
fffffffb
fffffffc
fffffffc
fffffffb
fffffffd
fffffffc
fffffffa
ffffffff
ffffffff
00000000
ffffffff
00000000
fffffffe
00000000
ffffffff
ffffffff
fffffffe
fffffffe
00000000
fffffffe
fffffffc
00000002
fffffffd
fffffffe
00000000
00000000
ffffffff
00000003
ffffffff
ffffffff
00000002
00000000
00000000
00000000
00000001
00000000
ffffffff
00000000
00000001
fffffffe
fffffff9
00000000
00000001
00000000
00000000
fffffffb
fffffffe
fffffffa
fffffffb
fffffffe
fffffffb
fffffffe
00000000
00000000
00000000
00000000
ffffffff
00000001
fffffffe
00000001
fffffffe
00000000
fffffffd
ffffffff
00000001
00000000
00000000
00000006
00000004
fffffffb
00000002
00000006
00000000
00000003
ffffffff
ffffffff
00000005
00000000
ffffffff
00000002
00000000
00000000
00000003
00000009
ffffffff
00000000
00000005
00000000
00000000
00000000
fffffffe
fffffffd
fffffffb
ffffffff
fffffffd
00000000
ffffffff
fffffffb
ffffffff
00000000
00000003
ffffffff
00000000
00000004
00000000
fffffff9
00000000
fffffffe
00000000
ffffffff
fffffffe
fffffffb
fffffffe
00000000
00000000
fffffffa
fffffff9
fffffffd
ffffffff
fffffffb
fffffffe
00000006
00000001
fffffffb
00000005
00000008
fffffffb
fffffffe
00000001
fffffffa
00000001
00000009
fffffff8
fffffffc
00000006
00000000
fffffffd
ffffffff
fffffffd
fffffff8
fffffffa
00000000
fffffff8
fffffffb
00000000
00000000
00000004
ffffffff
00000000
00000001
fffffffe
ffffffff
fffffffe
ffffffff
00000000
00000003
ffffffff
fffffffd
00000000
00000000
fffffffe
fffffffe
00000001
00000001
ffffffff
00000001
00000003
00000001
fffffffe
00000002
00000004
00000004
00000003
00000003
00000003
00000000
00000005
00000000
00000000
00000000
ffffffff
00000000
00000000
fffffffe
00000001
00000000
ffffffff
00000000
fffffffa
00000000
00000000
ffffffff
00000000
00000004
00000004
00000003
fffffffc
00000004
00000000
fffffffc
fffffffc
00000009
00000000
fffffff6
00000003
fffffffc
fffffffb
00000000
00000000
ffffffff
00000003
fffffffe
fffffffd
00000003
ffffffff
fffffffc
00000002
ffffffff
fffffffb
00000005
00000003
fffffffa
00000002
00000003
00000001
00000001
fffffff9
fffffffc
ffffffff
fffffffc
fffffffb
ffffffff
fffffffb
00000000
ffffffff
00000001
fffffffc
fffffffc
fffffff9
fffffffe
00000000
fffffffe
ffffffff
00000002
00000003
00000000
00000004
00000005
00000001
00000002
00000002
00000009
fffffffc
00000000
fffffffc
fffffffd
fffffffe
fffffffd
00000000
00000000
ffffffff
fffffffc
fffffffc
ffffffff
00000000
fffffffa
00000001
fffffffe
fffffff9
fffffffe
ffffffff
00000000
ffffffff
00000001
00000000
00000000
00000003
00000001
00000000
fffffffe
00000000
fffffffc
00000001
fffffffd
fffffffa
00000000
00000000
fffffffd
00000005
00000003
00000002
ffffffff
fffffffd
00000003
00000002
fffffffe
00000002
00000003
fffffffe
fffffffd
00000008
00000000
fffffffe
00000007
00000003
00000000
00000000
00000005
00000001
00000000
00000006
00000001
00000000
00000002
00000006
00000002
00000000
fffffffa
00000001
ffffffff
fffffffc
00000001
fffffffd
fffffffb
00000003
00000006
fffffffd
00000000
0000000d
00000003
fffffffa
ffffffff
fffffffe
ffffffff
fffffff9
fffffffb
00000001
fffffffd
fffffffe
00000000
fffffff9
ffffffff
00000002
fffffffd
00000000
00000000
fffffffc
fffffffc
00000000
fffffffd
fffffffc
00000005
fffffffe
fffffffb
00000001
00000000
fffffff9
00000001
ffffffff
00000000
00000002
fffffffc
fffffffc
fffffffe
ffffffff
00000003
00000001
00000001
00000003
00000000
fffffffe
00000000
00000000
00000002
00000003
00000000
ffffffff
ffffffff
fffffffa
00000004
00000002
fffffffa
fffffffa
00000005
00000003
fffffffe
ffffffff
fffffffb
00000005
00000008
fffffff9
fffffffc
00000002
ffffffff
fffffffa
fffffffb
00000000
fffffffb
fffffffd
00000002
ffffffff
00000006
00000001
fffffffe
ffffffff
fffffff5
0000000c
00000001
ffffffec
00000011
00000018
ffffffea
fffffffb
0000000e
fffffff9
00000004
00000003
fffffff5
00000000
00000004
fffffffb
fffffff9
00000003
00000002
fffffffe
fffffff8
00000003
fffffffc
00000000
00000001
00000000
00000000
fffffff8
00000005
00000001
fffffff6
00000004
0000000a
fffffff8
fffffffe
00000005
00000002
fffffffe
00000000
00000003
fffffffc
fffffffd
fffffffe
ffffffff
ffffffff
fffffff6
00000001
0000000a
fffffff9
fffffff8
00000002
00000003
fffffffc
fffffffd
fffffffc
fffffffc
00000004
00000000
fffffffb
ffffffff
ffffffff
00000000
00000000
00000000
fffffffd
00000000
fffffff9
fffffffb
00000005
fffffff6
fffffff8
00000000
ffffffff
ffffffff
ffffffff
00000000
00000000
00000000
00000000
00000002
00000001
fffffffb
fffffff9
00000002
fffffffb
ffffffff
00000004
fffffffd
fffffffe
00000007
00000003
fffffffe
00000004
00000003
fffffffd
00000000
00000005
00000001
fffffffc
fffffffe
fffffff9
fffffffe
ffffffff
00000000
00000000
00000003
00000004
00000000
00000000
fffffffe
00000001
00000002
fffffffb
fffffffd
00000003
00000002
00000000
00000002
00000001
00000000
00000001
00000000
ffffffff
00000003
00000000
fffffffe
fffffffc
00000000
ffffffff
ffffffff
fffffffd
00000001
00000001
00000000
ffffffff
00000000
00000000
00000001
00000000
00000000
fffffffe
fffffffd
00000004
00000003
fffffff4
ffffffff
fffffffd
fffffff0
00000006
00000012
fffffff6
fffffff8
00000002
00000004
00000002
fffffffd
00000001
00000001
fffffffa
00000005
00000000
fffffffc
00000007
00000008
ffffffff
00000001
00000005
00000003
fffffff9
ffffffff
00000001
00000006
00000002
fffffffd
00000003
00000000
fffffffc
00000000
00000001
00000000
00000003
00000000
fffffffe
00000001
00000001
fffffffc
00000001
00000000
00000000
00000000
fffffffe
fffffffd
00000002
fffffffc
fffffffd
00000007
00000006
fffffffc
00000004
00000000
00000001
00000005
fffffffc
fffffff8
00000009
00000000
fffffff8
00000004
00000001
00000001
00000000
00000001
ffffffff
00000000
00000000
00000000
00000003
fffffffe
ffffffff
00000003
fffffffc
ffffffff
00000002
00000000
ffffffff
00000000
ffffffff
fffffffc
00000002
00000002
fffffffb
00000001
00000000
fffffffd
ffffffff
fffffffb
ffffffff
00000000
fffffff7
fffffffc
fffffffd
00000000
fffffffd
00000005
0000000c
00000000
00000005
fffffffd
fffffffa
ffffffff
fffffffc
fffffffe
00000001
00000001
fffffffe
00000002
fffffffc
00000000
00000001
00000000
ffffffff
ffffffff
00000002
00000005
00000000
00000001
00000003
fffffffc
00000002
00000001
00000006
fffffffc
ffffffff
00000002
fffffff6
00000000
00000003
fffffffd
00000001
00000001
00000003
00000003
00000001
0000000a
00000004
00000000
00000004
00000005
00000003
fffffffd
ffffffff
fffffffd
ffffffea
fffffffb
00000000
fffffff6
00000003
00000000
00000000
00000003
fffffffc
00000003
00000001
fffffffd
00000006
00000000
fffffffd
fffffffc
ffffffff
fffffffe
fffffff9
fffffffc
fffffffe
fffffffa
ffffffff
00000007
fffffff7
00000005
fffffff7
ffffffe7
fffffffe
00000001
fffffffa
00000007
fffffffb
00000000
ffffffff
00000000
00000000
00000000
00000000
00000002
00000002
ffffffff
fffffff5
fffffff4
00000000
fffffffb
fffffff9
00000004
00000003
fffffffc
fffffffb
00000002
fffffffb
00000004
00000008
fffffffa
fffffff9
fffffffc
fffffff6
0000000b
ffffffff
00000004
00000000
ffffffea
fffffff3
ffffffff
fffffff1
fffffffa
00000000
00000003
00000005
ffffffff
00000000
00000000
00000000
00000004
00000000
ffffffff
00000003
00000003
00000000
00000004
00000001
ffffffff
00000001
00000001
00000003
00000003
00000004
00000001
00000000
00000001
00000001
00000000
00000000
fffffffb
00000002
00000001
00000000
00000005
00000001
00000000
00000002
00000003
fffffffd
00000000
00000000
fffffffc
fffffffd
00000000
ffffffff
fffffffe
fffffffe
fffffffe
00000000
00000000
fffffffe
fffffffc
ffffffff
fffffffd
fffffffb
00000001
00000000
00000003
00000000
00000003
ffffffff
00000000
00000003
00000001
00000000
00000000
00000001
00000000
00000001
00000000
00000001
ffffffff
ffffffff
00000000
00000008
00000009
00000002
00000009
fffffffe
00000001
00000007
fffffffc
00000003
fffffffb
fffffffe
00000000
fffffff8
fffffff9
00000000
fffffff9
fffffffc
ffffffff
00000001
00000000
00000000
00000002
00000001
ffffffff
00000003
00000000
ffffffff
00000000
00000002
00000002
fffffffd
00000002
00000003
00000000
00000005
ffffffff
00000000
00000001
00000000
00000000
fffffffc
fffffffd
ffffffff
00000001
ffffffff
00000002
00000001
fffffffe
00000005
00000000
ffffffff
00000006
ffffffff
ffffffff
00000002
00000005
ffffffff
00000000
0000000e
00000003
fffffffd
00000004
00000000
ffffffff
ffffffff
fffffffd
fffffffd
fffffffc
00000000
fffffffe
fffffffe
00000001
fffffffe
ffffffff
fffffffb
fffffffb
fffffffb
fffffff9
fffffffb
fffffffe
fffffffb
00000003
fffffffe
fffffffd
ffffffff
00000003
00000000
fffffffe
00000003
ffffffff
00000004
ffffffff
fffffff9
fffffffe
fffffff6
fffffff6
ffffffff
ffffffff
00000000
ffffffff
00000000
ffffffff
00000000
fffffffc
ffffffff
00000000
ffffffff
00000000
00000000
fffffffc
ffffffff
00000001
fffffffc
00000000
00000001
00000001
00000001
00000000
00000005
00000002
00000000
00000003
00000004
fffffffd
00000003
00000002
fffffffb
fffffff7
fffffff9
fffffffd
fffffffb
fffffffb
00000000
ffffffff
00000000
00000001
fffffffc
00000000
00000000
00000000
00000001
ffffffff
fffffffc
00000000
fffffffa
fffffff7
fffffffe
fffffffd
fffffff7
ffffffff
00000000
00000000
00000003
00000000
00000001
00000001
00000000
00000000
ffffffff
00000004
00000001
fffffffe
00000005
00000003
ffffffff
00000000
ffffffff
00000002
00000000
00000002
00000003
fffffffd
fffffffc
fffffffe
00000000
fffffffb
ffffffff
00000003
00000003
00000002
fffffffd
fffffffc
ffffffff
ffffffff
fffffff9
fffffffb
00000001
00000000
00000000
fffffffe
fffffffb
fffffffb
00000000
00000002
00000003
00000001
00000004
00000003
ffffffff
00000003
00000000
fffffffc
00000000
fffffffd
fffffffc
ffffffff
fffffffe
fffffffc
fffffffd
00000000
00000000
00000001
00000000
00000001
00000003
00000003
fffffffc
fffffff9
fffffffc
fffffffd
fffffffc
00000000
00000000
00000002
00000000
fffffffd
00000005
00000005
00000000
00000004
00000003
00000000
00000001
00000000
00000006
fffffffd
fffffffd
00000000
fffffff8
fffffffb
00000000
fffffffe
00000003
00000000
00000007
00000005
ffffffff
00000001
00000000
ffffffff
00000002
ffffffff
ffffffff
00000000
00000001
00000002
00000002
